#version: 0.2 - Trained by `huggingface/tokenizers`
Ġ e
Ġ p
Ġ d
Ġ l
Ġ s
u e
Ġ a
Ġ c
e r
Ġd e
Ġ m
e n
q ue
o n
a s
o s
a n
a r
Ġ que
Ġ t
Ġe s
Ġl a
o r
Ġ h
u n
d o
Ġ y
Ġ n
i n
r e
t a
Ġe n
Ġe l
Ġ v
i c
e s
a l
Ġ un
t e
c i
d a
Ġn o
r a
Ġ f
Ġ b
o m
i s
t o
Ġs e
Ġm e
l a
Ġc on
Ġh a
e l
i en
i a
i l
Ġ g
Ġa l
Ġl o
Ġp ar
r o
Ġ o
Ġc om
Ġp or
Ġp er
Ġ re
Ġp el
Ġl os
Ġs i
Ġs u
l e
i m
e c
Ġun a
a m
l o
d e
Ġt o
p o
Ġ in
u s
ic u
ci on
an do
en te
Ġpel icu
Ġm u
Ġper o
a b
Ġde l
c h
Ġcom o
t i
Ġc u
g o
r i
Ġpar a
Ġes ta
Ġm as
Ġl e
i er
Ġ j
Ġpelicu la
Ġl as
a d
Ġ 1
Ġs o
i o
Ġde s
q u
i r
a do
t r
Ġ w
Ġa n
t an
e m
Ġp o
Ġv er
il er
Ġa c
t er
ue n
t ar
po iler
t u
i g
i on
a da
t os
da d
Ġs poiler
Ġt h
Ġ 2
a j
Ġf in
Ġm i
c o
m a
ue s
Ġes c
t or
c e
m ente
Ġd i
g un
t ra
Ġs er
Ġe x
p er
d i
ue r
t en
o l
u l
Ġp r
Ġp ro
Ġha b
Ġm a
Ġa s
Ġcu ando
ic a
Ġfin al
d os
Ġt ien
r an
Ġ x
Ġc re
g u
b re
Ġy o
g a
Ġt en
Ġto do
Ġmu y
Ġmu ch
Ġs al
Ġt e
i b
d er
Ġv i
m an
Ġy a
t as
s on
Ġ qu
t es
Ġv e
Ġs in
Ġesc en
t ro
ic o
Ġth e
Ġ r
Ġg us
l an
Ġp as
ta do
Ġx d
ien do
Ġt ra
i do
Ġh e
u r
ci a
z a
s e
Ġha y
Ġpor que
ta l
l as
Ġb uen
Ġc o
Ġt i
c a
re s
Ġtien e
er a
Ġc a
h o
p ar
p e
Ġn i
m as
m o
Ġper son
Ġs on
Ġv is
Ġ im
Ġes o
Ġen t
a t
i e
Ġ 3
Ġ k
Ġm al
Ġpel i
Ġb as
Ġp ue
a c
Ġc h
Ġt an
Ġm an
v e
am b
Ġc os
Ġa r
Ġre s
Ġ i
Ġm en
Ġc as
ec e
Ġv a
Ġa un
Ġd ic
Ġl le
Ġh u
j or
Ġm is
Ġc ar
Ġme jor
b a
i dad
Ġn ada
v o
Ġal go
Ġa m
Ġb ien
in e
c er
Ġre c
Ġs ab
v er
om en
tan te
l ar
d as
p i
t t
Ġso bre
Ġpr im
Ġ ro
Ġs en
Ġp re
Ġa h
a cion
Ġh an
Ġp e
Ġ ra
Ġas i
Ġj o
Ġescen a
Ġmuch o
or a
er o
Ġen c
Ġa b
Ġso lo
m p
Ġm o
v i
Ġal gun
Ġm ar
Ġd a
Ġde j
Ġd is
in g
v a
Ġn in
Ġperson aj
Ġcre o
i z
Ġf or
Ġp a
Ġsu s
Ġm omen
ab a
u m
Ġha ce
p a
l os
Ġpo co
Ġp u
t h
Ġent re
Ġes te
d d
Ġh as
Ġ1 0
v en
Ġg u
r u
p ues
Ġh is
r as
Ġbas tante
Ġt amb
r ia
Ġpar ece
Ġtamb ien
Ġp lan
Ġ or
Ġp en
Ġes e
Ġde ci
Ġex p
Ġp ues
Ġp un
Ġre al
em p
Ġd u
Ġpar e
tt p
Ġvis to
Ġaun que
l es
Ġes to
Ġh ttp
Ġl u
Ġp on
Ġhis tor
g ar
Ġd on
Ġh ec
b le
Ġ 4
Ġ2 0
Ġe ra
Ġes a
d en
tr as
Ġpar te
j e
Ġd o
j o
Ġes per
Ġv en
Ġ os
Ġha cer
Ġin ter
Ġim p
ue go
Ġ 5
an te
Ġo f
am ente
t im
Ġto dos
Ġpue de
in a
Ġcos as
is ta
qu i
Ġhistor ia
t ic
p on
Ġc or
Ġmen os
m e
in o
Ġdon de
ier a
Ġf ue
Ġsu per
Ġhas ta
Ġg en
Ġc ine
al es
Ġn e
r en
Ġf al
f ec
Ġve z
ue l
k e
Ġt er
Ġg ran
Ġt u
Ġa p
ar a
j a
Ġhec ho
g ra
l i
Ġm uer
Ġmomen to
c u
l ic
Ġto da
Ġver dad
Ġd os
d io
Ġs a
Ġo tra
n o
f ic
Ġa par
m os
re c
Ġde mas
Ġgus tado
Ġp os
Ġw w
Ġcom p
Ġpare ci
b e
Ġprim era
m en
Ġh i
il l
am os
Ġww w
u al
d ar
Ġpelicu las
Ġn os
Ġ ul
d ia
ec es
ti do
i an
f er
Ġg ra
u c
b o
p ec
Ġn a
Ġac ab
z o
Ġbuen o
g an
Ġo tro
i os
Ġl ib
in ci
Ġin c
Ġc ier
or es
Ġm in
Ġse a
Ġse gun
i da
Ġcon s
Ġ ir
Ġd ar
Ġdeci r
Ġo b
a g
Ġmis mo
Ġm on
Ġf il
Ġescen as
Ġc lar
i ta
s o
ad re
Ġl uego
Ġdes pues
is im
Ġc am
c ar
Ġc ab
Ġdes de
b er
Ġ 8
Ġhab er
c es
Ġqu ier
i as
Ġpr inci
c en
Ġdic e
em os
Ġdi rec
Ġm un
Ġpersonaj e
Ġ 7
Ġ 6
g on
Ġah i
ib le
Ġh o
em po
Ġhu b
t il
Ġc uen
Ġti empo
Ġes tan
p io
Ġcu al
Ġul tim
ta mente
v el
s ion
Ġvi da
Ġv o
Ġe m
Ġpro ta
Ġun o
on es
n e
Ġc an
Ġ 0
cion es
Ġsi do
j er
gu ien
u tu
Ġan d
c k
Ġ ig
tr os
Ġse gu
Ġque da
Ġb o
Ġpo d
Ġan os
Ġ1 9
Ġn ue
i t
Ġpen s
a v
Ġah ora
an o
ien to
Ġ us
Ġpersonaj es
g e
h a
Ġ ri
Ġv ol
Ġcos a
Ġel la
Ġl es
d es
Ġbuen a
Ġver la
Ġg ente
Ġin ten
Ġtan to
Ġo p
d or
Ġm or
Ġan tes
ad os
Ġin f
Ġnin gun
ig h
t in
il la
Ġcon o
i es
Ġenc an
Ġ q
di do
ch e
Ġgu ion
Ġmun do
Ġ 9
Ġcier to
Ġa de
Ġhu man
em a
r is
tr ar
Ġade mas
y a
os o
Ġclar o
o o
Ġhab ia
Ġ u
an a
Ġgus to
t on
Ġa qui
t ando
Ġsu pon
f f
Ġes pe
Ġv uel
Ġc amb
Ġo c
Ġqu ien
en do
Ġh om
Ġig ual
Ġc al
Ġe mp
t ica
t re
Ġfor ma
Ġor ig
Ġim ag
ti r
Ġc ri
ci as
t s
Ġpo der
Ġse c
Ġt al
Ġsal e
mp le
Ġespe ci
Ġesta ba
Ġc ada
Ġa y
or m
Ġp es
Ġsi emp
ia do
Ġsiemp re
Ġp res
i to
Ġv ar
Ġcas i
ti on
Ġcuen ta
ti v
en cia
Ġlib ro
Ġlle v
Ġv al
Ġprota gon
Ġm ier
Ġp al
Ġprinci pio
Ġf an
Ġcom en
Ġpas a
Ġto das
uer do
Ġl i
Ġac tor
g ue
Ġh er
Ġb a
Ġb e
Ġl la
Ġt am
Ġsen tido
Ġd ia
Ġf uer
g er
Ġg an
il o
Ġb us
ter i
Ġ20 1
Ġh ar
Ġpun to
j os
en a
ab le
Ġes tar
ien te
Ġ ib
Ġs ac
g ia
Ġv an
Ġde n
Ġb at
ic ion
Ġt om
v ia
Ġal guien
Ġdirec tor
Ġt ran
Ġpareci do
Ġes p
Ġcon tra
r os
Ġmin u
ad as
Ġtien en
Ġ z
Ġac cion
l u
Ġun os
ci o
e a
Ġb ru
Ġen ten
v is
Ġhom bre
d u
ta cion
Ġmier da
Ġre p
Ġt ras
j s
Ġt on
Ġcom ic
po co
Ġe p
n a
Ġter m
Ġe j
Ġcu an
Ġten ia
Ġtam poco
Ġp i
Ġsi mple
Ġprim er
Ġun ico
Ġt io
Ġten er
Ġc i
lo ad
Ġmuer te
Ġv amos
us o
v es
aj o
Ġal ien
Ġ on
Ġgen er
Ġpod ria
Ġa d
Ġsu b
Ġimp or
tu acion
k er
m or
Ġesper aba
Ġpun tos
Ġf a
Ġb ar
ch a
ri o
e ta
ac k
t ico
Ġten go
tr u
Ġi de
Ġj us
Ġma y
ar se
Ġb an
Ġg o
Ġw ar
Ġsab e
Ġf o
Ġa u
isim o
Ġorig in
Ġs tar
r y
ce p
tr an
Ġve o
Ġcas a
Ġmu jer
Ġ is
Ġh l
Ġn ad
Ġs h
l y
0 0
i za
al mente
Ġhl js
Ġd an
a a
m i
la cion
Ġtra ma
Ġbat man
Ġv eces
Ġf un
g en
Ġnad ie
Ġel los
Ġin s
um en
Ġj u
Ġmomen tos
s acion
t c
t ri
p re
Ġt ema
Ġab s
Ġhub iera
Ġs or
Ġes tu
Ġto tal
Ġp adre
Ġam b
Ġh or
dos e
l la
Ġdemas iado
Ġfil m
Ġinter es
aj a
ta d
Ġsin o
Ġfue ra
Ġmal o
Ġyo utu
z ar
Ġs uen
Ġacab o
Ġc ol
ti vo
om e
at ch
Ġme ga
Ġtran s
Ġm adre
Ġt ar
Ġpas ado
en o
ad or
Ġpu ta
ran te
Ġminu tos
Ġgus ta
p en
Ġca pi
Ġib a
d an
g as
d on
Ġti po
Ġej emp
Ġdo c
igh t
p el
Ġes pec
tu ra
Ġjo der
Ġdej a
v an
Ġf i
Ġj e
Ġser ia
Ġn eces
Ġm ue
Ġyoutu be
i al
om b
d s
Ġexp lic
Ġtra iler
dd dd
an os
Ġentre ten
te l
Ġsegun da
u p
Ġalgun a
Ġa gu
os a
Ġe fec
d uc
Ġorigin al
Ġs an
Ġcab e
Ġrec or
Ġcon f
Ġesto y
Ġd ra
s a
Ġcar a
Ġn un
Ġc er
Ġper fec
Ġnun ca
u t
Ġre f
Ġdic ho
Ġw atch
Ġhay a
tal la
Ġalgun os
Ġe tc
Ġt r
Ġreal mente
Ġp an
Ġha cia
Ġm er
Ġop in
u da
Ġdu rante
l ica
Ġdi fer
Ġma tar
ar io
Ġcual qu
Ġl ar
Ġo tras
l on
Ġl l
Ġman era
Ġfal ta
Ġes tas
Ġejemp lo
g os
Ġun i
c an
gu men
Ġm ien
Ġpon er
c on
Ġprotagon ista
Ġsor p
gra f
g ro
ol u
ien e
Ġvis ta
Ġar gumen
Ġgener al
Ġm us
Ġno m
g ado
ar ia
Ġenc on
Ġso y
Ġmien tras
iz o
Ġsa ga
ci endo
Ġha cen
l lo
Ġpre gun
Ġc in
Ġmuch as
Ġinc l
n er
Ġden tro
Ġt a
Ġde tal
Ġw h
is mo
ri an
Ġla do
Ġam er
Ġm il
b ra
Ġde ber
Ġnue vo
Ġcas o
t ia
Ġo l
Ġpa pel
Ġ1 2
Ġoc ur
b an
Ġso l
Ġinter pre
Ġd ig
ci do
Ġsab er
ier on
b ar
Ġt or
Ġide a
Ġes os
Ġj un
Ġo tros
Ġna ve
Ġopin ion
Ġs pi
or ia
ta da
la do
up load
Ġre y
Ġl en
e d
Ġincl uso
Ġde b
Ġmega upload
n i
v il
Ġent iendo
Ġva ya
Ġsi m
Ġpro ble
Ġcomp le
el o
Ġco j
k i
ec er
Ġespec ta
Ġde f
Ġdi os
Ġ20 0
Ġhi jo
Ġs iendo
aj e
r on
ch o
Ġmuch os
al l
Ġres ul
Ġtra b
i p
Ġmal a
Ġan teri
al o
Ġmar vel
Ġb la
Ġan o
Ġenc uen
Ġreal idad
Ġcabe za
Ġen ci
Ġemp ie
Ġt ier
c os
Ġalgun as
Ġpareci o
a y
ar on
Ġen ter
e e
Ġf am
Ġ1 5
Ġser a
Ġpe or
Ġquier e
Ġcuan to
Ġme dio
Ġsimple mente
Ġv iendo
Ġno ta
Ġnin o
Ġres to
c as
di da
ic h
Ġpel is
Ġg uer
il lan
r im
is o
vi d
Ġf utu
u ra
z on
Ġdi go
Ġdu da
Ġsal v
Ġmis ma
Ġplan eta
Ġp in
ti va
Ġrec uerdo
Ġsen sacion
ic os
Ġtier ra
Ġpas ar
i go
Ġapar ece
tu r
n os
Ġan im
Ġuni ver
is te
Ġca p
Ġpro f
Ġni vel
Ġdis f
pec to
e p
Ġultim a
Ġfam il
Ġa da
ues tra
r or
Ġpen a
Ġd ado
Ġh izo
Ġenci ma
Ġp la
Ġvo y
m ar
y o
Ġvol ver
Ġten d
e o
ad ores
Ġas es
Ġlle ga
al a
h er
Ġc ien
e is
Ġexp lica
is tas
Ġne gro
Ġher man
b b
Ġlle gar
Ġes as
ar d
Ġf u
Ġb es
iz as
Ġpues to
Ġdoc umen
Ġsupon go
Ġtotal mente
ar ro
Ġv ia
ion es
Ġcualqu ier
on ces
Ġdic en
da do
Ġser ie
Ġpe que
Ġle ido
Ġfan tas
Ġre g
Ġth or
Ġi t
Ġem pe
Ġent onces
Ġh ora
Ġr ar
i tar
Ġn orm
Ġcon ver
Ġencan tado
ci al
Ġesta do
Ġsupon e
Ġmue re
Ġentreten ida
ra do
Ġsal ir
b la
h n
Ġl im
Ġdes a
Ġfo to
ul ar
Ġlu ke
i d
Ġm os
Ġt ir
Ġha ciendo
Ġr om
in ar
r ar
Ġes pa
ic k
ci l
Ġ1 3
Ġlu gar
Ġenten der
Ġa ven
Ġvi e
Ġultim o
isim a
t y
Ġre lacion
Ġcom par
Ġsi gue
Ġsuper man
ec en
Ġes tr
Ġac tu
Ġpens ar
cep cion
Ġj a
Ġmi ra
d y
Ġa t
Ġay er
Ġguer ra
p os
Ġpue den
it y
y pe
Ġe di
i ar
Ġc en
il lo
Ġe mo
Ġcu l
Ġpas o
Ġk e
Ġun as
Ġimag en
Ġen f
Ġme dia
Ġcom e
u b
Ġvi de
Ġir on
Ġd er
im en
Ġcri tic
Ġsi g
Ġw i
Ġqu izas
Ġma g
Ġval e
Ġmuch a
Ġdisf ru
z os
f ica
Ġdej ar
Ġv io
Ġdes arro
Ġpos ible
Ġsuen o
v os
Ġg or
Ġme ter
Ġch ica
ic as
graf ia
Ġal e
Ġ1 1
Ġsi tuacion
Ġargumen to
ec h
v ir
Ġp ien
Ġ1 7
Ġesc ri
Ġc las
Ġver sion
Ġlle va
Ġpu to
u g
Ġfuer za
se gu
Ġjo hn
Ġactor es
u dad
f or
Ġc uer
Ġefec tos
Ġa tra
Ġpon e
Ġcons ig
el e
di an
pues to
res ion
Ġd in
Ġnin a
Ġhub ies
f e
Ġf ran
Ġci udad
Ġxd d
u do
p ia
Ġl an
Ġsorp ren
Ġp ier
Ġen tra
aj aj
Ġgra cias
r om
em en
Ġk y
Ġcu ri
Ġxd dd
Ġac aba
ue la
Ġes til
Ġdes cu
av or
Ġ1 4
Ġg i
Ġb ra
Ġcomen tar
y e
Ġt res
Ġv illan
am e
Ġam or
c re
Ġdeber ia
il idad
Ġlo g
ab an
Ġ3 0
Ġmor ir
ri p
Ġsab ia
Ġhab ria
l l
Ġmuer to
Ġfutu ro
Ġempie za
t m
Ġpar t
Ġmi e
Ġhi ja
Ġcoj ones
g re
Ġw e
Ġth at
Ġgu ar
Ġvuel ve
Ġspi der
k y
Ġh os
Ġh ero
Ġv es
Ġf avor
Ġuniver so
Ġgus tar
an tes
ar e
Ġes tos
Ġac uerdo
Ġt ec
Ġt emp
Ġmi tad
Ġproble ma
p or
Ġnue va
Ġningun a
Ġmo v
Ġnom bre
Ġep iso
Ġestil o
ic amente
Ġw ill
Ġquier o
Ġho y
Ġvis ion
ue lo
Ġhor as
Ġsi guien
Ġgan as
Ġfamil ia
Ġnorm al
c ado
di tos
Ġma ta
Ġdis par
es e
Ġti p
Ġca pa
z as
Ġp s
las h
Ġb on
Ġhab la
Ġmuch isimo
d ic
on o
Ġrec uer
a k
Ġm ill
Ġra to
u u
el l
Ġdej o
Ġcam ara
e t
Ġgen ial
Ġcomic s
Ġde c
Ġjo ker
Ġgran de
Ġpre ci
te d
ier an
Ġj am
Ġperson as
Ġf is
Ġperson a
Ġar ri
Ġa ta
im o
Ġab ur
Ġba talla
Ġe qui
Ġpro duc
Ġtien es
Ġnin os
al e
Ġos cu
ti tu
Ġac er
Ġmejor es
Ġvide o
Ġmie do
Ġcon ven
Ġc la
Ġj ack
ig os
Ġdra ma
s en
y s
tan tes
Ġhuman os
Ġmay or
Ġamer ic
Ġb en
Ġro bo
in s
Ġabs ur
Ġanteri or
on e
Ġt ia
ri r
Ġr is
g i
Ġ ido
Ġfun cion
Ġ1 6
Ġpres en
Ġbru tal
l ando
Ġcre a
Ġor den
Ġmus ica
Ġky lo
v io
Ġol vi
Ġada p
Ġcri tica
er os
Ġm ir
Ġm ol
in os
Ġel lo
Ġb u
Ġdes p
Ġesc a
Ġcon tro
Ġpelicu lon
Ġ1 8
p s
Ġl ine
Ġhubies e
Ġf lo
Ġpue do
Ġe ran
Ġde cepcion
Ġso bra
tu lo
Ġser io
Ġra pi
Ġdis tin
Ġs te
Ġf li
Ġn ar
ch ar
Ġt re
Ġcon segu
Ġterm ina
d icion
Ġman o
Ġprinci p
Ġs ho
Ġimp resion
Ġinc re
Ġm ad
Ġrec omen
b u
an t
Ġten ga
Ġres pecto
Ġesper o
Ġinteres ante
en tes
Ġcon tin
Ġp ie
lo g
Ġpo lic
ul k
Ġhab lar
Ġpel ea
ti fic
Ġco che
Ġwar s
Ġpar tes
Ġdi alo
m iento
Ġp d
Ġf ic
ien tos
tr on
Ġdetal les
i i
Ġh ulk
Ġsegu ro
Ġg ol
ri do
Ġpu b
z ado
Ġten sion
ne y
Ġdes tru
Ġdi as
m on
Ġepiso dio
im a
Ġqueda do
Ġcapi tan
Ġv iene
oo d
Ġfa cil
Ġd ir
Ġjus to
Ġtr ilo
ti o
th er
Ġven g
Ġperson al
Ġc ru
Ġno che
Ġb or
Ġdu ra
j as
Ġplan o
Ġh ic
Ġprim ero
Ġg ru
Ġex per
Ġyo u
Ġco le
Ġac tuacion
in as
Ġhu mor
Ġtra ta
Ġbuen as
Ġm ic
in acion
Ġf ras
Ġcamb io
Ġal li
Ġbas e
Ġda vid
o k
Ġt ro
Ġg a
Ġle er
y ec
Ġh ue
Ġf e
y endo
Ġtrilo gia
Ġf lash
iz ar
Ġabs olu
il los
Ġdar le
as e
on do
Ġun ica
Ġmen cion
Ġra zon
Ġdej ado
Ġter ror
Ġhar ry
er e
Ġth anos
Ġ2 1
Ġbuen os
b lo
u d
Ġre fer
Ġin ic
Ġlla m
Ġimpor tante
r iendo
Ġque dar
Ġpos t
Ġpr ome
Ġto p
Ġri d
Ġsiguien te
Ġsal en
Ġan ti
Ġpo dia
Ġa que
Ġob ra
Ġmon s
Ġc ues
Ġt em
Ġma qu
Ġinf in
c ur
Ġt ype
Ġt ele
il d
Ġencon trar
Ġcontin u
Ġe r
Ġj uego
Ġresul ta
i der
Ġma es
Ġtrab ajo
Ġsegun do
Ġsan gre
z an
Ġacab ar
l en
Ġex is
Ġr en
tm l
ri g
Ġ2 2
er on
ien tes
Ġem bar
Ġhuman o
u la
v ier
ci to
i tas
Ġb el
il ar
Ġten ido
Ġsen or
Ġplan os
Ġemo cion
Ġre la
Ġtemp or
h ero
ier o
tu ras
Ġpue des
Ġdic iendo
Ġm es
ta ble
Ġre ci
Ġex c
Ġque ria
Ġp ad
Ġspoiler s
le y
im e
Ġesc u
Ġqu iza
Ġpon go
Ġsegu ir
Ġveng adores
i el
Ġp uer
Ġd ando
Ġo jo
Ġin ven
Ġsal a
Ġam igo
Ġcuer po
Ġvillan o
Ġspider man
g ando
Ġa ten
Ġme di
Ġro llo
t f
Ġv as
Ġpro pio
Ġdocumen t
Ġbru ce
Ġvar ias
Ġespa cio
c al
res a
Ġgra cia
ig a
Ġdi jo
Ġjo ven
us ion
Ġban da
ci e
t iene
Ġ2 4
ger s
Ġpar ecer
Ġh ol
Ġcomp an
Ġus a
Ġprof un
p h
Ġf el
Ġcre ditos
us a
Ġ10 0
Ġa po
s s
Ġan g
Ġa f
Ġen gan
Ġre b
tra do
Ġpue da
Ġembar go
tan cia
Ġdo y
d ra
h e
Ġcon tar
Ġg e
Ġdic es
Ġespeci al
Ġton y
Ġu til
Ġe jer
Ġcons ider
aa aa
Ġexplic ar
Ġco bb
b ol
c ando
Ġg ri
Ġfoto grafia
Ġpro yec
Ġmen s
f o
v as
v olu
Ġa g
Ġpregun ta
i re
Ġf ir
Ġam igos
Ġgran des
Ġencan ta
m in
ar la
Ġc l
Ġte oria
l ico
Ġ2 5
Ġsuper hero
Ġri t
i dos
Ġde be
Ġpar tir
Ġper s
Ġpe ter
Ġapar te
n y
Ġdo bla
Ġimp os
Ġpan talla
c era
Ġs uel
Ġm ente
Ġdes ta
Ġespecta dor
c ular
on a
Ġo jos
Ġre par
Ġex ac
Ġsal ido
Ġz omb
Ġb y
Ġb aj
im os
ec u
lo gia
Ġpod rian
Ġdescu b
d ente
Ġme te
Ġcom un
Ġbla ck
or e
Ġan te
tar se
Ġmons tru
er s
en as
Ġmo do
Ġse x
tiv os
w n
Ġl in
Ġa v
Ġinc lu
Ġstar k
Ġb r
Ġres pon
Ġrec om
Ġra p
Ġespeci e
Ġsac ar
Ġwi th
p an
Ġocur re
Ġen tr
Ġel e
Ġin gen
Ġdef in
Ġen trar
Ġsu ic
Ġin g
Ġso b
Ġdi ver
ter o
Ġcritic as
Ġse an
Ġcon ten
pues ta
g ada
Ġp ra
Ġse man
Ġamb ien
Ġdetal le
f a
Ġpa is
Ġbus car
Ġtar de
Ġfu i
te c
Ġb lan
Ġcu r
Ġj ue
Ġex tra
Ġincre ible
Ġh ilo
un d
Ġma x
iz ado
Ġorig en
Ġgru po
Ġpro pia
tal es
r er
ti da
Ġob s
ta ba
Ġhab lando
Ġten emos
Ġamer ica
Ġac ep
Ġpre ten
Ġdej an
Ġlu z
tic os
Ġci vil
Ġda y
Ġter cera
Ġpolic ia
i tos
Ġg ir
Ġgen ero
Ġmon ta
Ġconsig ue
Ġh igh
tr uc
Ġca e
Ġpes ar
Ġllev ar
Ġpel e
Ġd ol
Ġi f
Ġmo la
Ġbo ca
Ġrit mo
in ado
Ġno lan
Ġhab ra
Ġdar k
Ġque do
Ġb ajo
Ġg ar
us e
Ġmal os
Ġmar av
Ġlib ros
am iento
ha el
Ġesp an
Ġdifer ente
Ġsalv ar
Ġvar ios
z c
ier to
Ġob je
Ġjun to
l ight
il las
Ġdin ero
en cias
Ġw as
ter a
ve la
Ġmic hael
t ing
Ġc ris
Ġdes con
th e
Ġpal ab
Ġcien cia
w s
Ġpo de
Ġ19 9
Ġll or
Ġfic cion
Ġsu fic
Ġhec h
Ġrid icu
ten cia
Ġti tulo
Ġvis ual
ti as
Ġ2 3
Ġson ora
Ġay uda
Ġcre ar
Ġsobre vi
Ġvo z
i or
Ġs il
Ġarri ba
Ġh emos
ta dos
Ġv ir
Ġf ues
ti dad
Ġw tf
Ġsab es
volu cion
Ġlo co
Ġsu ce
tic amente
d iendo
e z
Ġespeci ales
s amente
Ġs tor
Ġm uestra
Ġn or
Ġch av
Ġpe ga
Ġactu al
Ġb ro
Ġap ro
Ġfil es
Ġlar go
i das
to do
ib les
Ġinten tar
Ġlla ma
Ġmer ece
Ġdesa par
es ion
Ġr u
Ġpon en
Ġfli p
Ġt es
at h
Ġpens ando
tiv as
Ġesta ban
Ġch ris
Ġplan te
ds h
m m
t un
di os
Ġprincip al
Ġti ra
Ġoscu ro
i de
Ġn ues
Ġen em
Ġmu r
Ġinten ta
Ġencan to
Ġsec uen
Ġlar ga
Ġrecomen da
dsh are
Ġv emos
ci dad
Ġsu f
Ġespecta cular
Ġdi fic
Ġhi jos
ic e
Ġ2 8
Ġte x
Ġref le
Ġrapi dshare
Ġb ic
Ġten iendo
Ġdific il
j on
Ġsu r
Ġman os
Ġpreci samente
Ġdialo gos
un to
Ġw al
Ġon e
Ġha ga
il i
Ġpar ecen
Ġpin ta
Ġt ri
Ġcon ta
ma cion
2 0
k a
Ġs am
Ġen fer
Ġw or
Ġpas e
Ġlu cha
Ġimpos ible
o per
Ġso la
Ġje di
b les
l er
as o
tra je
tri z
Ġlen ta
Ġtrab aj
Ġempe zar
Ġar m
Ġconver sacion
Ġe vi
Ġno via
Ġto que
Ġex tr
Ġtoda via
Ġau to
Ġrecor dar
Ġar t
Ġro b
Ġpens aba
Ġjam es
Ġpra c
Ġf ol
Ġxd dddd
Ġtra je
Ġperfec tamente
Ġdi rig
i te
k s
Ġa van
ac ter
Ġinf or
Ġalien s
Ġencuen tra
Ġrecom iendo
j ero
Ġin tro
Ġac o
Ġmens aje
on g
po l
Ġcu lo
ber t
Ġque de
Ġal la
ri dad
Ġw ay
Ġpo bre
Ġsal vo
Ġmay oria
Ġcomple tamente
Ġanteri ores
Ġcapa z
Ġanti gu
6 0
Ġs no
Ġque dan
Ġh el
Ġme zc
Ġ2 7
c tion
s t
Ġe po
Ġa tras
Ġc gi
Ġg re
Ġso cie
Ġap or
Ġsec re
c rip
Ġcom ien
Ġve ia
Ġpoder es
Ġvia je
l or
Ġsu puesto
im iento
Ġpo li
Ġos car
Ġhacer lo
b ack
f ico
Ġk a
Ġcar ga
ill er
Ġsegu ra
Ġrep res
Ġrar o
Ġme mor
de ci
Ġten ian
Ġsal va
b or
Ġde tras
pen d
Ġpeque no
Ġps ico
b ro
l ig
Ġv s
Ġch a
Ġagu a
Ġpien so
w ood
Ġdes tro
du ci
Ġenf ren
Ġaten cion
e x
Ġin di
Ġquier en
Ġherman o
Ġing les
j ar
Ġesta mos
Ġpen se
Ġfal los
o f
or me
Ġf as
Ġf ondo
Ġpro b
Ġaven gers
Ġar re
Ġu p
Ġt ur
Ġch ar
Ġtend ria
Ġimagen es
Ġsufic iente
Ġcu ad
Ġhab eis
Ġdis ney
ber g
vis ion
Ġprimer os
Ġexplica cion
Ġinterpre tacion
Ġcuri os
Ġespan ol
Ġfues e
n or
v iera
Ġf rom
Ġb al
lan d
Ġ201 4
Ġp is
Ġf re
la da
tr al
Ġven ir
Ġconf ir
Ġfras e
Ġen sen
Ġf r
Ġme tido
Ġc ir
Ġj s
Ġthe y
Ġsig ni
Ġpuer ta
Ġhigh light
Ġman ten
Ġul tron
Ġdirec tamente
Ġbus ca
Ġbes t
Ġbic ho
Ġa gra
Ġg ig
ch ild
Ġac triz
Ġgo d
Ġexac tamente
Ġin ner
Ġti ro
Ġrec ono
Ġfun ction
Ġepo ca
Ġrepres en
h tml
Ġd io
te m
Ġ4 0
Ġhuman idad
Ġinner html
Ġes tre
Ġfin n
Ġpare cia
Ġ19 8
Ġpad res
y n
Ġ il
ta ciones
ci ente
Ġb ur
ab les
Ġtrans mi
b us
Ġc lo
Ġar ma
Ġd om
Ġc ho
Ġpas an
Ġsab emos
Ġne gra
Ġay u
Ġvie jo
g ido
p as
t res
w ard
Ġs os
Ġa re
Ġn ight
Ġsobre todo
Ġra y
Ġ5 0
j an
en t
Ġcon vier
Ġre d
uen te
Ġro da
ar ios
Ġn um
Ġg ala
Ġline a
Ġr os
Ġfor mas
via mente
m ado
ch es
Ġdes en
qu iera
Ġcor ta
Ġdemas ia
ne t
Ġagu jero
Ġproble mas
Ġcome dia
Ġr us
Ġoc as
Ġestr eno
Ġb re
Ġle y
Ġle ia
Ġvi vo
Ġi den
Ġpun ta
Ġmov ie
Ġsuperhero es
Ġsocie dad
v al
ra da
Ġhttp s
Ġquier es
Ġdoc tor
Ġpel o
ad er
Ġ2 6
d ir
k o
Ġd ro
Ġcam ino
Ġprotagon istas
Ġases ino
Ġejer cito
m er
s os
Ġp ic
Ġt ris
Ġen am
tu re
Ġsin cer
tel ig
Ġe d
om o
Ġr as
Ġcin ema
Ġguar dian
de f
Ġim per
Ġent ien
Ġesper ando
Ġdra gon
Ġrap ido
g n
Ġs uelo
Ġb os
Ġle jos
Ġth is
ur as
tic ia
Ġneces ita
b ir
w ar
ic io
ien dose
Ġan ad
Ġcor rec
Ġne w
Ġhombre s
Ġs ta
Ġm c
Ġma tan
Ġus ar
a tro
Ġe res
Ġcon trar
Ġhay an
Ġalgun o
Ġexp los
tic as
Ġfal lo
Ġpier de
v ech
Ġl is
Ġde ad
Ġcom er
Ġper dido
Ġre ac
Ġnos o
Ġsorp resa
y an
Ġl ista
Ġs ky
Ġm ia
Ġin telig
Ġpre par
Ġtom a
Ġrecuer da
Ġentr en
t ter
Ġe ch
Ġsi r
ter ia
Ġ8 0
Ġultim os
m s
u ri
u per
Ġp ul
es t
Ġb ut
Ġhab ian
Ġaque l
the us
Ġe volucion
Ġg as
idad es
Ġgu a
Ġfir st
Ġf ur
ib ilidad
Ġro bert
Ġsen tim
Ġsegun dos
Ġsim ilar
k ing
Ġe h
Ġperson almente
ine d
cu lo
Ġh al
Ġcon c
Ġcono ci
Ġcal idad
Ġris a
Ġadap tacion
Ġflash back
Ġprome theus
s as
Ġs w
Ġcu ar
Ġna tur
Ġcamb iar
Ġenten dido
Ġprob able
s poiler
t iendo
Ġa do
er as
Ġf ra
Ġmu l
Ġpre m
Ġap ren
iel d
Ġcom ba
Ġre v
Ġvi v
Ġmis ter
acion es
Ġmon ton
Ġpes e
Ġamb os
Ġnoso tros
g uen
Ġb ill
Ġdes per
Ġvi vir
Ġespeci almente
Ġlim bo
Ġreb el
Ġd r
ier e
Ġas pecto
Ġhistor ias
Ġmos trar
Ġsegura mente
j es
in d
Ġsi mp
tim a
Ġap un
Ġclar amente
iza cion
t le
Ġsi quiera
ter n
Ġar mas
Ġllev an
Ġperfec to
Ġrom an
Ġgala x
b y
Ġin fec
Ġcu mple
ier ta
Ġpo dido
Ġpub lico
i v
Ġp h
Ġper don
Ġk ing
oo oo
Ġabur ri
Ġameric an
Ġmonta je
o d
Ġre pe
Ġexp lo
Ġmuer tos
Ġtre men
n es
Ġal l
Ġcre er
Ġrec ur
Ġsen ci
Ġpa g
Ġle e
em an
Ġfuer te
Ġprimer as
Ġwh at
imen sion
Ġmol es
d al
p ro
Ġt w
Ġle van
Ġqu ita
Ġterm inar
Ġtermina tor
Ġseman a
Ġa ire
dad os
Ġimp ac
ff in
Ġcul pa
Ġsituacion es
Ġtec n
Ġp ec
Ġpel ig
Ġhab ita
Ġqu i
Ġve a
Ġ19 7
Ġrobo t
Ġdobla je
a h
z ada
il e
tan a
Ġtra ves
Ġ3 1
Ġinf an
Ġsec un
Ġedi t
c ul
z ando
ch er
Ġban e
cep to
Ġtec no
Ġs omb
Ġme traje
Ġtip ico
Ġa vis
Ġb ich
Ġsi tio
tu al
Ġmis ion
Ġ9 0
Ġdifer encia
Ġprac ticamente
Ġsno ke
d is
g s
un a
Ġdes car
Ġtan ta
Ġpre deci
Ġgra ci
emen t
Ġabsur do
Ġs ty
Ġdisfru tar
Ġsincer amente
Ġt ren
Ġj es
aj es
Ġrepar to
ar lo
ta in
Ġper der
Ġdel ante
Ġj ajaj
tor es
Ġca er
Ġni e
Ġcar c
Ġap enas
Ġgol pe
b as
Ġs iste
teri or
Ġcualqu iera
Ġabsolu tamente
5 1
l d
Ġv ic
Ġf ar
Ġme ten
Ġper ro
Ġex tre
Ġdifer entes
Ġav ion
Ġchav al
Ġa j
Ġcon cre
ien ta
ter s
Ġ2 9
Ġco inci
Ġcas ual
Ġsec uela
Ġcoj on
Ġmaes tra
Ġang el
Ġsecun dar
i vo
Ġd am
in t
aj aja
Ġdu das
Ġhuman a
Ġequi po
is ma
Ġal ter
Ġsal ga
Ġam ena
Ġob viamente
Ġs ha
Ġex ten
Ġco ger
ces o
Ġcan cion
Ġcontrar io
an don
ta das
Ġel ec
Ġdes e
Ġcre e
Ġcar acter
Ġenc ar
Ġvuel ta
Ġad el
Ġv ader
Ġun def
to p
Ġqu itar
Ġfuer on
load ing
Ġhljs loading
ant ino
Ġtype of
Ġundef ined
ec ha
Ġpue blo
Ġdej ando
Ġhub ieran
Ġtom ar
Ġtar antino
Ġdig a
Ġcuri oso
Ġgustar ia
Ġcues tion
2 1
Ġs p
Ġel emen
ic ia
Ġf uego
Ġb so
om an
Ġcon a
Ġo per
Ġj ones
Ġpr ue
Ġperfec ta
d ando
Ġs iento
Ġno vela
Ġme ta
lo go
Ġib an
Ġel las
Ġg al
Ġg em
Ġlo ki
Ġfil ma
Ġpo cos
Ġch u
Ġres is
Ġab o
Ġesper ar
Ġja pon
Ġdesarro llo
Ġhero e
Ġexper imen
Ġinfor macion
p p
Ġp illa
ien en
Ġo ut
Ġle on
Ġac or
tu m
Ġases ina
Ġequi vo
Ġdefin i
p ir
Ġs ue
ic es
es per
Ġr un
Ġpu d
Ġsub l
Ġefec to
Ġdef en
Ġlog ica
Ġnar ra
Ġb lo
Ġcon te
Ġcab o
Ġrep ente
b ia
i va
z z
Ġs co
Ġes co
Ġlo gra
Ġre ma
ti ra
ul l
Ġcrea te
Ġpalab ras
Ġs tran
os os
Ġsi go
ti dos
Ġqu iera
Ġv in
Ġin t
tar ia
Ġex iste
Ġpro x
Ġlle gan
Ġenter a
Ġhic ieron
Ġstor y
f era
i ales
an dose
Ġv am
Ġfinal es
Ġr ub
Ġcuen to
Ġvo tos
Ġc ria
re is
Ġw a
Ġpo cas
ul d
Ġdirec cion
Ġsac ado
Ġpi ra
Ġcer e
Ġdeber ian
Ġconsegu ido
h h
p g
Ġs po
Ġin ves
Ġlle gado
gar se
Ġcomp ren
Ġimag ino
Ġmaqu ina
Ġcinema to
3 3
f orm
t ino
Ġen orme
ente mente
Ġpo l
Ġsa ca
Ġbus cando
crip t
Ġtris te
Ġfilma ffin
Ġc rim
re d
Ġg ana
Ġj ul
Ġth ere
Ġesc on
tor io
Ġdi je
Ġr um
Ġres ca
Ġsab en
Ġsen tir
Ġmin imo
Ġfan s
du ce
Ġimpor ta
Ġdir ia
Ġprofun di
Ġevi tar
Ġsty les
z illa
Ġe ver
Ġt ru
Ġb ol
Ġre pi
ri ble
Ġpr is
Ġrec uper
Ġjo dida
fic io
til lo
Ġcamb ia
5 0
c ara
Ġc ss
Ġb om
is e
Ġpas ada
Ġar te
Ġcono ce
ug h
Ġimpresion ante
Ġtex t
Ġinves ti
5 9
i x
Ġd ur
Ġd aba
ci ales
Ġsu p
Ġdes c
Ġpo dian
Ġac ci
tor no
Ġpas ando
Ġch an
Ġapar icion
Ġestr en
Ġvio l
Ġgi ro
Ġata que
Ġhue vos
Ġs ome
Ġa man
el ement
Ġex tran
Ġapar e
vis ible
Ġdocumen tal
Ġlin k
Ġcreate element
1 0
s el
Ġe vid
Ġd imension
or d
Ġb l
Ġch ico
Ġres umen
Ġimpor tancia
Ġdesarro lla
Ġfilmaffin ity
n as
v in
Ġs tre
Ġm y
Ġhec ha
Ġpersonal idad
Ġh ype
Ġen d
Ġb omb
Ġan t
tar a
Ġpr on
Ġson ido
Ġres pe
Ġlla mar
Ġll ena
Ġactuacion es
Ġmes es
Ġway ne
3 0
Ġs k
Ġa va
Ġexp ec
Ġcor to
Ġminu to
Ġis la
Ġfi el
ps is
Ġa fec
Ġv oso
Ġw ho
tu los
Ġch or
Ġcar isma
Ġab andon
Ġesper a
Ġapar ecen
Ġus o
Ġton o
Ġexplic an
Ġcin ta
Ġresul tado
Ġcomentar ios
Ġdestru ir
Ġsecuen cia
Ġconvier te
Ġf ac
Ġda ta
Ġesper an
Ġpos ibilidad
tiv amente
Ġayu dar
t om
w ay
Ġen s
da ba
Ġb ir
Ġven ga
Ġtu vo
Ġencuen tran
Ġconsegu ir
Ġhol ly
Ġvoso tros
c in
r era
is t
Ġre ir
ri d
Ġex ag
Ġmis mos
Ġdeci de
ios o
Ġenten di
Ġau ten
Ġgod zilla
Ġpredeci ble
Ġviol encia
il lar
Ġpro vo
Ġlu ch
Ġneces ario
Ġsol dado
7 9
u ales
an e
Ġres puesta
Ġherman a
Ġtip ica
Ġpode mos
Ġenam or
Ġtecno logia
Ġsiste ma
2 2
4 0
en to
en ni
Ġla men
Ġf ri
Ġre co
ti go
Ġco her
Ġdeci s
Ġdu ro
Ġof ic
Ġmon o
Ġcab all
Ġbich os
c cion
f ia
Ġh b
Ġh im
ien cia
Ġal ma
Ġcu tre
uer te
Ġjo dido
Ġpare ja
Ġmil itar
Ġclas e
c ente
j ado
p u
t w
z ador
Ġal tura
de mor
Ġcu atro
Ġac aso
tar on
Ġven gan
Ġsol dados
4 6
d b
Ġc ora
Ġt im
ci er
Ġb ec
Ġdes truc
Ġpu ro
uc le
Ġllev ado
Ġsuic i
Ġmezc la
4 8
c to
Ġp l
Ġtra mp
Ġco oper
Ġpre f
Ġentre ga
Ġcons tru
it ando
Ġvuel tas
Ġcomen tado
Ġcol or
Ġje fe
Ġxddd d
p le
z ca
Ġa z
en s
ti an
Ġser es
Ġgus tan
Ġvol demor
Ġsac ri
Ġingen ier
z co
Ġb io
Ġcan tidad
Ġcal le
Ġval or
Ġli der
Ġref iero
Ġfel iz
Ġwor ld
Ġaco jon
g rim
ic al
te le
da mente
Ġcontro l
f t
Ġs om
Ġb ig
la ce
de m
Ġcu ida
Ġhe ad
Ġtan tas
Ġbo y
Ġmill ones
Ġjack son
5 8
Ġex t
Ġplan e
Ġdeci sion
Ġap pend
Ġalien ig
mi th
Ġsuen a
Ġsuen os
duci r
Ġhabita cion
Ġappend child
v d
Ġ ran
Ġs pa
Ġch ir
Ġlle go
Ġab ra
Ġlib er
Ġestar ia
pos ito
Ġpele as
Ġs uerte
Ġno t
Ġan al
Ġman dar
Ġmo tivo
Ġos tia
Ġpes ada
Ġgir l
d n
w al
y as
Ġd orm
Ġo dio
Ġw oo
Ġpo lla
Ġ3 8
Ġmonstru o
1 1
Ġt us
Ġt rip
Ġna z
Ġinten tando
Ġproduc cion
Ġsil en
Ġbos que
Ġstran ge
h an
Ġde mon
Ġal to
Ġcu mp
Ġac om
Ġqu in
Ġr on
Ġbas icamente
tri x
duc cion
Ġanim acion
Ġder ro
Ġhos tia
Ġambien tacion
Ġvengan za
Ġme h
Ġso cial
Ġan illo
Ġpo ca
Ġmen tal
Ġven go
lu b
c ke
d man
Ġp ilo
er v
ci s
Ġo k
Ġacab ado
Ġpeque na
Ġgor do
Ġinic io
Ġcora zon
Ġvoldemor t
2 9
p ado
Ġa gen
Ġv elo
Ġle i
Ġver lo
Ġesc al
Ġsegu ridad
Ġpres u
Ġat mos
Ġenf o
Ġmir ando
Ġconc l
Ġholly wood
i ra
Ġs mith
Ġna ves
Ġho tel
Ġempie zan
Ġnues tro
Ġingenier os
7 7
g h
Ġa ma
Ġg ili
th am
Ġpens ado
Ġlog ico
Ġd c
Ġl ec
que n
Ġfinal mente
Ġgus te
Ġbas ura
Ġch ina
Ġor gan
Ġof f
Ġsa co
Ġnos e
Ġesp ana
Ġtrailer s
Ġencuen tro
Ġacer ca
Ġrob in
Ġdirig ida
2 6
i f
or tun
Ġlo ve
Ġdis cur
Ġgra ve
Ġop ortun
Ġhero es
Ġblan co
Ġdescon o
Ġhech os
i den
Ġes que
Ġf ies
Ġre ven
Ġsu pues
Ġw an
ada mente
Ġ3 9
Ġcer ca
3 8
Ġde mos
Ġb il
Ġw o
Ġmen udo
Ġab ierto
Ġfuncion a
Ġextr ano
Ġcomba te
f os
Ġh un
Ġpel os
Ġto ca
Ġle go
Ġj pg
ad ora
qu il
Ġw in
Ġac lar
Ġpro te
Ġcre ible
Ġho bb
Ġsob ran
Ġsubl ime
Ġc ra
on te
Ġal f
Ġbas tantes
pi ra
Ġcier ta
Ġagu an
Ġpregun tas
Ġmil es
Ġano che
Ġprof es
Ġjam as
Ġprobable mente
u ro
Ġd um
Ġde tec
or s
ci en
Ġcon ec
Ġper mi
Ġte or
Ġsa w
Ġencon trado
Ġtir ar
Ġenem igo
Ġsenci lla
Ġsco tt
3 4
g io
m ientos
Ġs tan
Ġque rer
or k
ig u
Ġpro gra
Ġhab i
Ġco ge
Ġ3 00
Ġch is
Ġro ck
Ġtend ra
Ġguardian es
Ġreac cion
Ġaburri da
3 1
o t
Ġs c
on s
Ġb rom
Ġin de
ier no
Ġj ajaja
Ġma gia
Ġch e
Ġgu ino
be z
Ġnue vos
Ġvol v
Ġcomen ta
Ġpub lic
Ġapo cal
Ġrecomenda ble
Ġcere bro
Ġsom os
3 9
Ġde cia
Ġque rido
Ġdes co
ica p
Ġcre ado
ico p
Ġmo lado
Ġap re
Ġningun o
Ġaven turas
Ġris as
Ġ zo
or n
Ġse pa
Ġha ve
Ġal can
Ġk ill
Ġsab iendo
Ġinten to
Ġli ter
Ġamb as
Ġdeb ido
Ġentra da
Ġobje tivo
g g
Ġab ajo
Ġdo ble
Ġsuper ior
Ġconver tir
Ġadel ante
Ġc lic
Ġin to
Ġcono cer
Ġfa ce
Ġesca par
Ġhel icop
Ġado les
Ġbom ba
t is
Ġp at
Ġser ies
Ġsal io
Ġob vio
Ġexc el
Ġacci dente
Ġava tar
d ico
d ora
Ġc ie
ro w
Ġma trix
Ġli ke
Ġsino psis
Ġtrans form
Ġsorpren dido
Ġinfin ity
Ġmarav illos
Ġarre g
Ġroda je
guen za
Ġgalax ia
Ġgili pol
Ġd vd
Ġd icap
Ġb ack
Ġpar ar
tu d
Ġcor riendo
Ġimag in
Ġli bre
Ġ201 5
Ġtempor ada
Ġpers ecu
Ġpron to
Ġdicap rio
Ġe ven
Ġp ri
os e
Ġla grim
Ġman ana
Ġman tiene
Ġsab le
Ġgran d
Ġcan s
tri bu
ee t
Ġbra d
Ġdecepcion ado
Ġmemor ia
Ġexpec ta
3 6
i j
i la
l in
Ġp us
Ġver de
ter res
ol ver
Ġmal as
Ġcuan tos
Ġfo x
Ġocas iones
2 7
v ado
Ġcu ra
Ġpo tter
Ġver guenza
Ġpre fer
Ġcien ti
Ġdesarro l
Ġtempor al
Ġnum ero
b os
o cu
Ġc e
Ġm ues
Ġn uestra
Ġal eman
di to
Ġapar ecer
Ġpos terior
isim as
Ġfr ente
4 9
d r
Ġde m
Ġes pi
om i
Ġcre ia
isim os
Ġep ica
Ġad ul
dddd dddd
Ġjun tos
Ġ200 1
Ġcomentar io
Ġfras es
Ġtem as
Ġextra terres
Ġhobb it
3 5
f as
Ġen anos
Ġper dida
Ġma tt
Ġmen uda
Ġlle vo
th ing
Ġgu inos
Ġreal es
Ġcons tante
Ġ0 0
Ġvuel to
Ġinterpre taciones
Ġbla de
Ġmag ni
Ġdec ente
Ġridicu lo
b r
s al
Ġ za
Ġl ig
Ġs r
Ġen cer
ci ar
Ġf le
Ġf ab
Ġj ar
Ġim db
Ġmar ido
Ġpu ra
Ġacab an
Ġli fe
Ġrobo ts
Ġzomb ies
Ġestre lla
d ria
l ing
il es
Ġma to
ur on
Ġco la
Ġres um
Ġlle gue
Ġir re
Ġpi el
Ġcomple ta
Ġge or
Ġsex o
Ġcurios idad
Ġsir ve
1 6
p at
ue las
Ġa ra
ci miento
Ġb aja
Ġo ye
Ġin d
ri e
aj ar
Ġma tado
Ġar bol
Ġmo der
cu ra
Ġcomp lic
uc k
Ġrefer encia
Ġarm ad
Ġjapon es
Ġexag er
Ġatmos fera
1 9
a u
c y
Ġel im
ci an
Ġf amos
Ġcon j
Ġpar al
Ġcu yo
Ġj aja
Ġw on
Ġth r
Ġne g
Ġ7 0
Ġpres ente
Ġcapi tulo
Ġbes tia
Ġdin osa
Ġabsolu to
Ġimper io
Ġlo bez
ac es
Ġman ga
Ġcar rera
Ġsuper vi
Ġcier tos
Ġcamb ios
Ġterm in
Ġsigni fica
c us
p es
Ġse par
tor ia
Ġas e
Ġch ino
Ġi ra
Ġpre ocu
Ġreal ista
Ġpes o
Ġspi el
Ġcues ta
3 7
5 2
r r
Ġp las
Ġa mo
Ġc aja
Ġb er
Ġme tro
Ġre vision
Ġac to
iz ada
Ġpa te
Ġpa ul
Ġos tias
Ġhi t
Ġcuen tan
dor e
Ġpi tt
Ġestu pi
Ġbon d
Ġcris tal
Ġcomien zo
Ġmanten er
Ġgig ante
Ġsupues tamente
4 7
que s
Ġse p
Ġle yendo
Ġso lu
Ġdes pe
Ġpro pi
Ġtan tos
Ġpre visible
Ġmo tiv
Ġfor m
Ġcier tas
Ġcamb i
Ġmir ar
Ġmonstru os
Ġvisual mente
Ġapro vech
8 0
f w
Ġc lub
Ġh tml
Ġal ar
Ġo j
de dor
Ġab rir
ian o
Ġdar th
Ġinten cion
Ġcuan tas
Ġneces idad
Ġgor e
Ġproyec to
Ġexpecta tivas
Ġlobez no
Ġa bre
Ġb ab
Ġcon nor
qui to
Ġesp ada
Ġhos pi
Ġsos pec
Ġe dad
Ġs ar
Ġa tre
Ġen tran
Ġg r
Ġre un
ti ve
tr ando
Ġqu itando
Ġres u
fic ado
Ġfil mo
Ġ19 6
Ġbe be
Ġdescu bre
Ġer ror
Ġrun ner
Ġconte x
Ġspiel berg
g ir
Ġe as
re mos
Ġse e
Ġvi ve
Ġch as
Ġmar k
Ġespa cial
Ġpien sa
Ġpresu puesto
k es
v ido
Ġre le
Ġmas cara
Ġpr in
Ġ3 6
emp os
Ġlu char
Ġne ga
Ġllev aba
Ġ201 0
Ġjus ticia
Ġll eno
ee ee
Ġwi ki
Ġdesta car
Ġpode is
Ġinfan til
Ġcasual idad
5 7
u f
Ġha w
ti ble
Ġso li
Ġex ces
Ġti empos
Ġah or
Ġ4 7
men to
men ts
Ġob lig
Ġbar co
Ġherman os
Ġtir os
Ġbra zo
inacion es
Ġescu ch
1 8
5 6
u lacion
Ġe cho
Ġd ri
Ġt ime
un o
Ġf ig
Ġcon dicion
Ġle x
Ġcar gan
Ġmo vil
um b
Ġdu do
Ġmor al
Ġq q
Ġgan dal
Ġ201 3
Ġesp al
Ġsub titu
Ġsig uen
Ġcapa cidad
Ġever y
Ġspa ce
Ġoportun idad
c ada
k en
Ġf rio
el os
Ġpar tic
Ġlas tima
Ġw es
Ġhab lan
Ġhab ido
Ġco ches
Ġoc ul
titu d
Ġdura cion
Ġgandal f
is h
Ġg ema
Ġman ip
Ġdis eno
Ġof re
Ġcab al
Ġultim as
Ġinten tan
Ġcomple to
Ġtele f
Ġmaes tro
Ġsuel ta
Ġpis to
Ġpag inas
Ġdefini tiva
Ġstre et
Ġconcl usion
Ġs car
ar an
ta miento
Ġlo cura
Ġo h
Ġex cepto
Ġma ch
Ġsal ia
lan o
Ġti os
Ġra za
Ġmuer en
Ġcamb iado
Ġz ona
Ġjus tific
Ġdeb ajo
Ġmarav illa
Ġrefle x
Ġcarc el
Ġfies ta
4 2
Ġa la
Ġan ak
di as
Ġman da
Ġar ran
Ġsab or
Ġpu do
Ġdar ia
Ġide as
Ġrecuer dos
Ġdistin to
Ġcuida do
Ġdum ble
Ġhospi tal
n ie
v s
as on
an d
Ġn s
Ġg h
Ġg ood
Ġper io
de d
Ġvi i
Ġk no
Ġar th
ing s
Ġtu viera
Ġcam ar
ff ff
Ġju gar
Ġdialo go
l io
Ġ om
Ġs t
Ġs tu
Ġen vi
ic idad
Ġg ame
Ġre mo
Ġsi gu
Ġma tando
Ġpoder oso
Ġrep lic
Ġestu vo
Ġolvi dar
Ġllor ar
Ġvir us
ez ca
Ġabo ut
s h
Ġs ch
Ġs iente
Ġde v
Ġal re
Ġre lig
Ġth re
Ġgen era
Ġvie ja
Ġdiver tida
Ġcinemato graf
Ġlamen table
Ġacom pan
in es
Ġv ig
Ġme tros
Ġal uc
am a
Ġdi bu
Ġ3 7
Ġor cos
Ġgra b
Ġvol ando
Ġsh e
Ġfantas ma
Ġconven cer
Ġsolu cion
3 2
c emos
Ġc ron
Ġin o
ma ug
Ġma teri
Ġyo da
Ġr yan
Ġro de
Ġjo de
Ġfal con
Ġcab ron
Ġlen gu
Ġsobrevi vir
Ġextr ana
Ġrub ia
Ġanak in
Ġs maug
Ġn er
Ġv ec
Ġsi th
Ġdi f
Ġsal i
den cia
Ġacab e
Ġguion ista
Ġvuel ven
Ġmujer es
Ġargumen tal
Ġhos tias
Ġste ve
Ġbir dman
e ar
y en
Ġe char
Ġp q
Ġp uente
da ble
Ġha gan
Ġan da
Ġas pec
Ġten gan
Ġpon iendo
Ġcam eo
Ġho la
Ġrespon s
Ġasesina to
Ġrema ke
Ġgeor ge
4 5
m es
Ġs un
Ġs cen
Ġs cre
Ġa us
Ġc r
Ġme dida
Ġha m
qu is
Ġco p
at is
Ġcons ec
Ġsac an
tel lar
Ġvillan os
Ġcla ve
Ġbr illan
Ġentien de
Ġconcre to
Ġpersecu cion
Ġdumble dore
d ri
f i
v ista
Ġ ur
Ġl ech
Ġde p
Ġm r
ci os
Ġin n
Ġth em
Ġpas ara
Ġca ch
Ġi i
Ġcar as
Ġam ar
me dad
Ġter cer
Ġhaber se
Ġho w
Ġins ul
Ġfamil iar
Ġmov imiento
Ġline as
Ġsho ah
Ġmul ti
5 5
b i
Ġy ork
Ġv ienen
Ġdes tino
Ġw all
tan o
Ġpo e
Ġten eis
Ġr ich
Ġbas ada
Ġcas co
Ġexp res
Ġhacer se
Ġton to
Ġfo tos
Ġrecor dado
Ġescri to
Ġdol or
a ti
Ġc ad
Ġde ba
Ġel se
Ġsu yo
Ġma te
Ġpue dan
Ġres uel
Ġhu bo
Ġda tos
Ġfor o
Ġcada ver
Ġgo tham
log ico
Ġteor ias
b en
Ġper di
Ġin v
Ġan illos
Ġpre c
Ġquien es
Ġcal zador
Ġprotagon ismo
Ġanim ales
Ġaven tura
Ġclas ico
uu uu
Ġcole ga
Ġrefer encias
Ġgrave dad
Ġaspec tos
en da
Ġt b
Ġv ues
Ġf ea
Ġlo bo
Ġre i
Ġpara do
em bre
vi es
Ġdis cu
Ġor o
Ġcomp or
Ġvuel va
Ġau tor
Ġinfin ito
Ġapor ta
Ġhelicop tero
Ġoj ala
Ġarth ur
y er
Ġd as
Ġd uen
Ġde ath
en ix
Ġn ucle
Ġf es
Ġto car
us to
Ġj av
Ġac os
Ġas co
Ġinter s
Ġhor rible
Ġrom pe
Ġpart icu
Ġexper iencia
Ġag ente
Ġenfer medad
Ġsecre to
Ġelemen tos
Ġesperan za
Ġapocal ip
d ica
f ield
u ma
Ġl ia
Ġa go
Ġc lon
Ġm io
ar le
te o
Ġre l
Ġcu ales
at ica
Ġor g
Ġcor re
Ġfil oso
Ġcal i
Ġhar ia
Ġbru ja
Ġreg res
Ġflo ja
Ġanad ir
Ġexplos ion
Ġmister io
Ġase gu
Ġc ic
om a
Ġse l
Ġan un
Ġver emos
Ġr ara
Ġcar re
Ġcar gar
Ġpa ci
Ġinter net
Ġigual mente
Ġcol ores
Ġvio len
Ġcuad ra
Ġcaball ero
Ġfilmo grafia
d la
d iente
u man
Ġc ue
er ia
ar me
Ġcon vir
Ġre ll
Ġsu ces
de z
Ġco pia
Ġpe da
Ġsa ito
Ġmun di
Ġep ico
Ġtrans for
Ġexplic ado
Ġ200 8
Ġwill ia
Ġpresen ta
Ġprue ba
Ġespi ri
Ġconj unto
1 7
p ie
Ġde dic
Ġque das
Ġt v
Ġh on
un g
Ġex ito
Ġi v
Ġcas tel
Ġro dar
Ġfor zado
Ġpa gar
th a
Ġap la
Ġverdad ero
Ġcam po
jer os
ris a
Ġsh ield
Ġedi ficio
Ġpie dra
Ġpalab ra
Ġaz ul
Ġresu ci
Ġns fw
2 8
i qu
z ones
Ġa ran
Ġa pa
Ġque rian
Ġg es
Ġso por
ter min
Ġco lo
Ġsen s
Ġsus pen
ios a
Ġir se
Ġnue vas
Ġher e
Ġcin es
Ġsim bol
Ġcap tain
Ġfran ces
Ġwe b
Ġabsur da
Ġsecuen cias
Ġalter na
Ġpud iera
Ġdiscur so
b io
t z
Ġe e
Ġc el
Ġh omen
Ġf ren
Ġlo is
Ġ6 0
Ġem b
Ġri o
ton e
Ġimpor tantes
Ġinteres antes
Ġada m
Ġvide os
Ġvision ado
Ġllam ado
Ġdom in
Ġflashback s
Ġalienig ena
Ġconsec uen
s idad
Ġp ho
Ġt in
Ġal ta
Ġlo ok
Ġlo cal
Ġin dy
Ġpo quito
Ġac onte
Ġser p
Ġgan ar
Ġgre en
iv amente
Ġvelo cidad
Ġlego las
Ġmues tran
Ġwon der
Ġmateri al
h i
s is
Ġp illar
Ġs atis
Ġh ara
Ġesc la
Ġexp li
Ġpos ibles
Ġpal pat
Ġbe g
Ġlen to
id ente
Ġcontinu acion
Ġexis ten
Ġutil iz
Ġamena za
Ġsha w
Ġalre dedor
Ġno vio
is a
Ġme tal
Ġlo ca
de mos
Ġhab lo
Ġmal e
Ġdirector es
Ġpeque nos
Ġga to
Ġintelig ente
Ġbil bo
Ġinters tellar
Ġp ies
Ġc ity
al la
Ġg ro
Ġpar ano
lo ck
ch as
Ġlas er
Ġtra icion
Ġk n
Ġar ras
Ġdej e
Ġentre vista
ru p
Ġos ea
Ġtom as
Ġej ecu
Ġje an
Ġarri es
Ġcole gas
Ġexc usa
Ġdemasia das
Ġnatur al
Ġsecundar ios
Ġcontex to
4 1
d k
r ino
Ġl una
Ġs cript
Ġde pen
ra y
Ġdes esper
Ġpo ten
ig n
Ġma go
Ġas cen
Ġqu is
Ġpas aba
Ġ4 5
Ġpos i
Ġcono cido
Ġpi x
Ġtrans cur
Ġ200 9
Ġfantas ia
Ġiron man
fica cion
Ġale x
Ġmill enni
Ġdistin tas
Ġprofundi dad
Ġpisto la
Ġcastel lano
Ġmillenni um
b ros
c ina
d ro
Ġp ack
Ġd re
Ġque reis
ta gn
te g
Ġg un
Ġcom ida
Ġre tras
Ġre ina
ti al
Ġbuen isima
Ġti tan
Ġca usa
Ġman e
Ġmo d
Ġfor d
Ġcan on
Ġgo b
Ġdesa pro
Ġescri bir
Ġbon ito
Ġdesp ro
Ġesca pa
Ġbel la
Ġdesper tar
Ġpris ion
Ġofic ial
Ġtramp a
Ġexcel ente
Ġsospec h
k in
r il
Ġs ci
Ġa ter
Ġes encia
ri as
Ġj er
qu ido
Ġac a
tu a
di e
Ġca za
Ġar tific
Ġpu tos
Ġpi de
Ġad mi
Ġnom inaciones
Ġcin co
rim iento
Ġdisfru tado
Ġagra d
Ġextre m
Ġliter almente
Ġinn eces
Ġe dicion
Ġh ier
Ġcon tes
Ġas unto
Ġvi das
ver s
Ġsen al
Ġimag inar
Ġcri o
Ġjus t
Ġfi ja
Ġameric ano
Ġcompan ia
aaaa aaaa
Ġdescub rir
Ġjue gos
Ġcoinci do
Ġbec a
Ġalf red
Ġchis tes
b al
h am
h eet
s elo
on d
Ġt el
Ġf echa
Ġle o
Ġw oman
Ġsal to
Ġro jo
Ġexp lico
Ġpues ta
Ġ20 00
Ġfal la
Ġimag inacion
Ġmer e
Ġencon tra
Ġdig i
Ġenter o
Ġgor don
Ġvideo j
Ġge tele
Ġmax imo
by tagn
Ġprox ima
Ġstyles heet
Ġdestruc cion
Ġprofes or
Ġarmad ura
Ġthr iller
ments bytagn
Ġgetele mentsbytagn
Ġgetelementsbytagn ame
8 6
r ic
s i
v ie
Ġe go
Ġc uel
Ġdes gra
ir se
Ġpro du
Ġcre es
Ġyo ur
Ġab ierta
Ġpu de
Ġmuer tes
Ġimag ina
Ġdia blo
Ġentreten ido
Ġmedio cre
Ġcap aces
Ġestr uc
Ġfran co
Ġsorpren de
Ġdesapar e
Ġsky net
Ġaj ena
Ġjodida mente
Ġdesc ri
Ġmundi al
r ores
Ġes f
ta zo
Ġg l
le t
lo w
Ġin co
ando m
Ġesta is
Ġpo w
Ġx en
ur ne
Ġ3 2
vi ese
Ġdo om
Ġcomp ro
Ġdecir lo
Ġestar a
Ġdig amos
Ġempe zo
Ġcen tro
Ġmag ne
Ġfis ico
Ġmedi ante
Ġcompan ero
Ġocas ion
Ġsentim ientos
Ġparticu lar
Ġpalpat ine
n ol
r ando
r oso
or o
is is
tar lo
Ġgus tos
Ġpal o
Ġmay ores
Ġconsig u
Ġdesp ierta
Ġseman as
6 9
Ġl iga
Ġs pe
Ġes ten
Ġes dla
Ġen ano
Ġsu ya
Ġin m
cion al
Ġj ason
ter io
Ġra m
Ġpare zca
Ġul tra
Ġcontro lar
Ġhue vo
Ġconsider o
uri os
d in
k u
k is
l um
Ġm ando
Ġes tando
Ġf um
Ġpe gan
men t
ha ha
Ġ201 2
Ġmus ical
Ġta qu
Ġwh en
Ġlan za
Ġsorpren dio
Ġbon ita
Ġaque lla
Ġpreten de
Ġgig antes
Ġaquel los
Ġevid ente
Ġdesapro vech
Ġbeca use
e y
e te
Ġe ar
Ġa ff
ar do
Ġt un
Ġb lu
Ġin tu
Ġin ver
Ġj os
Ġlas t
Ġan ci
tas e
Ġca us
Ġpre cio
Ġpa tr
Ġmun ec
Ġultim amente
Ġus ando
Ġpres idente
Ġtam ano
Ġ201 9
Ġamb iente
Ġcapi tulos
Ġpapel es
Ġconven cido
Ġsuic ida
Ġley enda
Ġiden tidad
Ġchir ria
Ġcump l
quil ib
Ġreflex ion
Ġfes tiv
f ondo
v ar
Ġs na
Ġc dn
re f
Ġf er
Ġper ros
Ġmo tivos
Ġfal tan
Ġsegu ido
Ġestu ve
Ġperfec cion
Ġdisf ra
Ġja ke
Ġdispar a
Ġfis ica
Ġcl int
Ġconten to
Ġnatur ale
top her
Ġcrim en
Ġpref iero
Ġsilen cio
d el
n ing
Ġde ck
an ce
Ġt um
Ġn ick
Ġen ve
Ġme dico
Ġcon tando
Ġg am
Ġcu ch
Ġsal iendo
Ġco g
Ġ3 5
Ġcar gado
Ġrec re
th or
Ġ4 2
Ġinter ior
Ġtu v
uc ky
Ġcam ion
Ġterm inado
con s
Ġocur rido
Ġinterpre ta
Ġconsig uen
Ġbor ra
cier to
Ġnaturale za
1 4
a ker
e ur
f ul
u re
os as
Ġre don
tar io
Ġhab iendo
Ġvi va
Ġca ida
Ġcas os
Ġeste tica
Ġlu cas
Ġdar se
Ġus an
Ġpres encia
Ġlla man
Ġpan ther
Ġfran k
Ġdistin ta
Ġinic ial
Ġfol lar
Ġcomien za
Ġsue le
l ie
l ine
Ġa ja
Ġc y
Ġb ri
Ġb ale
Ġo cu
Ġre ve
Ġi tem
Ġpe gar
vi da
Ġmar ca
Ġpa ta
tic ias
Ġri es
Ġ201 6
Ġterm ino
Ġci elo
Ġinteres a
Ġmue ra
Ġlim i
Ġka ij
Ġclo ud
Ġcuar to
Ġcojon uda
Ġvam pir
Ġcienti fico
Ġespal da
Ġcamar as
9 0
l le
l us
w en
Ġp uso
Ġd il
Ġc li
Ġh en
ra das
Ġse me
Ġme to
ec tor
Ġin vas
Ġmi em
Ġdi jer
di ble
Ġcre acion
ho od
Ġsab ido
Ġentre tiene
Ġcam p
cen tes
Ġpes ad
Ġsabe is
Ġorigin ales
Ġsh er
Ġopinion es
Ġpuer tas
Ġrecur so
Ġpilla do
Ġrepi to
Ġpilo to
Ġche w
Ġdinosa urios
9 8
g th
ar t
Ġen g
Ġb log
il y
Ġg lo
Ġal imen
Ġsi ga
tu res
Ġdi re
Ġvi uda
Ġtra tar
Ġim ita
Ġpe dir
Ġpa y
Ġ0 1
Ġbus que
Ġol d
Ġpresen tacion
Ġprincip ales
Ġllam ada
Ġcompan eros
Ġcorrec to
Ġtw o
Ġresis tencia
Ġpix ar
d rio
f il
Ġe uro
Ġc es
Ġt dk
Ġen er
om or
Ġpar tido
Ġlos t
Ġan s
Ġma c
Ġgus ano
Ġpas ta
tal las
Ġch iste
Ġman eras
Ġi ii
Ġdis en
Ġcam a
Ġig nor
Ġ201 1
Ġestu p
Ġestu viera
Ġsan g
Ġproduc tor
Ġzomb ie
Ġstark iller
Ġambien tada
Ġobs esion
Ġindi ana
Ġrepresen ta
Ġtru co
Ġdesarrol lar
Ġfig ura
Ġscre en
Ġbeg ins
h es
Ġa w
Ġf res
Ġg one
Ġsu til
de o
Ġin tri
Ġj im
Ġan a
Ġac uer
Ġmi to
Ġser an
at ico
Ġmo ver
Ġna v
Ġclar a
til la
Ġbo x
Ġmor e
Ġllev ada
Ġdan iel
Ġlen gth
Ġcien tific
Ġgustar on
Ġcl ima
Ġstor m
Ġdro gas
Ġcorrec ta
Ġimpac to
Ġgraci oso
Ġgem as
Ġkn ight
Ġesf uer
8 7
g al
Ġd ano
Ġa gar
Ġde ten
en ta
an da
ar es
Ġen torno
Ġno w
Ġb ib
Ġcon ex
il le
Ġto tem
icu lo
ter ias
Ġr andom
lar e
Ġlu thor
Ġdo wn
Ġven der
Ġtu ve
Ġhaber lo
Ġguion istas
Ġhor ror
Ġfi jo
Ġconf lic
Ġcul tura
Ġmaqu illa
Ġtele vision
Ġer rores
Ġobs tante
Ġsuce de
Ġsola mente
Ġconversacion es
Ġfur y
Ġrepe tir
Ġexten dida
Ġwoo dy
Ġprin ces
Ġpeda zo
p la
s ic
Ġs tal
Ġun der
Ġin ca
tan dose
Ġpr os
Ġma cho
Ġescen ario
Ġca gada
Ġi tal
Ġhu m
Ġpe o
Ġ5 6
Ġob i
Ġcan ciones
Ġref ier
Ġdig no
Ġcul p
Ġolvi da
Ġexis tencia
Ġcomun ica
Ġchris topher
Ġenem igos
Ġtransmi te
Ġevid entemente
Ġsc ors
Ġdem uestra
Ġdeck ard
1 2
c ad
f ac
t ina
t isimo
t ismo
Ġe ter
Ġla dos
Ġha d
Ġin mor
Ġin vier
Ġin esper
Ġj uras
Ġdes as
Ġpo b
Ġsal ta
Ġk o
Ġlle ve
Ġcar ne
Ġmar cha
Ġ4 6
Ġ4 8
Ġhi elo
dar se
Ġcol on
Ġtor re
Ġ200 7
ech os
Ġgi ra
Ġsiguien tes
Ġabur rido
Ġang us
Ġil um
Ġsky wal
Ġpelig ro
Ġprue bas
Ġdemon io
Ġsencilla mente
Ġgilipol las
Ġsr c
Ġacos tum
4 3
9 7
d ores
s an
t ente
Ġs tone
Ġa dor
Ġh ref
al idad
da y
Ġcon tigo
ec ho
Ġmu rio
ab e
qu ier
tan cias
Ġpro posito
Ġas us
Ġthe ir
Ġch ic
Ġmis mas
Ġpe on
Ġab or
Ġmo to
Ġmar te
th ub
Ġcor te
Ġfal tado
cu la
fic ar
Ġpos e
Ġqueda ba
igh ter
Ġgan ado
Ġesp ano
vil le
Ġke vin
Ġgi thub
Ġoscu ridad
Ġcapitan a
blo ck
Ġquedar se
Ġjue ga
Ġantigu o
yn c
Ġgua pa
Ġcabal lo
Ġthre ad
Ġseme j
f lare
m y
t isima
x i
Ġa tro
Ġf em
Ġme ti
Ġha go
Ġg et
Ġpar ker
Ġre ido
ch el
Ġso ber
Ġch un
Ġmen or
Ġcas ino
Ġpu tas
Ġven om
Ġfal so
Ġlib s
ff f
Ġpal m
Ġcomen to
Ġfuer an
Ġju gue
Ġmue ve
Ġcer c
Ġfavor ita
Ġsho w
Ġpolic ias
Ġescu char
Ġdam on
Ġtrip ulacion
Ġkno w
Ġremo ve
Ġbrillan te
Ġmagne to
Ġcdn js
Ġaja x
Ġcloud flare
Ġpeo ple
a zo
c ra
j u
n s
w a
Ġd un
Ġa ga
as cript
Ġque ry
Ġcon cepto
le ta
Ġdes tri
Ġdi ri
Ġas ync
at tribu
Ġra bia
Ġ10 00
Ġgu ay
Ġsa uron
ag e
Ġvol un
Ġinf il
Ġvar ita
Ġon load
Ġagu jeros
Ġponer se
Ġhubies en
Ġorden ador
Ġcontro la
Ġfacil mente
Ġrela to
Ġconten ido
Ġnues tros
Ġhighlight block
Ġfirst child
sel ector
Ġrespe to
Ġcie go
Ġsigu iendo
Ġjav ascript
Ġcic lo
Ġhomen aje
Ġscors ese
Ġespano la
Ġremove attribu
Ġquery selector
Ġremoveattribu te
Ġqueryselector all
d ara
u til
Ġe quilib
in al
Ġen la
Ġel fos
Ġno ticias
Ġf la
Ġin fer
Ġj r
Ġw ere
Ġpro ceso
Ġx q
Ġpas aj
Ġpe ores
Ġmar tin
Ġpos icion
Ġho lo
Ġem per
Ġrep or
Ġsim on
Ġpla ya
Ġdistin tos
Ġingen iero
Ġhal con
Ġcaracter is
Ġinvesti ga
Ġvampir os
4 4
g le
g amos
y os
Ġl ic
Ġde termin
an g
ci encia
Ġper ten
le ck
im ientos
Ġmu ri
Ġve as
ur os
Ġson risa
Ġmen tira
Ġpre da
Ġra chel
Ġjo das
Ġven tana
Ġgen e
Ġmuer ta
Ġverdad era
Ġcomp rar
Ġmon os
Ġ9 9
Ġpal ma
Ġfantas tico
Ġjoven es
Ġrecono cer
Ġacojon ante
Ġbrom a
Ġextraterres tres
Ġgob ierno
Ġestruc tura
p l
Ġe y
en sa
Ġla w
Ġh ues
in ada
Ġno ticia
Ġme can
Ġcon den
Ġin vi
ab ilidad
Ġpo p
tu ales
di go
Ġk ur
Ġcar go
Ġcar tel
Ġra zones
Ġmo di
pues tas
gra ma
bo y
Ġcam eron
Ġemp resa
Ġll en
Ġprof esion
Ġposible mente
Ġsorpren dente
Ġdesapar ece
Ġart is
Ġtransmi tir
Ġroda da
Ġpec ho
Ġmeta f
Ġboy hood
Ġscen e
Ġinco her
Ġpeon za
b s
g aba
Ġh tm
Ġb ucky
Ġpar que
le za
Ġj on
aj as
Ġdi ez
Ġab uelo
Ġexp an
Ġpal iza
Ġton teria
Ġep ic
Ġfilm s
tad ores
Ġpregun to
Ġsol tar
Ġdef ra
Ġenter ado
Ġsuperhero e
Ġdetec tive
Ġpreda tor
1 5
a ch
g ame
p pen
s es
z ados
Ġp ir
Ġl ight
Ġy ear
Ġpar o
am an
ter os
Ġser ian
ol as
Ġti tulos
pe d
Ġbas tar
Ġro y
Ġfor ce
qui tec
Ġsuper fic
Ġgra ba
Ġ0 00
Ġbo urne
Ġcono cemos
Ġmier das
Ġtrans por
Ġtor o
Ġnota ble
Ġvia jes
Ġmira da
Ġste ph
Ġrecomen dar
Ġtro zo
Ġinde pend
Ġner vi
Ġrich ard
Ġskywal ker
r ero
r ull
s or
t us
ci mientos
Ġf uente
Ġb ad
ia d
Ġal um
Ġpar k
Ġso le
Ġver se
Ġth en
Ġvi ven
Ġr ue
Ġtra mo
Ġca en
Ġca ta
Ġar quitec
Ġva cio
Ġro om
Ġjo e
Ġesper as
Ġven ido
Ġhi per
Ġcamb ian
Ġ201 7
Ġestu di
Ġsalv aje
Ġconver tido
ii ii
Ġga fas
Ġcl ones
Ġintelig encia
Ġfra cas
Ġqui tan
Ġsomb ra
Ġsk rull
Ġafec ta
Ġcoher ente
Ġconvertir se
Ġsupervi v
Ġsuspen se
Ġee uu
Ġfestiv al
g us
l uen
Ġe du
Ġe cha
Ġe vil
ar te
ci da
ci tos
om as
el as
Ġo ver
Ġre lo
Ġre vela
de y
po ol
ri to
Ġte tas
Ġescen arios
Ġk i
Ġam i
Ġsen ti
Ġmar ion
Ġsus to
Ġsus tos
Ġgu ante
ian a
Ġclar k
Ġbo drio
Ġli quido
Ġtras fondo
Ġjus ti
Ġcer rar
Ġwh ere
Ġdig na
Ġrelacion ado
Ġwill is
Ġpad rino
Ġdando le
Ġantigu a
war ds
Ġcarc aj
Ġplane tas
Ġwo uld
Ġserp iente
Ġaca dem
cons ciente
Ġinvier no
2 3
b ado
r ica
v ing
z en
Ġp use
il ando
Ġg at
Ġre vi
Ġesta cion
Ġsal ida
Ġtra mas
Ġti rado
Ġca ido
pe dia
Ġenc aja
Ġmar cus
me d
ian za
Ġcons ciente
Ġmon tan
Ġand ro
Ġencan tan
Ġemp ati
Ġpal omi
Ġtran qu
Ġneces i
Ġocur rio
Ġps y
Ġoscu ra
Ġconta cto
Ġdesen lace
Ġed ward
gn ar
Ġinfan cia
Ġcompren der
Ġliber tad
Ġnaz is
Ġadoles cente
Ġclima x
a is
c uen
g res
g ante
Ġt y
Ġn u
Ġn ig
al ista
Ġb ara
Ġcon tras
Ġg la
Ġin ex
Ġin util
co l
tra cion
Ġex cepcion
Ġhab le
Ġte la
Ġva yan
Ġra gnar
Ġmo ore
Ġcab re
Ġhaber la
Ġcan cer
Ġ0 2
Ġinten tado
Ġop cion
Ġesp osa
Ġon ly
Ġestu dio
Ġmatar lo
Ġsim ios
ip per
Ġnivel es
Ġases inos
Ġreg la
Ġcen tra
Ġdispar o
Ġdec lar
Ġconven ce
log ica
Ġaf ter
Ġpag ina
Ġdefen der
Ġbl ue
Ġprote ger
Ġmaravillos a
Ġinvas ion
g ados
Ġa di
Ġh qu
Ġb ul
el le
Ġj ane
Ġser v
Ġhay as
Ġro ad
Ġpon ia
den tes
Ġcor e
Ġgra vi
Ġinf luen
Ġemp u
Ġempe z
Ġatra c
Ġatra p
Ġcir c
Ġiden tific
Ġexplos iones
Ġtremen da
Ġsecundar io
Ġluch ando
Ġmandar in
Ġtaqu illa
aker ipper
Ġhqu akeripper
0 1
9 6
g es
h ol
n n
p lan
Ġa ver
or ado
Ġf emen
Ġg on
Ġlo u
Ġcu b
tar le
Ġhab ilidad
Ġk il
Ġk ub
Ġbas a
Ġmar tillo
Ġpon es
Ġapar ezca
Ġcam e
Ġad n
Ġins ta
Ġwh ich
Ġexplica ciones
Ġtir ando
Ġmur ph
Ġph il
Ġexperimen to
Ġmilitar es
Ġcondicion es
Ġtelef ono
Ġdigi tal
Ġxen omor
Ġmetaf ora
5 3
6 6
8 8
d ieron
h on
Ġl ore
Ġm cu
Ġh y
ci ado
Ġb vs
Ġha ces
Ġdes n
Ġdes in
Ġdes ierto
Ġan der
ig ue
Ġpro tas
Ġr al
za cion
Ġk en
Ġar iad
Ġmen tales
tt le
Ġro l
Ġro bar
Ġab uela
Ġpon dria
gar d
Ġven de
tiv idad
Ġba tallas
Ġton terias
Ġbar b
Ġactu a
Ġsig lo
Ġmag is
Ġdispar ar
Ġexc lus
Ġgir os
Ġconfir mado
Ġpropi os
Ġst ill
Ġcron o
Ġcad ena
Ġpho enix
Ġcuel lo
Ġragnar ok
d re
j ando
er amente
Ġque ja
Ġla b
ta ca
Ġf ase
Ġb uda
Ġb ala
Ġg eo
Ġre tra
le te
ti er
Ġth in
ten a
Ġx av
Ġca os
Ġch icas
ve y
Ġsobre sal
Ġdis tancia
Ġpa z
Ġ5 7
Ġhi po
pec tiva
Ġho use
Ġbus c
Ġponer le
ip lash
Ġemo ciones
Ġfic tion
Ġdestru ye
Ġhic iera
Ġcole ccion
Ġrid ley
Ġele gido
Ġpsico pa
Ġdead pool
Ġgh os
Ġfea ture
Ġhon or
Ġaff leck
Ġrefier es
Ġemper ador
1 3
2 4
b iendo
g adas
ra dos
Ġre in
Ġre ca
Ġre ino
Ġre torno
Ġsu da
Ġesc udo
Ġdi e
uer to
Ġco gido
Ġi d
iz ando
Ġpa tada
Ġcomp u
Ġem ma
Ġsub ir
00 0
Ġins titu
tad ora
Ġrecor do
Ġrecor daba
Ġespecta culo
Ġanim al
Ġdisfru te
Ġescri tor
Ġinven tado
Ġproyec cion
Ġele gir
Ġridicu la
Ġactual izado
Ġcomer cial
Ġrepe ti
Ġsomb ras
Ġenamor ado
Ġbab y
Ġregres o
Ġconex ion
Ġsteph en
Ġariad ne
e en
f an
r ick
v ante
Ġs y
Ġa is
Ġa qu
Ġa pe
Ġc ero
Ġde bo
Ġt ab
ta dor
Ġv ier
Ġme l
Ġcon duc
Ġg ay
Ġlo l
Ġo ch
Ġo li
Ġre a
ch an
Ġj enni
Ġan ton
ig e
ul lo
Ġas al
Ġtra uma
Ġco digo
Ġbas ado
Ġcar garse
Ġsab ado
Ġra tos
Ġmar y
Ġpare d
me dia
Ġne go
Ġus u
Ġay ud
orm al
du cido
Ġju gando
tur al
Ġvia jar
Ġder echos
Ġmeter se
Ġproduc to
Ġameric ana
Ġprome te
Ġavan za
Ġensen ar
tres s
Ġdemasia da
Ġtremen do
Ġcria tura
Ġcoher encia
Ġclic hes
Ġhier ro
Ġdijer on
Ġsemej ante
Ġkub rick
h t
x o
z e
Ġp ico
ci dos
Ġf ria
lo t
Ġac ciones
Ġpro tec
der a
der o
Ġr im
Ġni ro
Ġcar ino
pi ro
Ġdis c
Ġpon ga
Ġos cur
pon e
Ġcor eo
Ġgen io
ies e
Ġba ile
Ġsub consciente
Ġban ner
Ġau dio
Ġexplic ando
Ġref iere
Ġbes o
Ġcompar ar
Ġflip ado
Ġauto bus
Ġpul p
Ġbomb as
Ġauten tico
Ġhabi tual
Ġpus ieron
Ġpartic i
Ġaconte cimientos
Ġmaquilla je
Ġchic ha
Ġpasaj ero
Ġxav ier
Ġjenni fer
i vos
m ada
Ġs illa
in to
Ġen orm
Ġb ando
Ġsu je
im i
im on
Ġto cado
Ġin j
Ġcu t
Ġesta dos
Ġso is
Ġver e
ul s
ul os
Ġpro to
Ġpro duce
Ġqu im
Ġr uso
Ġk ar
Ġcos illas
Ġi da
Ġcas tillo
Ġsen tidos
Ġdo w
ke y
Ġter ren
Ġmin i
Ġquier as
Ġprinci pe
Ġvuel vo
Ġuni dos
Ġdeb en
Ġsim bo
Ġvie jos
Ġjohn son
Ġemocion al
Ġcomun idad
Ġobs erv
Ġnor te
Ġnum eros
Ġpol vo
Ġend game
Ġeas t
Ġreplic ante
Ġino cente
Ġconflic to
Ġatro pel
Ġbastar dos
5 4
p est
Ġt os
ic on
Ġcon tado
Ġper for
Ġesta ble
Ġfin cher
co ck
Ġca yendo
at on
Ġi dio
Ġra dio
Ġlu ces
Ġos o
Ġgen iales
Ġpos ter
Ġob ras
Ġinf ierno
Ġsec uelas
Ġfuer tes
Ġrep ro
bla bla
Ġtir an
Ġactu ar
Ġale g
Ġolvi dado
Ġfe el
Ġrela ted
Ġmes a
Ġreci be
Ġzomb is
Ġllor ando
Ġestre l
Ġfur ia
Ġjajaj aja
Ġens ena
Ġauten tica
Ġsuici dio
Ġdecision es
Ġcomplic ado
Ġwiki pedia
Ġlech e
ben der
Ġapocalip sis
Ġconsecuen cias
Ġbuda pest
c able
d ing
k k
z adas
Ġp iso
Ġd ieron
Ġa ge
Ġm ys
Ġno c
Ġno va
Ġo ce
Ġo ido
Ġto cho
ti os
Ġdes cen
Ġw il
Ġth ro
Ġvis uales
Ġdic ha
Ġcar ta
Ġam y
Ġdis co
fic ios
Ġmon tana
car se
Ġdirec to
Ġand re
Ġfun da
Ġgusta ba
Ġencon tre
Ġwh iplash
Ġnorm almente
Ġale gro
Ġfavor itas
Ġabsur das
Ġgol pes
Ġtem atica
Ġmaqu inas
Ġrela ciones
Ġmedi os
Ġfel icidad
Ġtoque s
60 8
Ġlevan ta
Ġdemos trar
Ġneg ros
Ġhaw ke
Ġnucle ar
Ġpaci fic
Ġaran a
Ġdespro posito
Ġener gia
Ġacostum bra
6 7
c ados
g ular
j era
Ġ ia
Ġp ac
Ġde ca
un s
Ġv uestra
Ġf ro
Ġsu be
Ġto y
Ġan y
Ġac u
Ġdi es
di dos
Ġsal tar
Ġsal tos
der os
at ia
Ġlle gando
Ġdeci an
Ġreal ismo
Ġhacer le
qui la
Ġne t
Ġfal to
Ġig uales
Ġop ino
Ġthor in
Ġutil izar
Ġray os
Ġrecur sos
Ġelec cion
Ġdese ando
Ġelemen to
Ġpira tas
Ġdimension es
Ġescal eras
Ġprogra ma
Ġwes tern
Ġces ar
7 1
Ġd aban
Ġs to
Ġa ero
Ġa umen
Ġa ward
er al
er ra
Ġde fec
on y
Ġen via
Ġun icamente
Ġf en
Ġg y
am ento
Ġin ci
ch ado
Ġso tano
tu vo
Ġas ia
Ġsal van
Ġcar ter
Ġcar ol
Ġmo on
Ġmo tor
Ġpa tadas
Ġsus tancia
ven cia
Ġne o
Ġinc om
Ġ7 8
Ġba y
Ġhar d
Ġhar vey
Ġfa tal
Ġentreten imiento
Ġtr on
Ġpregun tar
Ġdeb ia
Ġcompar acion
Ġpier den
Ġnombre s
Ġdispar os
Ġcla va
one y
Ġrapi da
Ġentren amiento
Ġech ado
Ġpelig ros
Ġoper a
Ġprefer ido
Ġespiri tu
Ġeast wood
g ico
m em
n is
p per
Ġl io
Ġl yn
Ġt t
or y
or ada
Ġn acion
Ġn igh
in ando
Ġcon mi
Ġha cian
Ġal ice
Ġo din
Ġre x
Ġsu m
Ġw ak
em o
Ġver ano
Ġac ce
Ġac titud
Ġdi v
ol f
ul ce
Ġpr omo
Ġvi vos
Ġve is
Ġco pi
Ġk ong
Ġar ro
Ġpe gado
Ġhar ris
Ġsac ando
Ġgo ing
Ġju icio
ome traje
Ġcuri osa
Ġfis her
Ġsobra do
Ġnar ices
Ġutil iza
Ġinclu ido
Ġhech as
Ġdro ga
Ġsentim iento
Ġcuar ta
Ġroman ce
Ġavis o
Ġnie bla
Ġelec tr
Ġdorm ir
Ġpermi te
Ġcarre tera
Ġcue va
Ġgl oria
Ġsna pe
Ġindepend iente
Ġrelo j
Ġander son
Ġconmi go
r arse
t ones
u dos
Ġs ny
an cia
te a
Ġf ron
Ġf uck
Ġb b
Ġg ris
Ġre ves
Ġsi ete
Ġmu tantes
Ġac tress
Ġcre ando
Ġtra tan
Ġca gar
Ġ3 4
Ġi z
Ġva is
Ġro to
Ġro ja
Ġenc aj
Ġdej aron
Ġdeci dido
Ġimp res
Ġapar tado
Ġgra tu
Ġmin is
Ġem pi
Ġand y
Ġsec uestra
Ġba zo
Ġlla mas
Ġhar dy
Ġhar ley
Ġrep ub
Ġjun g
Ġspi dey
Ġdios es
ick s
Ġves tu
Ġameric anos
Ġtro ll
Ġbaj ar
ath an
Ġsigni ficado
Ġpunta zos
Ġlis to
Ġprem ios
Ġjes s
Ġangel es
Ġcona zo
Ġagen ts
Ġlengu aje
Ġvier nes
8 9
t n
Ġe tern
Ġp se
Ġs esion
do m
al d
te ca
da is
Ġb un
Ġo ther
Ġre bo
Ġre vis
us iones
ch os
Ġj or
Ġex pe
Ġ3 3
ac er
Ġar ch
Ġres iden
Ġres olver
Ġi di
Ġmis m
Ġro pa
Ġda ys
Ġsus titu
Ġplan et
Ġimp ro
Ġcor rup
Ġna tal
ita mente
Ġho ward
Ġvo ces
Ġ0 4
Ġbo te
Ġcono cen
Ġcri os
Ġli ttle
Ġad ecu
Ġau tom
Ġins tante
Ġfalta ba
Ġcap rio
Ġpla y
Ġreg las
Ġrom per
Ġatra ves
Ġfran qu
Ġmov imientos
Ġps iqu
truc cion
Ġexplo ta
Ġcojon udo
Ġposibilidad es
Ġtransform ers
Ġimagin aba
Ġestup ido
Ġcientific os
Ġangus tia
Ġghos t
Ġdow ney
Ġnoc tur
Ġsny der
t iendose
t ienen
Ġe van
Ġp ajar
Ġd ue
Ġs ienta
Ġes par
Ġel i
al an
te in
Ġno tas
Ġf lor
Ġme tiendo
la dor
Ġg amb
Ġg oo
Ġcom b
Ġre en
Ġdes crip
ion e
Ġma de
Ġma tr
Ġas que
Ġve amos
tro oper
Ġca ge
Ġmal ditos
Ġar tes
Ġsen tado
Ġpe go
Ġdej en
th an
dd y
Ġpun tuacion
tic e
men ta
Ġacab ara
Ġdirec ta
Ġho ff
Ġri p
Ġcri tico
Ġgan gs
Ġocur rir
Ġtend ran
ll en
Ġmill ion
Ġste ven
Ġsho t
Ġaque llo
Ġplante a
Ġrus s
oooo oooo
Ġsenci llo
Ġmoles ta
Ġtecn ico
Ġequivo co
Ġwin ter
Ġconstante mente
Ġcinematograf ico
Ġemb ara
Ġhen ry
Ġinca pa
Ġtranqu ilo
g ida
m b
p us
w or
Ġd uelo
Ġh ill
Ġn ic
Ġal i
Ġpor tal
icu l
ri el
Ġcre an
ib er
Ġr ick
Ġmejor a
Ġam ista
Ġam iga
Ġmo dos
Ġexp lor
Ġven ia
Ġig les
Ġinten ciones
Ġop tim
Ġgener ales
Ġide al
Ġsol d
Ġtor no
Ġreg is
Ġata car
Ġtre k
rig ht
Ġsuf re
Ġtri un
Ġsam ura
Ġfas s
Ġbre ak
Ġviv iendo
Ġoper acion
Ġvolv iendo
Ġofre ce
Ġrell eno
Ġsuces os
Ġmiem bros
Ġpay aso
Ġintri ga
Ġinmor tal
g el
h ib
t ch
Ġl un
Ġa i
Ġm om
Ġt ac
Ġla go
Ġb ano
ien de
Ġo lla
Ġcom bus
Ġsi tios
ec era
tr en
Ġfin a
ca cion
Ġmal dicion
Ġreal iz
Ġreal izar
Ġ4 1
Ġcor tar
Ġcor rer
ios os
cen cia
Ġvol ar
Ġ9 608
Ġz or
Ġsub n
Ġconf orme
Ġinterpre tado
Ġviendo la
Ġanim e
Ġcien tos
Ġespa ciales
Ġja e
Ġjack man
Ġben e
Ġpresen tan
Ġpresen tar
Ġmencion ar
Ġprofun do
Ġaf ir
Ġrespon de
Ġacep table
Ġenfer m
Ġintro duccion
Ġsuficiente mente
Ġdemasia dos
Ġexager ado
Ġpate tico
Ġpow er
Ġear th
Ġtum ba
Ġesfuer zo
2 5
c el
i des
Ġla ura
un t
Ġy endo
Ġg os
Ġlo gan
Ġpar tida
Ġre cha
le z
Ġto l
ando la
Ġmu riendo
Ġw at
Ġth an
Ġma pa
Ġtra in
Ġco ven
Ġcas ting
Ġro gue
Ġab us
Ġcor ri
Ġcor tos
Ġob vi
Ġbo b
Ġpal os
Ġbe for
Ġestu v
Ġejemp los
Ġfantas mas
Ġcritic ar
Ġclas ica
Ġmill er
Ġflo jo
Ġpers pectiva
Ġsuel en
Ġchav ales
Ġtur no
Ġchar acter
Ġcurios amente
Ġbal as
Ġpic ture
Ġfra g
Ġjes se
Ġnie ve
Ġrum or
Ġrum ores
Ġpropi as
Ġdibu jos
Ġstorm trooper
Ġjuras sic
Ġcirc uns
Ġfass bender
Ġbefor e
7 0
d ras
h at
j arse
v ada
Ġl lu
Ġl ong
Ġs m
Ġs par
Ġa ho
Ġa ka
Ġm ich
Ġes tra
Ġel ab
Ġno te
Ġf lu
ia dos
Ġpar ti
Ġo x
Ġin qu
Ġan th
Ġex tras
Ġas um
Ġcre eis
Ġsal dra
Ġvi ii
at her
Ġch i
Ġar que
Ġva ca
Ġmun dos
Ġtras cen
Ġespec tadores
sa w
Ġtr uno
Ġmus ic
Ġinterpre tar
Ġdig as
pos icion
Ġcen tral
Ġpien sas
Ġlan z
Ġdec ada
Ġincre ibles
Ġdobla da
Ġrespon der
Ġsam uel
bor g
Ġvic tim
Ġaman te
Ġsacri ficio
Ġalienig enas
Ġprec uela
Ġpob lacion
Ġthro ugh
Ġcoven ant
b ilidad
i um
Ġde dica
os im
ar y
Ġla ber
Ġv ul
te gra
Ġg all
Ġlo cos
Ġo la
Ġin e
Ġin dic
tra dos
di das
Ġcre ador
Ġti tle
res pon
Ġcos ta
Ġar co
Ġhu ir
Ġmo tion
Ġentre gas
Ġ5 8
Ġcor r
Ġter rible
Ġus ado
Ġher m
Ġfuer zas
Ġefec tivamente
Ġempe zando
Ġlim ite
Ġmos trando
Ġbra zos
Ġrecomenda da
Ġart iculo
pol is
Ġblo ck
Ġevery thing
Ġcinematograf ica
Ġdeba te
Ġwillia ms
Ġartific ial
Ġram bo
Ġpsicopa ta
Ġiz quier
0 6
9 9
p uerto
y p
Ġd ientes
Ġs ien
as a
re l
Ġno vel
Ġf ight
Ġcon tiene
Ġpar an
Ġper segu
Ġdes o
Ġan tic
tan ce
Ġdi ario
Ġex terior
Ġas gard
res t
era cto
Ġi re
ver field
tt ing
Ġro dri
Ġmo da
Ġdeci den
den tal
Ġ5 1
fic os
Ġcier ra
cen t
Ġpod ra
Ġmor tal
Ġsec ues
Ġlla mo
Ġbat tle
Ġju z
Ġtr ue
Ġdeb il
Ġmos trado
Ġhabla mos
Ġbrutal es
Ġcontinu a
Ġsex ual
Ġacep ta
Ġru ido
Ġsuf rir
Ġxddddd dddd
Ġantigu as
Ġenfren tamiento
bus ter
Ġprepar ado
Ġconoci miento
Ġanal isis
Ġarreg lar
Ġfamos o
Ġcr uel
Ġsatis fec
Ġcy borg
Ġaero puerto
Ġigles ia
Ġinqu ie
e tas
h uman
j i
Ġen v
te ar
Ġno ve
Ġb ran
Ġse t
Ġse le
Ġg ag
Ġre volucion
am ientos
Ġac el
Ġma ke
Ġas tron
Ġcre en
Ġte atro
Ġsin ies
Ġsin sen
Ġk re
Ġcas tle
Ġjo cke
Ġab ril
Ġmo lo
Ġmo ther
Ġplan es
Ġdo es
ren a
Ġsa ys
Ġpareci endo
Ġmin ima
Ġmon tado
Ġhom e
Ġpes ado
Ġbus co
Ġhar an
Ġtran quila
Ġmalo te
Ġneces aria
Ġcer rado
graf ias
Ġocur ra
Ġtor tu
Ġempe zado
Ġlim ita
Ġpier nas
Ġmens ajes
Ġtrabaj ar
Ġinfor ma
Ġenfren tarse
ind el
Ġsimp les
Ġpelig roso
Ġchu lo
Ġleon ardo
Ġlogra do
Ġbomb ar
Ġsuici darse
pira cion
Ġdesco j
Ġmagni fica
Ġencer rado
Ġmulti p
Ġascen sor
Ġater ri
Ġpesad illa
Ġmagis tral
Ġsimbo lo
6 8
i dor
s day
Ġp ur
Ġa zo
ar ch
Ġme tan
la dos
Ġcon tada
Ġal so
Ġpel in
po der
ando le
ab as
em ente
Ġver a
Ġver as
uen tes
Ġhab rian
Ġtien da
Ġca fe
Ġk ir
Ġmal isima
Ġpe gando
Ġpun eta
les s
Ġinc ons
Ġdecir le
Ġquier an
Ġ6 7
Ġ0 3
Ġbo la
Ġmor ia
Ġinf um
ris to
trar se
Ġu pon
tion s
Ġcomen tas
Ġ201 8
Ġton ta
Ġneces ito
Ġentreten er
Ġ200 6
Ġvia ja
Ġale jan
Ġpier na
Ġentra do
Ġdesp ier
Ġcru ise
Ġescu cha
Ġcomun ic
Ġacep tar
Ġplante amiento
Ġpoli tica
Ġclo verfield
Ġado p
Ġrebel de
Ġapun ta
Ġinfec tados
Ġextre mo
pp y
Ġcra ck
Ġbrom as
Ġdesco jon
Ġsupervi vencia
Ġparado ja
Ġprinces a
Ġculp able
Ġwak anda
Ġjung la
b ido
c ri
i ores
Ġd jan
Ġl ord
Ġque r
in ados
Ġen der
Ġb ucle
is mos
Ġse is
la ter
la das
Ġcon an
Ġo u
Ġper diendo
am ar
Ġdes f
tr ia
Ġan tena
em on
Ġth omas
Ġmi ke
Ġex ceso
Ġma f
Ġmuch isimas
Ġsal tando
der as
Ġpas te
Ġca tw
Ġman hat
Ġres ta
Ġres puestas
tt y
Ġdis tri
Ġreal ly
Ġinc on
Ġinf o
Ġcono cia
Ġep ilo
Ġbar dem
Ġfi jas
Ġje ff
Ġdifer en
Ġwh ite
Ġcap tura
Ġada man
Ġguar dia
Ġbaj as
Ġentr ando
Ġtes oro
Ġespectacular es
Ġwal ter
Ġxddddd dd
Ġxddddd dddddddd
Ġrebel des
Ġexplo tar
Ġfac tor
Ġlagrim as
Ġextraterres tre
Ġhit ch
Ġcambi ando
Ġexces ivamente
Ġham bre
Ġvideoj uego
Ġbusque da
Ġvolun tad
Ġvestu ario
Ġgoo gle
Ġsold ier
Ġdjan go
Ġmanhat tan
7 6
d isima
e g
h ttp
Ġe uros
Ġs n
Ġs ara
Ġc ele
Ġde do
Ġde dos
Ġh orm
un do
Ġen tro
Ġf ighter
Ġb i
Ġg wen
Ġal an
Ġper m
Ġre vel
Ġle vi
Ġj an
Ġdes pa
tu des
Ġve te
Ġpas as
Ġmal isimo
Ġch icos
Ġar nol
Ġres er
Ġinter ac
Ġsuper a
Ġmon tar
Ġ0 5
Ġbo w
Ġterm ine
Ġon ir
Ġbar rio
Ġhor iz
Ġfi jado
Ġta xi
Ġpapel on
Ġsensacion es
Ġguar da
Ġbor da
Ġbel leza
Ġtempor ales
rer as
Ġsobrevi ve
Ġflip adas
Ġtes eracto
Ġil usion
Ġed die
Ġguardian s
Ġtecn icamente
Ġesco pe
Ġrecuper ar
Ġchor rada
Ġaguan tar
Ġpartic ip
Ġperio d
Ġcach on
Ġdre am
Ġdoom sday
Ġbri tan
Ġinvestiga cion
Ġsole dad
Ġnecesi tan
Ġlab ora
Ġinstitu to
Ġbazo fia
Ġjess ica
Ġanth ony
Ġcatw oman
8 1
b amos
Ġp le
Ġs es
Ġc ita
Ġm v
en e
Ġv imos
ic ano
Ġme x
Ġg er
Ġg ib
Ġcom ico
Ġcom iendo
Ġre tor
Ġre qui
ec do
Ġle d
ul as
Ġma ten
Ġcre pus
Ġten gas
Ġmuch isima
Ġco ur
Ġti e
Ġti pos
Ġvis iones
Ġbas ta
Ġlle gada
Ġcar ac
Ġrec ons
Ġsab ria
Ġnin as
Ġ4 9
Ġ0 7
Ġri gh
Ġins ide
Ġocur ri
Ġbes tial
Ġky le
Ġgustar a
Ġanterior mente
Ġorigen es
Ġgar gan
Ġ199 7
Ġvir gen
Ġfol la
Ġsecre ta
Ġchar lie
Ġfre eman
Ġbur ton
Ġpunta zo
Ġqui tado
Ġjajaj ajaj
Ġconte mp
cin dible
Ġprovo ca
wal d
Ġmotiv aciones
Ġdri ve
Ġdepen de
Ġmod elo
Ġagrad ece
Ġpalomi tera
Ġgy llen
Ġlyn ch
Ġmatr imon
Ġllu via
Ġlaber into
Ġarnol d
d ientes
y y
Ġe a
Ġe t
Ġp ista
Ġp aja
Ġd uer
Ġc ran
Ġc ep
Ġque jas
Ġla dy
ic ios
Ġf ull
Ġcon se
Ġal len
Ġpar as
Ġcom a
Ġmas a
Ġle t
Ġso los
Ġpo zo
di ta
Ġca go
Ġvis te
Ġch arla
Ġnin ja
Ġexp on
Ġpareci an
Ġhi p
ian os
Ġmin d
Ġcons igo
Ġcan ta
av era
ha al
Ġpres ion
teri ores
Ġton tos
Ġgo t
iza ciones
Ġje dis
lon e
Ġcomple jo
Ġtend rian
Ġnorm ales
Ġedi to
Ġmill on
Ġdecepcion ante
Ġmad rid
Ġrus os
Ġsimilar es
Ġprem isa
Ġperdon a
Ġcaball eros
Ġconstru ir
Ġabra ms
Ġrock y
Ġposterior mente
Ġdomin go
Ġdesgra cia
Ġborra cho
Ġdesas tre
Ġgraba cion
Ġaqu aman
Ġpsiqu ia
Ġcombus tible
Ġherm ione
8 4
b ac
o u
z y
Ġp illo
Ġs tra
an der
Ġt ig
Ġh uel
Ġv ino
Ġun icos
ra p
le tt
am er
Ġin men
Ġdes pi
Ġan ecdo
Ġver y
Ġver le
dad or
Ġmi la
Ġti ri
Ġson ar
Ġson ando
ie dad
Ġk id
Ġar ca
Ġra dia
Ġgu y
Ġpen diente
Ġexp resion
Ġpues tos
Ġinter na
Ġcor on
Ġne ws
ke d
Ġpareci da
Ġfil me
til las
Ġcuen tas
Ġus ted
tion al
Ġbe en
Ġfa il
Ġwar ner
Ġestu pen
Ġfi re
Ġta ke
Ġdig an
Ġtrab aja
Ġenter e
Ġfavor itos
Ġdrama tico
Ġrefer ia
Ġquedar ia
Ġexis tir
Ġdesta ca
Ġcur rado
Ġapro v
Ġflip ada
Ġgre at
Ġenfren ta
Ġensen an
Ġsentim en
Ġapren der
Ġrebel ion
Ġtecn ica
Ġequivo cado
Ġcria turas
Ġaman ecer
pu ta
Ġadul to
Ġjustific ar
Ġrelig ion
Ġrespons able
Ġwillia m
Ġexpli que
Ġpoten cial
Ġimita tion
Ġhoff man
Ġincapa z
Ġnic olas
Ġinfum able
Ġepilo go
Ġhitch cock
Ġcarac teri
Ġgyllen haal
b ur
h ing
i que
l s
n acion
s ible
Ġ uc
Ġ ome
Ġa ir
Ġc ros
ta gon
ic to
Ġb all
Ġal ita
Ġo di
Ġre ti
Ġto o
ando lo
Ġcu m
Ġcu ya
Ġle gen
Ġj j
Ġmi tica
Ġex ig
Ġtra er
Ġco he
Ġman ia
Ġcar pen
Ġro dado
Ġmar tha
Ġdis gus
Ġpa vo
Ġcor t
Ġne ver
Ġap os
Ġmon e
Ġ0 6
Ġvol vio
Ġtom an
Ġbar bar
Ġis land
Ġfun eral
Ġwh e
Ġpla ta
Ġtend re
Ġdesa gra
Ġder echa
Ġpien san
Ġpreci osa
Ġdecepcion o
Ġpie dras
Ġcivil izacion
Ġsur re
Ġenfer mo
Ġintro ducir
Ġpobre s
Ġpsico logico
Ġclo oney
Ġrev ienta
Ġcinemato gra
Ġinvesti gar
Ġagen tes
Ġrevision ado
Ġsubtitu los
Ġsubtitu lada
Ġrespons abilidad
Ġinv ol
Ġconsigu io
Ġcuch illo
Ġinesper ado
Ġpop ular
Ġgla dia
Ġfen omen
Ġfranqu icia
Ġcarpen ter
7 5
a ut
c or
c om
d isimo
g ad
p ic
r ente
ar ias
in i
es s
Ġb it
is on
Ġha te
Ġha gas
Ġha cien
Ġlo bos
Ġcom is
Ġper ci
Ġper man
Ġre to
Ġin no
ti um
Ġmas ter
Ġver ia
Ġex tin
Ġpro ce
Ġas s
Ġte am
Ġve h
Ġr osa
Ġim be
ac u
Ġch uck
Ġcos to
Ġres pec
Ġva g
Ġesper ado
Ġcor respon
Ġnos tal
Ġna cido
Ġob ten
Ġop ciones
Ġguion es
ton a
Ġemp le
Ġemp ece
Ġtal ento
Ġcomen tan
Ġbe ing
Ġju an
Ġju gado
Ġconf un
Ġpin tan
Ġpin zas
Ġanim a
Ġvolver e
Ġciudad es
Ġtemp lo
Ġcru z
Ġhue le
Ġhol mes
Ġengan ar
Ġejer citos
Ġpis cina
Ġbre ve
Ġgalax y
nes s
Ġjul ian
Ġpl ena
Ġinde pen
Ġcienti fica
Ġdri ver
Ġscar lett
Ġprec uelas
Ġduen o
Ġenve j
Ġarquitec to
Ġacadem ia
Ġhabilidad es
Ġdisc usion
Ġinj us
Ġidi oma
Ġamista d
Ġizquier da
Ġdistri to
Ġome ga
6 2
6 4
h s
k ins
n an
p in
t man
w an
y ing
Ġe che
Ġl on
Ġa ki
Ġc ia
Ġla dr
Ġy on
ta zos
Ġun e
Ġf l
Ġf oo
Ġf eo
Ġb rian
la ciones
Ġcon cen
im as
Ġto k
Ġdes eo
tr ices
Ġw ant
ig as
Ġma z
Ġqu iso
Ġr in
Ġres olu
Ġven ta
Ġimp ec
Ġ5 2
Ġdos is
Ġacab as
Ġoc tu
Ġval en
Ġba ilando
tran s
Ġmer ito
Ġbla blabla
Ġmag ico
Ġversion es
Ġatra pado
Ġata ca
Ġjack ie
Ġdrama tica
Ġmol aria
Ġhic e
Ġabsolu ta
Ġprofun da
Ġgri tos
Ġinclu ir
Ġapro x
Ġpic tures
Ġgua po
Ġvea is
cul os
Ġresis tance
Ġvin cent
Ġnaz i
Ġdemon ios
Ġenfo que
Ġmatt he
Ġgenera cion
Ġalterna tivo
Ġexpli quen
Ġtranscur re
Ġredon da
Ġstal lone
Ġcomunica cion
abe th
Ġlaw ren
Ġthin k
Ġtol k
Ġsatisfec ho
bac ca
6 1
7 2
9 2
f ar
m adas
n al
s po
w e
Ġd al
Ġc row
Ġde par
Ġm am
que ta
as er
Ġt ell
Ġn y
Ġv ib
Ġv iento
Ġha ck
il as
Ġpar is
Ġo ir
le to
Ġmas ac
qu in
Ġver las
ig ma
Ġas o
Ġr icos
Ġpas able
Ġtra ge
Ġca iga
Ġpue das
Ġcos tado
Ġar ru
Ġi ts
Ġjo han
Ġdis pon
Ġor ien
Ġdu dar
Ġimp re
Ġcor ea
Ġfal le
Ġfal sa
Ġcier re
Ġri an
Ġespe jo
Ġllev ando
Ġba teria
Ġon line
Ġimpor tan
Ġje je
Ġpeque nas
Ġfantas ticos
Ġcuer pos
Ġrecuer de
Ġdec or
Ġabur re
Ġproyec ciones
Ġblan ca
Ġchris tian
Ġtiro teo
Ġrev ie
Ġinfec tado
Ġph p
Ġlevan tar
Ġdese ar
Ġreven tar
Ġwo w
Ġadul tos
Ġjar vis
Ġgr indel
Ġapla ud
Ġescla vi
Ġcli ff
Ġchew bacca
Ġadi v
Ġimpro vis
Ġgos ling
Ġlabora torio
Ġrigh t
Ġmatthe w
Ġlawren ce
Ġtolk ien
8 5
9 5
b rar
d ran
d illa
g iendo
u z
v h
Ġ ue
Ġl um
en ar
en ce
Ġque dando
Ġque dara
Ġt s
Ġt ib
Ġes ter
or as
Ġv ose
ci r
Ġf ly
Ġpar ra
Ġo ur
Ġcom ente
Ġre gen
Ġre tur
Ġin media
ab o
Ġj ig
Ġdes ac
co p
Ġpro logo
Ġas omb
der s
Ġco en
Ġco bar
Ġti as
Ġman if
Ġi w
Ġcar rie
Ġda is
Ġfor mar
Ġpa tas
Ġhacer la
Ġimp lica
Ġcor tan
Ġcor tes
Ġap las
Ġinc or
Ġvol vi
Ġden t
Ġpodria mos
Ġjus tamente
Ġsh aron
Ġrecor dando
Ġocur ren
ep h
Ġreg alo
id ores
Ġjohn ny
Ġfavor ito
Ġprincip almente
Ġmic ro
Ġgri to
Ġnues tras
Ġmur ray
Ġconta c
Ġindi fer
Ġconfir ma
Ġfr ien
Ġcir culo
Ġrecono zco
Ġdoctor a
Ġenam ora
Ġentien des
Ġspo t
ist ente
Ġfri ki
Ġanal izar
Ġsoli tario
Ġtransfor ma
Ġmunec o
Ġkaij u
Ġgravi ty
Ġape te
Ġcircuns tancias
Ġastron au
Ġoctu bre
0 2
7 3
e ja
g ie
i us
Ġe con
Ġp lu
Ġa den
Ġa gos
Ġc ena
er ta
Ġm ero
Ġm ama
Ġh in
ic t
Ġse mi
Ġg im
Ġo dia
Ġpor no
ab amos
ti embre
Ġj ur
Ġw ild
Ġan to
Ġpo le
Ġpo int
Ġsal gan
res as
Ġca teg
pe z
Ġperson ales
Ġson y
Ġk ra
Ġch ild
Ġar ena
Ġsen ores
Ġjo a
Ġmo vies
iz ados
Ġfor rest
Ġpon gan
Ġdo g
Ġinter ro
me dio
Ġpos tc
Ġna ce
Ġinf lu
Ġimag es
Ġtom o
Ġcontra dic
du ra
Ġfa ci
Ġban co
Ġju ven
Ġcol um
Ġ200 4
Ġ200 5
Ġresul to
Ġuniver sidad
Ġlim pi
Ġcul to
Ġwe y
Ġtip icas
Ġvideo c
Ġmencion a
Ġag res
Ġdescub ren
Ġextra ord
Ġobje to
Ġnor ton
Ġbro ther
Ġbro wn
Ġarre p
Ġviv ido
Ġroman tica
Ġadel an
Ġresca te
Ġestren ada
Ġmaravillos o
Ġind us
Ġmotiv acion
Ġahor rado
Ġeuro pa
Ġfem in
Ġequilib rio
Ġholo grama
Ġey es
Ġprofesion al
Ġempati zar
Ġrip ley
Ġvictim as
Ġadaman tium
0 3
7 4
c amb
d ante
f s
i fic
j am
n on
p al
Ġe va
Ġs ad
ue gos
er io
as ion
Ġque m
Ġla d
Ġno vi
ra m
Ġha ppen
Ġg lor
Ġg uld
Ġpar da
Ġsi tu
us ias
ab el
Ġw ri
Ġw it
ig an
Ġpro p
Ġhab ran
Ġcre di
Ġr usa
Ġpas tel
Ġpas aria
Ġtra gar
Ġtra dicion
Ġtra jes
Ġco til
era cion
Ġvis tas
Ġmal dito
Ġdic k
Ġlle gas
Ġra imi
Ġdon nie
Ġimp lic
Ġpareci eron
ill on
Ġinc ong
Ġob l
Ġemp atia
Ġsec ta
Ġlla ve
Ġz as
Ġsub s
Ġwar lock
Ġcol in
Ġpla to
Ġsorpren der
Ġfis cher
Ġacer tado
Ġadap tar
Ġmol an
Ġesca pe
Ġmic key
Ġtro zos
Ġreci en
Ġreci bir
Ġmedi as
Ġpele ar
Ġantigu os
Ġros tro
Ġvam piro
Ġspo ts
Ġcrim inal
Ġapare ci
Ġadoles centes
Ġsep tiembre
Ġnega tivo
Ġvec ino
Ġges to
Ġposi tivo
Ġtuv ieron
pla y
Ġcaracteris ticas
Ġestrel las
Ġrepub lica
Ġexpe dicion
Ġdescrip cion
Ġecon om
Ġpostc re
Ġguld ur
Ġincong r
0 5
0 8
0 9
n ado
y u
z el
Ġe than
Ġp lot
ar s
Ġque remos
in u
Ġel iz
Ġel fo
Ġv uelo
Ġun ir
ci ta
Ġf on
Ġme lo
Ġcom pe
am o
Ġin visible
Ġin tele
ti to
Ġcu bo
ri dos
ir ia
Ġac tiv
Ġesc ar
Ġser lo
Ġpr om
Ġma in
Ġx men
Ġcre i
Ġco uld
Ġca gado
Ġent usias
Ġk at
Ġtan que
Ġman sion
ve d
Ġdic h
Ġhu gh
Ġrec lu
Ġsen ora
Ġab ier
Ġdej as
Ġ4 3
Ġdo ug
tim o
Ġcono zco
Ġoc ta
Ġvar ia
Ġval iente
Ġden un
don os
Ġrecor demos
Ġargumen tos
Ġpin za
Ġke aton
Ġgor da
Ġfran cia
Ġdispar an
Ġfis icamente
Ġfuncion an
bu la
he im
Ġag rid
Ġexac to
Ġdescub riendo
Ġtrabaj ando
duci da
Ġrepresen tacion
Ġgal ac
Ġasesina tos
Ġfle cha
Ġmanip ula
Ġdiscu tir
Ġdesaprovech ado
Ġilum inacion
Ġalum nos
Ġandro ide
Ġdue le
Ġgall ina
Ġsele ccion
Ġdescoj one
Ġincons ciente
Ġmatrimon io
Ġgladia tor
Ġwey land
i qui
j ada
j ano
l ia
m v
u rio
v ol
x d
Ġl v
Ġa cierto
er an
Ġm mm
Ġes qu
or t
Ġh em
Ġh und
ta je
es te
ra cion
Ġf os
Ġse m
Ġcon cep
Ġha ppy
Ġo le
Ġto dd
ti f
Ġle g
ier as
Ġac ero
tos o
dad as
Ġve in
se d
Ġco co
Ġam en
Ġsab ian
lar d
tt on
Ġsen ales
Ġsen tia
Ġpa pa
Ġ5 4
be d
Ġdar e
Ġ8 00
Ġ6 5
ne d
Ġcal les
ros a
Ġdan ny
Ġabs or
Ġmer cen
Ġsaber lo
Ġuniver sos
Ġder echo
Ġline al
Ġinic ia
Ġengan cha
Ġgri e
Ġgri tando
Ġdiver tido
Ġjue ves
Ġdol ares
Ġcris is
Ġridicu las
Ġsuce dido
Ġsuf rimiento
Ġsno w
Ġfas cin
Ġfr us
Ġagra de
Ġmeta for
Ġresca tar
Ġbol sa
Ġface h
Ġpat rio
Ġeven tos
Ġlengu a
Ġaus encia
Ġvideoj uegos
Ġkaij us
Ġcerc ano
Ġfracas o
Ġcarcaj ada
Ġenorm es
Ġquim ica
Ġterren o
Ġruss ell
Ġvaca ciones
Ġjig saw
Ġagos to
Ġobl iga
p res
u de
y l
Ġs j
Ġs osa
Ġa wards
os icion
Ġque ma
Ġh ur
un iden
Ġn ub
ta mento
Ġun ic
ci entes
Ġb in
Ġb rid
Ġcon as
Ġha z
Ġcu tres
Ġdes vel
Ġdes tin
Ġdes pre
tr ico
Ġac ceso
Ġesc uela
Ġpro pie
Ġqu ot
Ġgus tando
Ġco bra
ca t
Ġson g
Ġva cia
iz an
Ġreal izacion
Ġ4 4
Ġimp lan
Ġ5 00
Ġcam pe
Ġsupon er
Ġcal vo
Ġpoder osos
Ġpal om
Ġher ido
Ġlla me
Ġbus cado
Ġtom ado
Ġbar ry
aa a
Ġins tin
Ġtar da
Ġenter as
Ġfutu ra
Ġpla cer
Ġestado uniden
Ġmos t
Ġrom p
Ġcompar tir
Ġcritic os
Ġescri be
Ġlan zar
Ġepiso dios
mon s
Ġtop icos
mm er
Ġrefle ja
Ġoscar s
Ġfas t
Ġchar les
Ġfur gon
Ġprem io
Ġimpac tante
hh hh
Ġsup por
Ġdescono cido
Ġapre ciar
Ġfamos a
Ġaluc in
Ġfiloso fia
Ġparano ia
Ġquis iera
Ġextrem adamente
Ġcompro bar
Ġcumpl ir
Ġmover se
Ġaga in
Ġdefra uda
Ġparo dia
Ġguante lete
Ġatrap ados
Ġfunda men
Ġgrindel wald
Ġjoa quin
9 3
a x
f al
i ro
m ica
n el
p ando
r al
r ones
u das
v iendo
Ġe g
Ġp y
Ġp ajas
Ġl ond
Ġs top
Ġde le
Ġh il
Ġy u
ta bles
Ġv illa
ci f
Ġse ven
Ġme lan
Ġal co
Ġal turas
Ġre li
am i
ch ada
Ġj en
ad isimo
Ġso lar
Ġw ins
Ġan dar
tan os
ter na
Ġth ing
Ġth ings
Ġcre adores
Ġsal tan
Ġsal iera
Ġr iendo
Ġtra duccion
ur s
Ġbuen isimo
Ġvis ita
Ġim po
Ġk im
Ġar k
Ġhu ida
Ġam p
Ġsobre val
Ġro ber
Ġro cke
Ġjo dio
Ġdis ci
Ġtu viese
Ġsa gas
bo ok
Ġcons um
Ġprinci pi
Ġvo to
oo o
Ġhom bro
Ġtal ia
gue z
Ġfa ke
Ġcer do
Ġponer lo
Ġdeber ias
Ġsalv ando
Ġvie tn
Ġedi ficios
Ġcome tido
Ġdejar lo
Ġtip icos
Ġcla vado
Ġorden es
Ġpie zas
Ġdestru ido
Ġmencion ado
Ġllam aba
Ġapo yo
Ġdescub ierto
Ġpais ajes
Ġgar ras
Ġobje tos
Ġsufic ientes
Ġtrabaj ado
Ġpoli tico
Ġrus h
Ġdefen sa
Ġnarra cion
Ġsome thing
Ġwoo ds
Ġjapones a
Ġhit ler
Ġom g
sh ine
Ġdif icul
Ġcompor tamiento
Ġcel da
Ġsatis fac
Ġutiliz an
Ġtun el
Ġenve je
Ġlic encias
Ġedu cacion
Ġcore ano
fan tas
Ġrodri guez
Ġsinsen tido
Ġgib son
Ġimpec able
Ġpostcre ditos
Ġagrid ulce
Ġvietn am
d ge
Ġa fic
on as
an ti
Ġque mar
Ġh ell
ta to
da mos
ra w
is to
ien da
Ġal tas
Ġal men
Ġre ese
ec om
ch i
Ġcu idad
Ġw eno
Ġesc arla
Ġpro gres
Ġvi vi
Ġr ico
Ġco ca
Ġti tu
Ġbien ven
Ġhan s
Ġra dic
Ġmar gen
Ġmar ty
Ġentre vis
Ġ5 3
Ġsa que
Ġgra tis
Ġna cimiento
Ġdecir te
Ġcab os
Ġ8 4
Ġ6 6
Ġem er
Ġpens amiento
Ġus e
Ġba h
Ġbus can
Ġtran quil
Ġsh ut
Ġsor ry
Ġfi je
Ġwatch men
Ġdifer encias
Ġwh y
Ġ200 3
Ġsalv ado
Ġtir on
Ġclas icos
Ġhabla ba
Ġflo j
Ġcru da
Ġreb us
Ġpreten den
Ġflip ando
Ġtri bu
Ġfre d
Ġros e
Ġdesen cad
Ġanad ido
Ġlis ts
Ġapren di
pir ar
Ġnarra tiva
Ġza pa
Ġinneces ario
Ġdesapare cido
Ġanci ano
Ġdil ema
Ġeng ine
Ġhum il
Ġinfluen cia
Ġsobresal iente
Ġpse udo
Ġsubn ormal
Ġrecons tru
Ġuc m
Ġcort ometraje
Ġfaceh ug
Ġlond res
Ġafic ion
Ġescarla ta
a che
b es
c aba
e za
g orn
i ff
p ana
r eros
s ho
t ue
u x
Ġe f
Ġe ta
Ġe ras
Ġp istas
Ġa way
Ġc lan
Ġm j
Ġn ame
in aria
Ġen te
Ġen lace
Ġun ion
te os
te is
Ġal b
Ġsu puesta
icu los
Ġdes ca
tr y
Ġw ea
Ġw olver
Ġan tagon
Ġac on
Ġdi d
Ġx x
Ġyo ung
Ġte aser
Ġqu icks
Ġtra to
Ġca tas
Ġca ine
Ġca zar
Ġmal vado
Ġcas as
Ġhu mo
Ġcar e
Ġcar ajo
Ġmejor cito
vo ir
Ġro ca
Ġgu mp
Ġpen ny
je a
Ġdo gs
Ġhacer te
Ġgen es
Ġir an
Ġpod rias
igh ts
Ġforma to
Ġli ve
Ġdia man
du ciendo
Ġsub je
Ġbar cos
Ġfantas tica
Ġrar as
Ġdin am
Ġfran cis
Ġata can
Ġflo ta
Ġnar an
Ġcontinu ar
Ġemocion ado
Ġvas o
Ġfel ices
Ġge ts
Ġmete or
Ġinclu yendo
Ġdiver ti
ws ki
Ġwal lace
Ġdirig ido
Ġavan ce
Ġdestro za
Ġcuad ro
war ts
Ġreac ciones
Ġintelig entes
Ġsomb rero
Ġjes us
Ġvic tima
Ġaj us
Ġgal ad
Ġblo od
Ġsentir se
Ġens erio
Ġsacri fic
Ġquin ta
Ġderro tar
Ġconec tar
Ġpublic os
Ġclic he
Ġsun shine
Ġfranco tira
Ġinfer ior
Ġyear s
Ġsuperviv ientes
Ġcame os
Ġoch en
Ġhawke ye
Ġharris on
Ġresiden t
Ġembara zada
Ġine vi
Ġacel er
Ġalejan dro
Ġcrepus culo
Ġgargan ta
Ġcaracteri zacion
Ġresolu cion
Ġtrage dia
Ġlad ron
Ġcotil lard
Ġeliz abeth
0 4
7 8
8 2
9 4
b all
g ues
i almente
t ta
u lado
z can
Ġd us
Ġl or
Ġa zar
Ġc los
un e
Ġn udo
Ġn athan
re ll
Ġb ros
Ġcon ciencia
Ġal icia
Ġpor tman
Ġre se
Ġsu pre
Ġsu yos
im mer
de is
Ġto pe
Ġmu uu
tan e
tan as
Ġpo tente
Ġac tos
ig eno
dad es
Ġesc ala
Ġdi vi
ul ando
Ġpr ensa
Ġhab lado
Ġma fia
Ġtra tado
Ġim g
Ġman dan
Ġcar tas
Ġpe gas
Ġra iz
Ġenc ajar
Ġmo vida
Ġmar cado
Ġpa va
Ġmomen tazo
Ġpare des
Ġven den
li an
Ġmin im
Ġand ando
Ġsegu ia
Ġles b
Ġher ida
tc raw
Ġneces itar
Ġtor tura
Ġtor menta
Ġfam a
Ġder ri
Ġdisfru ta
Ġale ja
Ġ17 59
Ġlan g
Ġdrama tismo
Ġdesp ren
Ġengan o
Ġdesta cable
Ġpreten ci
Ġrecomenda cion
Ġapor tan
Ġconoci dos
Ġmister ios
Ġbill y
Ġdesper dic
Ġrebel s
Ġrepi te
Ġextran os
Ġchor radas
Ġdorm ido
Ġlec cion
Ġwan da
Ġaclar ar
Ġzo d
Ġalcan zar
Ġara gorn
rr rr
Ġvues tro
Ġlimi tes
Ġmito logia
Ġinfil trados
Ġmurph y
Ġoce an
Ġpromo cion
Ġnatal ie
Ġsentimen tal
Ġhacien dose
Ġindepen den
Ġpalom itas
Ġquicks il
Ġcatas tro
Ġgalad riel
0 7
8 3
a to
d illo
f on
g in
h u
o ugh
w ell
x t
y d
Ġp um
Ġd ara
Ġs oso
Ġa aron
Ġc uela
en berg
as is
an as
Ġque ra
Ġt mb
Ġes tro
Ġla gun
Ġh d
Ġen igma
es on
Ġf uc
Ġme j
Ġme tida
Ġg il
Ġo dis
Ġo este
Ġin tim
Ġin tegra
Ġle a
Ġso und
ter m
di ese
Ġas is
Ġve ter
Ġve ase
Ġthe ory
Ġtra tando
ur ney
Ġbas ico
Ġres plan
Ġmis er
Ġmis tica
Ġcar ib
Ġra yo
vi du
Ġmar ia
Ġda to
Ġfor e
Ġpa us
Ġpu zz
Ġor der
Ġreal izado
Ġlu jo
Ġcor tado
Ġne ville
ke t
Ġter ri
Ġverdad eramente
Ġapar entemente
Ġgra bar
Ġinc omo
Ġ8 20
sion es
Ġcan al
Ġbo da
it s
ge d
Ġmor gan
Ġu b
Ġcal avera
Ġba ilar
Ġcontra to
Ġsh y
Ġamb igu
Ġje t
Ġtr in
Ġvolver ia
id ora
Ġmira d
Ġentra das
Ġhos til
ak s
Ġadap tado
Ġfacil idad
Ġexper to
Ġcontinu idad
Ġconsider a
Ġgri tar
Ġsob rena
Ġdescon ec
Ġbro ok
Ġxddddd d
Ġsecre tos
Ġka te
Ġmemor able
Ġindi vidu
Ġpelo tas
Ġpic ado
Ġnecesita ba
Ġsta tham
uri el
Ġacor de
Ġsubl im
Ġwa ter
Ġdesarrolla do
Ġprovo car
Ġpublic idad
Ġaleman es
Ġdespe dida
Ġform ula
Ġescuch ado
Ġdev uel
Ġresuel ve
Ġduen de
Ġretras ado
Ġinver osim
Ġjos eph
Ġreve al
Ġries go
Ġskrull s
Ġcoreo grafias
Ġcorri dor
Ġox igeno
Ġcorr iente
Ġkre e
Ġtranquila mente
Ġhoriz onte
Ġintele c
Ġrocke t
Ġwolver ine
d eces
e k
g or
m elo
p ton
s ing
w ise
Ġl lan
as t
Ġque n
Ġt ales
Ġt rio
Ġla m
Ġn ich
Ġel lio
Ġel ige
ci ble
ci almente
Ġno tado
Ġpor q
am alan
go l
Ġso ciales
qu ia
em e
tar me
tra da
Ġma ul
Ġcre dito
Ġvi tal
Ġve an
Ġpas en
Ġpas ion
se id
Ġti to
Ġti pa
Ġk h
Ġk ick
Ġmal tra
Ġmal ick
Ġrec on
Ġdis tra
iz e
Ġinter camb
Ġ5 9
Ġsuper ar
Ġsa tur
bo dy
Ġcam era
Ġ7 5
Ġ0 8
Ġcal or
Ġpes ima
Ġllev aban
Ġbe orn
Ġins inu
Ġ12 7
Ġanim ada
her e
Ġserie dad
Ġdesa per
Ġemo tivo
Ġclas es
Ġdispar ando
Ġdec adas
Ġben jam
Ġsobra ba
Ġbor de
Ġquedar on
Ġtop ica
Ġdiciendo le
min is
Ġdark seid
Ġwal tz
Ġaco j
Ġsos tiene
Ġbos s
Ġprepar a
Ġconoci da
Ġtremen damente
Ġquitar se
Ġprofundi zar
Ġdur m
Ġataque s
Ġant man
Ġsk in
Ġesperan zas
cis mo
Ġcans ado
Ġresum e
Ġenvi ar
Ġacompan ado
Ġanun cio
Ġagrad ecer
Ġprodu cer
Ġpatr ick
Ġaw es
Ġchun go
Ġjugue tes
Ġxenomor fo
Ġcompu tadora
Ġfeel s
Ġnigh tcraw
Ġled ger
Ġea ture
Ġnostal gia
Ġnub es
Ġalco hol
Ġalmen os
Ġinevi table
Ġbenjam in
Ġnightcraw ler
f es
i tor
k as
r ing
z i
Ġs tri
Ġa ro
Ġa puesta
Ġc m
Ġh all
Ġen ch
Ġno v
Ġf ru
Ġf ut
Ġf bi
la zo
Ġal iados
ro c
Ġre mem
Ġmu to
Ġmu tante
Ġdel ic
ti p
Ġmas cul
Ġle tras
Ġdes cif
Ġw ick
Ġw ell
Ġesc as
Ġex cep
Ġma king
Ġas c
Ġqu itas
Ġco cina
Ġca zador
Ġmal l
Ġch ula
Ġcos tum
Ġres ur
vo y
Ġro ba
Ġmo un
Ġmar ch
Ġfor ro
Ġfor zada
Ġplan a
Ġplan ta
Ġdu re
Ġdo b
Ġap es
li p
li ta
li to
Ġsa y
ag ue
Ġval ido
Ġtom ando
Ġz immer
Ġtras la
Ġsub mar
Ġsh ip
Ġins pi
Ġestu viese
Ġtrans icion
Ġneces itas
Ġoriginal idad
Ġmer cu
Ġta tu
Ġol vido
vid ual
Ġcap s
Ġcap tur
Ġreg al
Ġreg ul
Ġlan d
Ġpart iendo
Ġves tido
Ġesca pan
Ġfli par
Ġimpresion antes
Ġveng ador
Ġreci ente
Ġapo y
Ġengan a
Ġpais es
Ġwas hing
Ġcris to
Ġ199 9
Ġdesapar ecer
Ġrefle jo
Ġsur ge
Ġindi vidual
Ġmanten ido
Ġagra dable
Ġcho ca
Ġprem iere
Ġgraci osa
Ġspo ile
Ġescon de
Ġrum bo
Ġstan ley
Ġmagni fico
Ġmach ina
Ġrode a
Ġcadaver es
Ġperdi dos
Ġvues tros
Ġconsecuen cia
Ġgam es
Ġreve lacion
Ġsher iff
Ġglo bal
Ġdeten er
cra ft
Ġsuperfic ie
Ġsuperviv iente
Ġpsy cho
Ġserv icio
Ġblock buster
Ġnovel as
Ġkir k
Ġtiri ri
Ġimbe cil
Ġjur aria
Ġaprendi z
Ġquicksil ver
Ġodis ea
Ġresplan dor
Ġpuzz le
Ġquen tin
b ran
b ras
c s
k m
s ura
t te
u o
Ġ ues
Ġd l
Ġs la
Ġs le
Ġde por
Ġy ea
Ġv ice
Ġf x
Ġb le
Ġb adas
is i
Ġse as
Ġse arch
Ġme dic
Ġme mento
Ġper pe
Ġre e
po la
Ġdes can
tar y
Ġth umb
ran o
Ġcre ces
Ġsal go
tas en
Ġsin te
Ġk ry
Ġres tos
Ġi x
Ġenc en
Ġab e
Ġab ren
Ġmar co
Ġmar ciales
Ġda vis
Ġdon ald
Ġven eno
Ġne bula
Ġter ra
Ġap lic
li te
Ġpos esion
Ġcab le
Ġ7 6
Ġpens ais
Ġri val
Ġinf orm
illa do
Ġ9 2
ff alo
Ġz e
na il
Ġpi diendo
Ġad ver
rio us
Ġau d
cep tion
Ġdan ce
Ġdeb ilidad
Ġsalv ajes
Ġgi f
Ġproduc tores
Ġfli pa
Ġhic ieran
Ġtrata ba
Ġrefer ente
Ġsex to
Ġambien tado
Ġpele ando
Ġgar y
Ġsuce der
Ġplante ado
Ġdestro yer
Ġrecono ce
Ġnew t
Ġmul titud
Ġmister ioso
Ġgraci osos
Ġsp in
Ġchu ache
Ġjul io
Ġbio logo
Ġama zon
Ġaguan ta
Ġvolv era
Ġcola bor
Ġreun ion
Ġrele van
Ġrele vante
Ġoblig ado
Ġvec ina
Ġsens ible
Ġdesesper acion
Ġfija te
Ġproductor a
Ġpros titu
Ġcoleccion ista
Ġusu ario
Ġayud ante
Ġoscur os
Ġsamura i
Ġstormtrooper s
Ġbran d
Ġreser voir
Ġrevie w
Ġesclavi tud
Ġocta vo
Ġsuppor ting
Ġshy amalan
Ġdesaper ci
Ġmercu rio
b ida
e cia
e ke
i ficacion
k r
p ta
r um
s y
Ġp ido
Ġp ian
Ġs per
Ġa ou
Ġc n
Ġm era
Ġes tes
Ġla bor
ta ge
Ġen re
Ġel ron
Ġv ieron
Ġv uela
Ġb ras
Ġb ell
Ġg ul
lo gos
Ġj ol
Ġso cio
Ġdes h
Ġdes van
Ġw el
Ġw right
Ġw mv
Ġan alo
Ġser vir
Ġas im
Ġcre ibles
ib al
Ġpas illo
Ġhu x
Ġhu go
Ġcar ece
Ġprim a
Ġprim o
Ġpre viamente
Ġhan ks
Ġmar e
Ġmar zo
pa ce
Ġentre tuvo
pues tos
Ġos t
qui as
Ġsuper ado
Ġne u
Ġne ed
Ġap unto
Ġpos ters
Ġgra tamente
Ġdar te
Ġ6 9
Ġbo ok
Ġllev as
Ġli ar
Ġdirector a
Ġbru jas
Ġcomic os
Ġej em
Ġwar craft
Ġdan dose
Ġabs tra
Ġcapi tal
Ġref ug
Ġvista zo
Ġcin tas
Ġta uriel
Ġtor pe
Ġ200 2
Ġencuen tre
Ġmedio c
Ġguer ras
Ġanim o
Ġpla ce
bb y
Ġfu ga
Ġlugar es
Ġemo tiva
Ġcuer da
ins ki
Ġcole gio
Ġinfin itamente
Ġparecer ia
Ġengan chado
Ġbaj ando
Ġdefin icion
Ġsobrevi vido
Ġfues en
Ġtex to
Ġintro duce
Ġdestro zar
Ġ198 0
Ġley es
war t
iv idad
Ġavis ar
Ġconcre tamente
Ġgem elos
Ġprox imo
cis ta
Ġlec tura
Ġfab rica
Ġarmad uras
Ġpate tica
Ġestupi da
Ġexces ivo
Ġstu dios
Ġsel ma
Ġazul es
Ġges tos
Ġinneces aria
Ġdisfra zado
Ġcamp ana
Ġnav idad
Ġbib lio
Ġperten ece
Ġrecomendar ia
Ġperfor med
Ġestuv ieran
Ġwhe don
heim er
Ġunic orn
Ġreli quias
Ġawes ome
Ġwashing ton
Ġbadas s
g ing
p ren
Ġd uras
Ġde ton
Ġde pp
Ġque riendo
un da
in ales
ta ban
Ġv iera
Ġf enix
Ġme tes
Ġcon cil
ien ce
Ġcom es
Ġcom ando
Ġper dio
Ġre per
Ġsu l
le o
ch ie
ti g
Ġle to
ad y
qu iere
Ġw est
ter as
Ġpro hib
Ġma gos
dos o
ran tes
Ġr ica
Ġpas aron
Ġca te
Ġca cho
at icos
Ġhu yendo
pi t
Ġhan d
Ġpe dro
Ġab uso
Ġdej ara
Ġor b
Ġsuper poder
fic as
fic amente
Ġcomp ra
Ġcons ciencia
Ġcons truccion
Ġir ia
Ġhaber le
Ġ7 9
Ġcan tando
Ġpoder osa
Ġllev ara
Ġpal mar
Ġbe h
Ġmay o
Ġban g
Ġban deras
gen to
Ġcol mo
Ġcabe zas
Ġpan dora
Ġopin ar
Ġpregun tando
Ġano ther
Ġfantas madas
Ġat om
Ġcritic s
Ġpier da
Ġfis h
Ġabsur dos
gi dos
Ġste wart
Ġgol lum
Ġfe b
Ġemocion ante
Ġru ffalo
Ġarm ario
Ġfas ti
Ġchar l
Ġayu dan
Ġpul po
Ġsimp lon
Ġcumple anos
Ġamerican ada
Ġmoles to
Ġdescar ga
Ġangel ina
Ġacor dar
Ġtriste za
Ġrecuper a
Ġalma cen
Ġdestruc tor
Ġvalor ar
Ġquin to
Ġapocal yp
Ġzo dia
Ġarreg la
Ġpreocu p
Ġmanip ular
Ġvig il
Ġlech es
Ġvues tras
Ġencontra mos
Ġfum ada
Ġtdk r
Ġdiri ge
Ġartis tica
Ġincoher encias
Ġmontan as
Ġconduc tor
Ġanton io
Ġasal to
Ġacce der
Ġaprox im
Ġdoug las
Ġromp iendo
Ġprincipi os
Ġnaran ja
c adas
g warts
i vas
n ic
o p
p lic
w olf
Ġe v
Ġp fff
Ġl ie
Ġs ic
ue los
Ġa cido
Ġc emen
en es
en tos
Ġt ry
Ġla ter
or i
or row
Ġv om
Ġno ches
Ġb ry
Ġse cu
Ġcon ge
am es
Ġin ception
Ġdel icia
ti ta
ti era
Ġesta bamos
Ġan na
Ġpo tato
Ġac trices
tar an
Ġpro puesta
Ġas sas
Ġte a
Ġpas t
Ġhe art
Ġca u
Ġk m
Ġmejor ado
Ġsobre ac
Ġpre vio
Ġjo ya
Ġdej aba
Ġdis puesto
Ġdis cul
Ġpen oso
Ġpun e
Ġ4 00
Ġesper emos
Ġven cer
tic es
pon er
gra mas
li x
Ġpos te
Ġcons erv
Ġop en
Ġop ina
ies en
Ġsupon ia
Ġcomen tando
Ġden zel
Ġep icas
Ġon ce
Ġju g
Ġfi jar
Ġsan to
Ġconf ianza
Ġdeb io
Ġfutu ras
Ġmos que
Ġcompar ado
Ġat ta
Ġrecuer dan
Ġconven cional
Ġben icio
Ġbu taca
Ġdesp la
Ġesca pado
Ġrapi damente
Ġsho ck
Ġaten to
min u
Ġpers igu
fa ce
Ġjue gan
Ġsuce den
Ġavan zada
Ġgre y
Ġingles a
Ġensen ando
Ġras gos
ind ler
Ġcasual mente
Ġelec tro
Ġrub io
Ġdur os
Ġdesc om
Ġaman da
Ġapare cido
Ġabandon ado
Ġmono logo
Ġacom pana
Ġtermin an
Ġespal das
Ġtransfor macion
Ġtitan es
Ġrue da
Ġgeo logo
Ġretra to
Ġusu arios
Ġsuje to
Ġaleg ria
Ġandre w
Ġsinies tro
Ġsn atch
Ġsara h
Ġlegen dar
Ġplata for
Ġindifer ente
Ġhumil de
Ġfut bol
Ġelron d
Ġunicorn io
a o
c ore
c ables
f ren
i don
m it
r ien
s son
t ten
v era
w er
z u
Ġa dios
Ġa cier
Ġc ry
Ġm aj
en co
Ġy el
Ġv on
Ġun ido
da da
Ġb ron
Ġme d
Ġme an
Ġme tio
Ġha cemos
Ġlo gro
Ġpar ale
Ġpel u
am p
lo ws
de za
Ġcu rar
Ġac e
Ġac tiva
Ġac ento
tu almente
tor o
Ġser e
Ġpro bar
Ġx k
gu a
Ġsal as
Ġqu ite
Ġve gas
Ġtra e
Ġtra ck
Ġco ck
Ġca o
Ġca ga
Ġca yo
Ġk rip
Ġmis iles
Ġmejor ar
Ġro bb
Ġro dando
Ġhan eke
Ġpe pper
Ġra pace
Ġdis tribu
Ġmomen t
Ġplan tas
Ġdeci dio
Ġdeci dir
Ġpos teriores
Ġclar as
Ġ8 6
Ġem ily
Ġcan to
Ġ0 9
Ġcono ces
gue is
Ġher idas
Ġgan an
Ġesp len
Ġcuan tico
Ġjus tice
Ġestu dios
Ġtar je
Ġfi la
Ġsan d
Ġargumen tales
Ġsim ili
Ġada ms
Ġllegar a
Ġedi tado
Ġcen trado
Ġale gra
for tun
Ġatra er
Ġbra ve
Ġrobo cop
Ġolvi daba
Ġdestru yendo
Ġhue co
Ġmedi vh
cie la
Ġaf ron
Ġexplicar lo
Ġdescub ri
Ġinclu ye
Ġmarav illas
Ġobje tivos
Ġhech izo
Ġdesapar icion
Ġmur al
Ġtrabaj os
Ġmemor ias
Ġdestro zado
Ġcir u
Ġconvier ten
Ġmatan za
Ġsw an
Ġapren de
Ġviv ientes
Ġjes uc
Ġvic toria
Ġencar gado
Ġaparicion es
Ġapare cia
Ġtim es
Ġcra ig
Ġgrand isima
Ġdinosa urio
Ġaprovech ando
Ġtelef il
Ġreplic antes
Ġsch indler
Ġdep rim
Ġinv ad
Ġmane jar
Ġcumpl ido
Ġgam ora
Ġtuv ieran
Ġblog spo
Ġacuer da
Ġkil ome
Ġhy dra
Ġjor dan
Ġadecu ado
Ġspar row
Ġmich elle
Ġpuneta zo
Ġou ts
Ġsurre alista
Ġinvol uc
Ġtok yo
Ġdecor ados
Ġincongr uen
Ġfurgon eta
Ġalucin ante
Ġpenny wise
Ġfrancotira dor
Ġcarib e
Ġyea h
Ġthumb nail
Ġparale la
Ġkrip ton
Ġblogspo t
e b
g ul
j ec
r in
Ġp iz
Ġp ffff
Ġp ille
Ġc w
Ġc ica
Ġde talla
Ġm ca
Ġla v
Ġen e
Ġf ul
Ġme gan
Ġcon e
Ġcon ce
Ġal mo
Ġpar to
Ġcom an
Ġre tro
Ġpel ir
Ġsi de
Ġsu ger
Ġin dia
ti es
ti tos
Ġle es
Ġw ing
Ġpo tencia
Ġver me
Ġac us
Ġth ese
Ġex or
Ġpro pa
Ġma tices
Ġas iento
Ġx eno
Ġsal ian
Ġsal ud
der se
man o
tes is
se y
Ġco ti
Ġca gadas
Ġk ara
Ġk iller
Ġk ane
Ġch ur
Ġch inos
Ġres pirar
Ġmen ti
Ġmen ores
Ġaun q
Ġdic i
Ġro ger
Ġenc u
vi deo
Ġdis cre
Ġpa to
Ġhistor ico
Ġne tf
Ġsa quen
Ġapar iencia
Ġob via
Ġclar os
Ġcab ana
Ġ8 5
Ġcan tan
Ġcan ones
Ġcan dida
Ġus er
Ġmor ale
Ġq e
Ġespeci es
Ġllev arse
Ġval le
Ġher ram
Ġrep el
Ġtenia mos
Ġban era
Ġagu as
osa wa
Ġhaya is
Ġmer ecen
Ġlar gas
Ġlar gos
Ġnom bra
Ġencon tro
Ġta kes
Ġinterpre to
Ġempie zo
Ġenter os
Ġ15 0
Ġfutu ros
Ġuniver sal
Ġases inar
Ġherman as
Ġllegar on
Ġfu rious
Ġja co
Ġciudad ano
ajaj ajaj
Ġlog rar
Ġtec ho
Ġbu tton
Ġflo tando
Ġpersonal idades
Ġgru pos
Ġcontinu amente
Ġinven to
Ġejer c
Ġsuel tan
Ġsex ta
Ġsuce dio
Ġdirig ir
Ġintro duc
ex ual
Ġ198 5
Ġtransmi tido
Ġsta cy
Ġech ando
Ġgas ol
Ġconc lu
Ġmoles tado
Ġpec a
Ġleon idas
Ġdefini tivamente
Ġreco ge
Ġreco ger
Ġtramp as
Ġorgan izacion
Ġdesco lo
Ġgilipol lez
Ġlagrim a
Ġlagrim illa
Ġlig eramente
Ġestupi das
Ġarran car
Ġgrab ada
Ġcop pola
Ġconvir tio
Ġdedic ado
Ġlocal izaciones
Ġnervi os
Ġcontras te
Ġdies el
Ġevan s
Ġjocke y
Ġescope ta
Ġrequi em
Ġmone da
Ġvag ab
trans por
Ġtib uron
Ġester eo
Ġmanif es
Ġnovi embre
Ġcampe on
Ġfundamen tal
Ġimpo tencia
Ġestro pe
Ġlagun as
Ġ820 3
Ġkry pton
Ġassas s
Ġpelir ro
Ġnetf lix
d f
d ig
f in
f ado
f ilo
i k
j j
k b
m ico
n ia
r aron
t ista
z s
z aba
Ġe cu
Ġp iano
Ġl ian
Ġc le
Ġde pre
on ica
Ġt il
Ġes qui
Ġh ilar
Ġn asa
in adas
Ġen tier
Ġel enco
ra el
ra dor
Ġf ia
Ġb igo
Ġcon vin
Ġha tha
Ġal ianza
Ġcom ido
Ġpor ta
Ġsu yas
de vil
Ġcu be
ri os
Ġle tal
Ġle vel
Ġle ft
Ġj ard
Ġw ee
tar te
Ġex o
Ġpro por
Ġas h
bre s
Ġsal ieron
Ġpas os
Ġhe at
par se
Ġvis tos
Ġmal v
Ġbas to
Ġpue b
Ġman n
Ġres pira
Ġhu ye
Ġpe ar
Ġfor os
Ġfor ta
Ġpa gado
Ġpa tron
ru x
Ġor co
Ġpen so
Ġ5 5
ante d
Ġne ar
Ġter cio
Ġgran ada
Ġgran di
Ġdar les
Ġmon ey
Ġ6 8
Ġcan sa
Ġbo o
Ġvol umen
Ġmor ales
Ġmor ira
che tt
Ġu k
Ġhom ecom
Ġcal amar
Ġemp al
Ġpal a
Ġcomen zar
Ġcomen taba
Ġba te
Ġtom e
Ġbar do
Ġban dos
Ġsh ado
Ġsh ort
Ġsan ta
Ġcer rada
Ġmatar los
tur b
Ġfamil y
Ġdocumen tales
Ġvie w
Ġactu an
for d
Ġlan tern
Ġnormal ita
Ġacer carse
Ġfuncion ar
Ġolvi dable
Ġadap taciones
Ġfli po
Ġtrata miento
Ġtele vis
Ġproyec tos
Ġpers igue
Ġdescub rimiento
Ġsacar le
Ġdark o
Ġdark av
Ġnor th
Ġmur ciela
Ġarre pen
Ġimper ial
Ġentren ado
Ġsir ven
Ġcomba tes
Ġroman tico
Ġking s
Ġtw ist
Ġquitar le
Ġspo ck
Ġreir se
Ġderro ta
Ġpoca hon
Ġvelo ci
Ġconcl usiones
Ġhabi tantes
Ġhelicop teros
Ġfab ric
Ġresum ir
Ġplas tico
Ġsar gento
Ġeas y
Ġocul ta
Ġfamiliar es
Ġsel va
Ġprision eros
Ġdescri bir
Ġcrimen es
Ġsher lock
Ġeuro pe
Ġaw ak
Ġmodi fic
ppen wolf
Ġnervi oso
Ġnig rom
Ġdesin f
Ġoscur as
Ġidio ta
Ġacostumbra do
Ġfro do
Ġespar tanos
Ġgangs ter
Ġai res
Ġenferm era
Ġdoes n
Ġaprov echa
Ġjulian ne
Ġcateg oria
Ġcredi bilidad
Ġdare devil
cat cher
Ġvilla ge
Ġeta pa
Ġfuc king
Ġjesuc risto
Ġkilome tros
Ġdici embre
Ġmorale ja
Ġhatha way
b l
h d
r ista
u lo
u ch
y eron
z ing
Ġp illan
Ġd iera
Ġl lo
Ġc ante
er va
as en
Ġn an
Ġen co
Ġme tidos
Ġcon mo
Ġal p
Ġal one
Ġlo t
Ġo cho
Ġcom ing
Ġre h
Ġsu mer
Ġto co
ti po
Ġle w
Ġj hon
qu ista
Ġan ne
Ġver los
tar la
aj j
Ġex am
ul iar
Ġma che
gu as
Ġmuch isimos
Ġsin gular
Ġco un
Ġca ca
Ġim pi
Ġim ax
ie ta
ac on
Ġcos illa
Ġcar reras
Ġam pl
Ġmar car
Ġdeci d
Ġlu c
Ġpon dre
Ġhistor y
Ġesper abas
Ġven ti
Ġsa te
Ġ6 4
Ġho gwarts
it ter
Ġri e
Ġinten sidad
ris e
Ġoc t
Ġimag inado
gue ra
Ġsac ada
Ġep icidad
Ġbar cel
Ġsh in
Ġfun ny
Ġins er
Ġespec ula
duc k
Ġpan da
Ġmer ce
gro und
ee p
Ġcap ullo
Ġtend remos
Ġreg resa
Ġlim pia
Ġdesa f
Ġedi tar
Ġmedia vida
Ġdisfru table
Ġvio lacion
Ġescri ba
Ġgenial idad
Ġbu ah
Ġbu zz
Ġgol den
Ġfe br
Ġreci entemente
ss ss
Ġaf rica
Ġconsider able
Ġsuel tos
Ġinclu ida
Ġblan chett
Ġmax ima
Ġcris ti
Ġ199 4
Ġactual idad
Ġhel p
Ġapor tar
Ġcha p
Ġtur ner
Ġespanol es
Ġprepar ando
Ġentren ar
Ġdr ones
Ġpec uliar
Ġsiste mas
Ġvic tor
Ġfar o
Ġcoinci den
Ġacor daba
Ġdefini tivo
Ġint ente
Ġextran aria
Ġcarisma tico
Ġsilen ce
Ġquin n
Ġescal era
Ġstan d
Ġaleman ia
Ġdem ues
Ġirre al
Ġirre gular
Ġmoder ador
Ġparal elo
Ġalar gar
eeee eeee
Ġaus tral
Ġresuel to
Ġconvir tiendo
Ġresuci ta
Ġmale tin
Ġtitan ic
Ġextrem is
Ġfija is
Ġmere cido
Ġjos h
Ġocu pa
Ġestudi ar
Ġcarcaj adas
Ġbara to
Ġphil ip
Ġprotec cion
nis s
Ġbun ker
Ġjae ger
Ġconse jo
Ġtig re
Ġcoron el
Ġfenomen o
Ġarrep iento
Ġentrevis tas
Ġquera is
Ġaro und
Ġbeh ind
Ġpersigu iendo
Ġhomecom ing
Ġdarkav m
Ġpocahon tas
6 3
c c
f g
f is
n ar
t ine
u cho
Ġe pi
Ġp ff
Ġd amos
Ġs ientes
Ġa er
Ġa tado
Ġc ras
en ado
que ro
on os
ar ri
ar ca
Ġque en
Ġel m
Ġel ite
Ġv ine
es co
Ġf us
Ġme todo
Ġcon vi
Ġcon lle
Ġha haha
Ġre ed
Ġsi gan
le ces
im p
de a
Ġto cando
Ġin do
Ġin ta
Ġpelicu l
Ġmu da
ti ones
Ġcu i
Ġmas illas
tr ara
Ġpro ducida
Ġcre ada
Ġcre yendo
Ġsal udo
Ġco pon
Ġvis itar
Ġim pa
Ġk am
Ġk ent
Ġman son
Ġpe la
Ġpe tar
Ġpe gue
Ġasi que
Ġda wn
Ġpun ado
Ġlu is
Ġhacer nos
Ġinter ven
Ġinter min
Ġof fic
tic ismo
Ġtu ya
Ġacab aria
Ġinc en
Ġcons te
car as
cen as
Ġ7 20
Ġvo la
Ġpod ran
Ġpens amientos
Ġcono ciendo
Ġhom os
Ġprotagon izada
Ġgan adores
Ġhar e
Ġad m
Ġsub tra
Ġgo ku
ly n
Ġju go
Ġpan ico
Ġll ora
Ġsorp resas
Ġmil en
Ġespecta tivas
Ġnota ba
Ġanim ado
Ġases inado
Ġbes tias
Ġcen sura
Ġder iva
ech as
Ġ17 77
Ġbra in
Ġmie dos
Ġste ppenwolf
Ġnar iz
Ġmencion an
Ġinic ios
Ġcues tiones
Ġcontinu o
Ġinven ta
Ġconsider ar
Ġsuel to
Ġav iones
Ġapro bado
Ġenfren tan
Ġentien da
Ġapren dido
Ġdisfrutar la
Ġbol as
Ġextran as
tom a
Ġama zing
Ġlec tor
Ġprote gido
Ġhabi tuales
Ġfox catcher
Ġza ck
Ġfle chas
Ġjar ed
Ġind ign
Ġelim inar
Ġthre e
Ġinsul to
Ġlia m
Ġviolen to
Ġfren e
Ġmere cia
Ġego ista
Ġlimi tado
Ġmac ab
Ġmuri era
Ġkur osawa
Ġroy ale
Ġsuperfic ial
Ġaver igu
Ġexclus ivamente
Ġnorte amer
Ġtos ton
Ġgag s
Ġcachon deo
Ġple ase
Ġcrow e
Ġaplaud ir
Ġapete ce
Ġkat niss
Ġacon se
Ġpian ista
Ġjard in
Ġveloci rap
Ġnigrom ante
Ġbarcel ona
b il
p ul
u dar
v y
v ich
w y
z am
Ġe re
Ġs ni
Ġc is
Ġh ones
Ġn ec
Ġn ula
Ġn acer
Ġel fa
Ġun en
to wn
Ġse em
Ġme tral
il an
Ġg las
Ġal as
Ġal mas
Ġre ver
Ġre mar
le tas
Ġto can
Ġdel i
ti e
ti z
Ġdes ar
Ġver an
Ġver gon
di t
ul son
ul los
Ġcre aron
Ġten e
Ġr ing
ur ar
Ġco h
Ġca gas
mo vil
Ġson ado
Ġk han
Ġres al
Ġi an
Ġcar ro
lar es
pi as
Ġsen cil
Ġpre vis
Ġra b
Ġmo tos
Ġmar ines
Ġfor zadas
Ġpa ga
Ġgu in
Ġap ell
Ġcab rones
Ġ8 8
Ġ6 2
Ġho pe
Ġho gar
Ġcan a
Ġcan tar
Ġinf ra
Ġ9 5
Ġu u
Ġllev amos
Ġval ores
Ġbe tw
Ġgan ando
Ġtom orrow
Ġesp adas
Ġbru ck
Ġpi pa
Ġad ele
Ġsub iendo
Ġsh an
Ġcol le
Ġputa da
Ġje fa
Ġrecor dad
Ġconf usa
Ġdra cula
Ġpan tera
Ġjun tas
Ġcomple ja
Ġresul tar
Ġpla za
Ġfu imos
Ġaven ger
Ġcompar tido
Ġcome dias
Ġiron ia
Ġclas s
Ġcuer vo
Ġatra co
ll ando
Ġacer can
Ġcla v
Ġste el
Ġpie za
Ġga fa
Ġmons ter
Ġfel ic
Ġutil izado
Ġgri ta
Ġacep to
Ġfre ighter
Ġ198 7
Ġcomba tir
Ġph as
Ġtw itter
Ġprox imas
Ġescon dido
Ġdesc abel
Ġestren ado
sel f
Ġconstru ido
Ġdiscur s
Ġ300 0
Ġalcan ce
Ġjapones es
Ġsepar ado
Ġsar uman
Ġmate ma
uuuu uuuu
Ġconvir tiendose
Ġapa ga
Ġreflexion ar
Ġagar ra
Ġkur t
Ġrue das
Ġpsy duck
Ġoch enta
Ġcoreo grafia
Ġinci dente
Ġempi re
Ġregis tro
Ġlun es
Ġzor ra
Ġestra te
Ġinquie tante
Ġxddddddd d
Ġestupen da
Ġaki ra
Ġyon ki
Ġjuven tud
Ġark ham
Ġinverosim il
Ġremem ber
Ġresur rec
Ġconcil io
Ġapocalyp se
Ġatta ck
Ġmca voy
Ġmenti ras
Ġbetw een
a z
a zos
f u
f el
f le
g ica
i ve
m ando
r ue
t x
t les
u th
u ge
Ġ um
Ġe c
Ġd ieran
Ġd ale
Ġde ep
Ġque jar
Ġt umb
Ġes en
Ġh us
ta mos
Ġen de
Ġen ero
Ġen tidad
Ġv hs
es a
Ġf usion
Ġb is
Ġse d
Ġse pas
Ġme ch
Ġcon v
el f
ien das
Ġlo ck
Ġo w
Ġcom pon
Ġper cepcion
Ġto d
Ġin dis
ti ful
Ġle ague
ad ron
Ġdes mon
Ġmi ya
co lo
tor s
Ġhab las
Ġcre as
Ġcre ed
gu r
Ġte j
Ġte en
Ġtra ca
Ġco gen
Ġson aba
Ġim pe
Ġk el
Ġar gen
Ġva ci
Ġcar gas
Ġsab ra
Ġpre dic
Ġdej aria
Ġentre ver
Ġ10 1
Ġpun o
Ġven dido
Ġimp ul
Ġsuper mer
Ġfal lar
Ġap asion
Ġgra ta
Ġacab ando
ag os
Ġclar isimo
Ġcam inando
Ġvo tacion
Ġbo ton
it z
Ġri ver
Ġoc ci
orm ales
Ġpes imo
Ġvar iedad
Ġval encia
Ġbe au
Ġsac aron
Ġz ero
Ġterm inos
Ġgener os
Ġsub en
Ġbar ra
Ġbar ca
Ġmay us
Ġgo es
Ġsh ia
Ġju ro
Ġmue ro
Ġconf uso
Ġperfec tos
Ġponer me
Ġdeb es
Ġenci er
ee e
Ġvia jan
Ġreg ular
itar io
Ġenf ada
Ġgor dos
Ġsabia mos
ll s
Ġabur rir
Ġacer tada
Ġben ed
Ġbu ff
Ġdecepcion a
Ġcole c
Ġtem o
Ġencontrar se
Ġinven tan
he y
Ġbr us
Ġsuic ide
Ġgir ar
Ġ199 8
Ġnor mas
Ġtes tigo
Ġwal k
Ġbal ance
Ġsigni fic
Ġros s
Ġiden ti
Ġdragon es
Ġhal la
Ġconoci mientos
Ġrev ien
Ġapun te
Ġnie ga
Ġdam me
Ġpud ieron
Ġblo que
Ġcompren do
Ġcrim inales
Ġpris on
Ġllamar lo
Ġchor ra
Ġpref iere
Ġapre cia
Ġadul ta
Ġfab ula
Ġirre le
Ġparal el
Ġestupi dez
Ġahor rar
Ġarran ca
Ġgh ul
Ġperio dico
Ġino cencia
Ġcompor ta
Ġresuci tar
Ġutiliz ando
Ġalex ander
Ġdesgra ci
Ġmiem bro
Ġfres co
Ġcolon ia
Ġsober bia
Ġhable mos
Ġxenomor fos
Ġdefec tos
Ġgratu ita
Ġreen cuen
Ġoptim us
Ġmultip les
Ġupon go
Ġlevi tt
Ġperiod ista
Ġradia cion
aut y
Ġobten er
Ġcobar de
Ġestadouniden se
Ġpy m
Ġmoun tain
Ġrelevan cia
Ġrefug io
Ġejerc icio
Ġalp ha
Ġfebr ero
Ġapell ido
Ġbruck heimer
Ġphas ma
m is
u y
w here
Ġ icon
Ġe ight
Ġp it
Ġs as
Ġs qu
Ġs ys
Ġde men
Ġm p
Ġla pi
Ġla tino
or den
Ġh ib
do var
Ġn on
in an
Ġen segu
es ta
Ġf uentes
Ġcon ner
Ġcon duce
Ġha cha
Ġlo go
Ġre es
Ġre van
Ġin teg
Ġin arri
ti zar
ti zen
Ġso fa
Ġdes em
Ġan om
Ġan ado
Ġpo lan
Ġver tigo
Ġac t
Ġac re
Ġdi jera
Ġcre ido
gu lo
Ġsal dria
Ġve ian
Ġr eno
Ġgus ten
Ġpas eo
Ġhe la
za ki
Ġti re
Ġca v
par a
Ġk ili
Ġch ip
Ġman y
Ġmen tir
Ġpre ce
Ġmar ie
iz os
Ġpa gan
th y
dd en
Ġexp la
Ġreal istas
Ġimp on
tic ion
Ġsuper s
Ġsa id
fic iente
Ġpos ee
Ġpareci dos
Ġacab aba
Ġcons ul
Ġmon tada
Ġcam is
Ġcam pos
car r
Ġsegu idores
Ġbo om
Ġpens amos
Ġ9 7
Ġfan boy
Ġbe auty
Ġhar rel
Ġesp ia
Ġgo ber
Ġhor roc
Ġinteres ado
Ġmega video
Ġtar dado
Ġfi j
Ġconf usion
Ġtr ono
Ġlar g
Ġmus t
Ġol ia
Ġjun io
Ġsim mons
Ġbla ke
Ġfutu re
Ġuniver s
Ġpla gueis
Ġfoto graf
Ġvie jas
Ġactu almente
Ġpensar lo
Ġmag nol
Ġescri biendo
Ġatra pa
Ġpreci pi
Ġmir as
Ġga tos
Ġtele transpor
he art
fo x
Ġcur ro
Ġgar ra
Ġllor o
Ġnor ris
Ġchav ala
Ġmur der
Ġsocie ty
Ġsecre t
Ġcha tar
Ġcho que
Ġrus ia
Ġrev uel
Ġinfec ta
pro duccion
Ġ197 9
Ġabo gado
Ġnarra dor
Ġvin culo
Ġpol las
Ġpris a
Ġapare cio
Ġapare ciendo
Ġpl eno
Ġron an
Ġhun t
Ġkill ing
Ġencer rados
Ġpreocu pa
Ġofre cer
Ġgrab ado
Ġfrances a
Ġalterna tiva
Ġdescri be
Ġbib lia
Ġital ia
Ġasus ta
Ġjugue te
Ġhues o
Ġfemen ina
Ġgon z
Ġlou ise
Ġaudio vis
Ġimpres cindible
Ġmom ia
Ġelab or
Ġsecues tro
Ġbombar de
Ġdespier tan
Ġmex ico
Ġcohe te
Ġfascin ante
Ġdele ted
Ġhil os
sho t
Ġdesca fe
Ġantagon ista
Ġsobrena tural
Ġintelec tual
Ġjol ie
Ġzodia c
Ġbry an
Ġalmo dovar
Ġhomos exual
Ġgafa pas
Ġsupermer cado
Ġsys tem
Ġensegu ida
Ġinarri tu
Ġharrel son
Ġhorroc rux
c m
d imiento
e la
i tivo
o us
q q
u ve
Ġp am
Ġl ando
Ġc ro
Ġm illa
ar nos
Ġt uer
re y
Ġel ig
Ġno psis
Ġb las
Ġb aje
Ġb rie
Ġse al
el sen
ia c
ia da
Ġg ian
Ġg ano
Ġcom ica
Ġper fil
Ġre mon
Ġsu cio
Ġin yec
ti eron
Ġle jano
Ġj l
Ġj ac
Ġdes vela
Ġw olf
Ġ2 60
aj os
Ġfin de
Ġmi re
Ġmi res
tor ios
per s
Ġsal udos
Ġr ena
Ġr iendose
Ġpas tillas
Ġtra gico
Ġco je
Ġco ja
Ġco ulson
at ic
Ġman tienen
Ġcos taba
Ġva gon
Ġam el
lar se
Ġro dadas
Ġsen se
Ġpe do
Ġra ta
Ġdis tancias
ing er
Ġpa ge
Ġpu diese
Ġor eja
Ġexp osicion
Ġdu rado
Ġhacer me
Ġcor por
Ġsuper iores
Ġfal l
Ġap pe
li dos
Ġmuer an
Ġsa tan
Ġapar ecera
Ġna h
Ġcons is
Ġmon te
Ġ7 3
Ġ9 1
Ġ9 3
Ġcal en
Ġcal la
Ġval ida
Ġpal e
Ġbus cas
Ġestar an
Ġestar ian
ros t
Ġsub ido
ker s
Ġbar r
Ġban das
Ġestu dia
Ġfi del
Ġdra co
Ġmatar le
con a
Ġta p
Ġta y
Ġsol tando
Ġtor res
Ġsim b
Ġencuen tras
ura do
Ġentender lo
Ġcompar to
Ġcritic ando
Ġmag ic
Ġmeter le
Ġclas icas
Ġatra par
Ġguar dar
Ġhero ina
Ġdec ad
Ġconven cio
Ġcla ves
Ġdistin gu
Ġrecomen dado
log icas
log icamente
Ġdestru yen
Ġcru deza
Ġbor rar
Ġresulta dos
Ġconten t
Ġpreten dia
Ġ199 0
Ġactual ly
Ġtes t
Ġconta das
Ġrob ado
Ġmezc lado
Ġconfir mar
Ġcho co
Ġexplos ivos
Ġaquel las
Ġfra me
Ġviv iente
cul as
Ġfar m
Ġsha zam
Ġexperimen tos
Ġpira mi
Ġpol is
Ġresca tan
Ġfans erv
ugh t
Ġdesarrolla da
Ġstre am
Ġreven ant
Ġdemos trado
Ġprofes ora
Ġpermi tir
Ġzo o
Ġgilipol leces
Ġpersecu ciones
Ġresum iendo
Ġarbol es
Ġmetro polis
Ġaprovech ado
Ġchas tain
Ġmach ine
Ġaluc inacion
Ġvec inos
Ġcop y
Ġorg ullo
Ġviolen ta
Ġtin tin
Ġlook s
vie w
Ġeter na
Ġmeti eron
Ġmecan ica
Ġllen ar
Ġjusti fica
Ġjusti ficacion
Ġexcepcion al
Ġbarb ara
Ġnacion al
Ġcharacter s
Ġresta u
Ġbritan ico
Ġbarbar idad
Ġincor por
Ġbrother s
Ġagrade zco
Ġinstin to
Ġsobreval orada
Ġfacehug ger
Ġdiaman tes
Ġperpe tua
Ġbiblio teca
Ġsuperpoder es
Ġcemen terio
Ġcock pit
Ġsate lite
Ġmiya zaki
Ġmagnol ia
Ġfanserv ice
6 5
f k
h l
j idad
l r
s ki
x x
Ġe is
Ġa tar
Ġa gon
Ġc ig
que ria
Ġque ridos
Ġt imo
Ġes for
Ġla ur
Ġy an
Ġn am
Ġen tras
Ġv os
es en
te x
ci das
ci eron
Ġb p
Ġb ue
Ġb amb
is s
to o
Ġg ab
Ġg rim
Ġlo pez
Ġper d
Ġper ra
Ġper ver
Ġin her
Ġin dios
ando me
Ġmu ro
ti bles
Ġpara ca
Ġle bo
ad me
ad ura
Ġan nie
em ber
tu ando
ig uen
Ġth eron
Ġfin an
Ġmi tico
di ar
Ġqu ie
Ġqu ito
Ġpas arse
Ġco ol
Ġch up
Ġtan ques
Ġva yas
Ġam e
Ġrec al
Ġro yo
Ġro gers
Ġab riendo
Ġmo vi
Ġmar can
Ġdej amos
Ġfor est
Ġreal iza
Ġpon emos
Ġinter nacion
Ġcor ren
Ġcine filo
Ġne eson
Ġtu yo
gra m
dio us
Ġapar tamento
Ġcomp re
dar d
Ġcons tantes
Ġfil tro
Ġhaber me
Ġ6 1
Ġho od
Ġqueda mos
Ġinten sa
Ġay udo
Ġpres cindible
Ġbe ber
Ġdia bol
Ġci tizen
Ġsub idon
Ġimpor tar
mor e
Ġins pec
Ġamb icion
Ġmega tron
pen s
Ġconf es
Ġponer te
Ġdef ine
Ġrar os
Ġlim pio
Ġrom ero
Ġrom pen
Ġmira das
Ġcen trar
Ġdejar an
Ġmeter lo
Ġale jado
Ġclas sic
ug hey
Ġatra e
Ġamor oso
Ġris es
Ġflo jea
Ġleer lo
fo y
Ġbaj on
Ġcur so
Ġpreten siones
Ġ199 3
Ġ199 5
Ġwal ker
Ġdestro zo
Ġmanten iendo
Ġ198 8
Ġtransmi ten
Ġmc cona
Ġrev ista
Ġexplo tado
Ġlevan tarse
Ġtecn icas
Ġjajaj ajaja
Ġlogra da
Ġdur ar
Ġsup iera
Ġpron un
Ġreir me
Ġbio logica
Ġcump len
Ġreven tado
Ġaclar a
Ġchis pa
Ġvolv emos
Ġliter al
Ġdesarrol lan
Ġdibu jo
Ġjav ier
Ġsopor tar
Ġgro und
Ġadmi tir
Ġencontra ba
Ġprodu cido
Ġblu ray
Ġdisen os
Ġscreen play
Ġeter no
Ġexpan dido
Ġrevi vir
Ġempez aba
Ġatrac tivo
Ġfemen ino
Ġprotec tor
Ġperfor man
Ġacostumbra dos
Ġnacion alidad
Ġcopi ar
Ġindependiente mente
Ġautom atico
Ġnoctur na
Ġsien ten
human os
Ġdiferen ci
Ġcros s
Ġdisgus tado
Ġmasac re
Ġlum in
Ġretur n
Ġindus tria
Ġfos ter
Ġleg ion
Ġvein te
Ġmercen arios
Ġinicia tiva
Ġhur t
Ġbrid ge
Ġdefrauda do
Ġalb um
Ġsatur no
Ġcaps ula
Ġorb ita
Ġjaco b
Ġecu acion
Ġforta leza
Ġlew is
Ġdemues tran
Ġglas s
Ġbened ict
Ġtay lor
Ġmccona ughey
9 1
b k
b atch
c la
c aban
e ts
f y
g r
g y
k ia
l ish
m ol
t ti
u ta
v or
w yn
Ġl ily
Ġa gre
Ġc rom
Ġde la
Ġde mo
en os
en de
an za
Ġque den
Ġh p
Ġh ong
Ġn emo
ta des
Ġv ill
te les
ci llo
Ġno dri
Ġno body
Ġf echas
Ġse pan
Ġse bas
ien cias
Ġal ea
Ġo v
Ġcom pa
ec o
icu la
ti d
ad era
Ġdes er
qu isimo
Ġver eis
Ġac um
Ġth ir
co les
Ġex ista
Ġpr ing
Ġpro v
Ġpro ces
lan te
Ġtra vel
Ġhe a
Ġco pa
Ġco jo
Ġca igo
ho ut
Ġcar los
Ġro do
Ġpre ju
Ġpe dia
mp a
Ġmar io
iz adas
Ġfor mado
dd d
ven ta
Ġpen e
Ġpen as
Ġpen it
Ġdeci di
Ġven dra
Ġimp uls
Ġne e
Ġfal sos
Ġter ry
li ps
rec k
men tos
Ġna cio
Ġacab ase
Ġdar me
Ġcam uf
ber batch
Ġho p
jer as
Ġsegu imos
Ġbo ys
Ġri tual
Ġcamb ien
Ġoc to
Ġcal l
Ġtal la
Ġmier coles
Ġactor azo
Ġbe at
Ġz ur
Ġz emo
Ġz onas
Ġbar ba
Ġau x
tran dose
Ġhor ri
Ġmer ezca
Ġmatar la
Ġnom ina
Ġinterpre te
Ġtor cido
Ġjun tar
Ġvaya is
alo f
Ġpin taba
Ġcap as
Ġvolver se
Ġja po
Ġsig ues
Ġmag ica
Ġvio la
Ġatra vies
ll ll
ins t
gi das
Ġadap ta
Ġbu f
Ġmad era
Ġpie dad
Ġquedar me
Ġer go
Ġexis tia
Ġbel ico
Ġbel ie
Ġinven cion
Ġinven tar
Ġcompan era
Ġsuel tas
Ġante mano
Ġsex uales
Ġcivil es
Ġgir ando
Ġwas p
ez can
Ġmemor ables
Ġpsico logica
Ġcha pa
Ġras tro
Ġlis t
pro duc
Ġ197 3
Ġgraci osas
Ġcoger la
Ġcaracter izado
Ġarte fac
Ġend ing
Ġabandon a
way s
Ġofic iales
Ġbec k
Ġsacri fica
Ġacojon ado
Ġplane ado
Ġnaz gul
Ġdemos trando
Ġpri vado
Ġind ica
Ġmoder n
Ġmoder na
Ġplas ma
Ġber g
Ġcambi aria
Ġatre ver
Ġ196 8
Ġnega tivas
Ġstu ff
Ġrelig ioso
Ġrode ado
Ġechar le
Ġbrillan tes
Ġtercer o
Ġespiri tual
pie za
Ġaran as
Ġmale fica
Ġgro ot
Ġpesad illas
Ġestup endo
Ġsang r
Ġcerc ana
Ġaga inst
Ġartis tico
Ġcabre ado
Ġdeclar aciones
Ġpartici par
Ġdefec to
Ġempi ece
Ġwat son
Ġtortu gas
Ġhorm iga
Ġcum berbatch
Ġfoo tage
Ġastronau ta
Ġpole mica
Ġvideoc lub
Ġmetafor as
fantas mas
idora h
Ġnich ol
Ġsubmar ino
Ġcharl ize
Ġtarje ta
Ġtelefil m
Ġouts ide
Ġincongruen cias
Ġpelirro ja
Ġconlle va
Ġcui dar
Ġintermin able
Ġestrate gia
Ġanom al
Ġperforman ce
Ġpenit ente
c p
f p
f ra
g aban
r s
r ara
y ers
Ġp ilar
Ġs ame
Ġa k
Ġa ri
er se
Ġde us
Ġde can
as ta
an u
ar los
ar ds
Ġla gar
or ra
un k
un der
re ta
Ġv ue
Ġun icas
Ġb tw
Ġse en
Ġse llo
Ġha cke
Ġo las
Ġo wn
Ġo asis
Ġcom pi
Ġper os
Ġre tar
Ġre des
Ġsi t
Ġdel in
ti b
ti zo
ti zado
Ġcu le
Ġmas s
Ġle ve
Ġdes ig
Ġw ood
tan t
Ġver te
Ġver des
tu ar
ion s
Ġfin d
Ġesc alof
ten tes
Ġpro ducir
Ġcre ce
Ġten iente
der ia
Ġve id
Ġr t
Ġim itar
Ġk ine
Ġk ung
Ġch in
Ġch al
Ġcos itas
Ġmis il
Ġpe ta
Ġra in
Ġmo gol
Ġpa yas
Ġreal izada
Ġdo or
Ġne il
Ġne xt
Ġne vera
Ġgra ves
Ġgra fica
Ġcier tamente
Ġcons iste
Ġcab ina
Ġmun dillo
Ġ7 1
Ġvol viera
Ġmor tif
Ġ9 6
able mente
Ġib amos
Ġtom my
Ġesperaba is
Ġjus ta
Ġcol gando
Ġexplic ita
Ġconf ron
Ġconf und
Ġref or
Ġta x
Ġcomple jidad
ron e
Ġencuen tren
Ġfutu rista
Ġsalv arse
Ġfoto gramas
Ġmos tra
Ġtir arse
Ġcompar aciones
Ġestr ena
Ġactu ales
Ġdisfru to
Ġdesarro llando
Ġ11 6
Ġpien se
Ġ17 79
Ġescri bio
Ġlan e
Ġlog icamente
Ġhabla is
Ġequi val
ins tein
Ġ16 0
Ġolvi demos
log icos
Ġcru zar
Ġinic iales
Ġmaes tras
hero es
Ġreci bido
Ġescu dos
Ġinven tarse
Ġmedi e
Ġvas i
Ġapo ya
fo e
Ġdesta co
Ġzomb i
Ġdiver sos
Ġconten tos
Ġbuscar le
Ġincreible mente
Ġllor ado
Ġridicu los
Ġnor man
Ġtex as
Ġavan zar
lor d
Ġfas c
Ġarre ba
Ġfre e
Ġagra deci
Ġrepresen tar
Ġil us
Ġred dit
war s
Ġapun tes
Ġgalax ias
Ġterminator s
Ġ197 1
Ġleon ard
Ġpud ieran
Ġrepi ten
Ġluch as
Ġdescono cidos
Ġhun ter
Ġconec tado
Ġreaccion a
Ġface book
Ġgrand isimo
Ġchas quido
Ġchas carr
Ġnega tivos
Ġocul tar
Ġcabal los
Ġperio do
Ġdev olver
Ġcorre dor
Ġfiloso fico
Ġasegu rar
Ġanun ci
Ġcines a
hi ro
Ġdepen diendo
Ġjer em
Ġcaza fantasmas
Ġtel ep
Ġdigi tales
Ġanci ana
Ġchew ie
Ġscreen er
Ġfres ca
Ġolvida te
Ġgene tica
Ġhues os
Ġcartel era
Ġexpan dir
Ġnig ga
Ġinutil es
Ġinsta laciones
Ġidio tas
Ġwil son
Ġpac ino
Ġincom pren
Ġcorrup cion
Ġsamura is
Ġjocke ys
Ġazo g
Ġazo tea
Ġcele bra
Ġduer me
Ġpsiquia trico
Ġanecdo ta
Ġcomis aria
Ġladr ones
Ġinmedia tamente
Ġchild ren
Ġescar pias
Ġesqu izo
Ġshut ter
Ġgenes is
Ġmeteor ito
Ġpretenci osa
Ġindependen ce
Ġambigu o
Ġinspi rado
Ġbras il
Ġbigo te
Ġvergon z
Ġbeau tiful
Ġrestau rante
Ġnodri za
Ġsebas tian
Ġocto ber
Ġveid t
Ġmogol lon
c ron
d w
f c
g able
h om
i ante
m us
m ados
u co
w o
w ing
Ġ ic
Ġe ur
Ġe ve
Ġp ill
Ġp ana
Ġd or
Ġd ad
Ġl ights
Ġs is
Ġc un
Ġde centes
Ġde cenas
que te
ar icia
Ġque mado
Ġt rian
un al
do g
do ck
Ġen ven
Ġv ac
es pa
da c
da gas
Ġf ec
om p
Ġme ar
la d
la tion
Ġcon tun
Ġcon gres
Ġal fa
Ġcom ed
Ġcom puesto
Ġper ca
Ġper eza
Ġre medio
Ġsu a
Ġsu ma
Ġsu mmer
Ġin so
Ġin def
ab lan
ri ed
Ġpara d
Ġmas co
Ġle as
Ġle gal
Ġj ine
ad gar
Ġso ur
Ġso las
Ġdes vi
tr eno
Ġpo damos
Ġmi rado
Ġex il
per a
di bles
Ġx o
Ġcre ados
ga torio
Ġsal es
Ġr ors
lan e
Ġtra yec
Ġtra ducir
Ġhe av
Ġca z
Ġson idos
Ġim par
Ġk ris
Ġmal dita
Ġcas t
Ġcas tigo
Ġlle gamos
Ġsab les
Ġsobre co
Ġro ta
Ġro th
Ġra bo
Ġra ge
Ġra cional
Ġra dagas
Ġjo b
Ġjo bs
Ġjo urney
Ġab ri
Ġab uelos
Ġmo le
Ġda foe
Ġfor zados
Ġpa vos
um e
Ġ10 2
Ġpen osa
Ġlu ce
Ġpon ian
je te
ke ting
Ġgran o
Ġap res
li tos
Ġna uf
Ġmon to
Ġ8 7
Ġsegu idor
Ġhuman as
Ġcamb ie
Ġsec cion
Ġtal k
Ġbe y
Ġbe an
Ġgan ador
Ġgan adora
Ġhar ian
Ġpi ke
Ġgener almente
Ġsh ar
Ġju dio
Ġamb igue
Ġmue ven
Ġref res
Ġtr una
Ġlar gu
Ġponer la
Ġmus eo
Ġta te
Ġinterpre tando
Ġtor tas
Ġdef iende
Ġguer rero
Ġ13 4
Ġescri ta
Ġlan zan
et to
Ġfis icas
Ġata ud
Ġproduc tos
Ġnar rar
Ġtre in
ii i
Ġcru ci
Ġcru za
Ġhic iese
Ġga ga
Ġinfin idad
Ġer ic
Ġ22 3
Ġbel en
Ġbel lo
Ġrela tivamente
cie dad
Ġbaj ado
Ġmonstru oso
Ġru idos
Ġenfer mos
Ġwor k
Ġempezar on
Ġ27 1
bor n
Ġcha queta
Ġ198 4
Ġgua p
Ġhal f
Ġviv imos
Ġinfec cion
Ġ197 4
Ġcasual idades
Ġexten der
Ġgem elo
Ġabo ve
Ġluch an
Ġreco pi
Ġsacri ficar
58 7
Ġesque ma
Ġcra zy
cien tos
Ġalcan za
Ġcie ga
Ġpri ori
Ġchas co
Ġocul to
Ġdep risa
Ġcad enas
Ġlobo tom
Ġasegu ra
Ġsuces ion
Ġpresenta dor
Ġescla vos
Ġejecu cion
Ġsospech oso
Ġsospech osos
Ġmeto dos
Ġana de
Ġenla zar
Ġbara ta
Ġinex istente
Ġobserv ar
Ġmys terio
Ġpac to
Ġdeca pi
Ġetern idad
Ġmism isimo
Ġbote lla
Ġevan gel
Ġenv iado
Ġnove dad
Ġpaste los
Ġhip no
Ġmila g
Ġdal las
Ġvib ran
Ġfemin ismo
Ġwit hout
Ġkh adgar
Ġacoj ona
Ġfru to
Ġregul era
Ġmedioc res
Ġplatafor ma
Ġrobb ie
Ġpropa gan
Ġmache te
Ġrevien tan
Ġinso por
Ġradagas t
Ġnauf ra
c ue
d imension
f ix
i fico
l f
m u
m al
p ien
p so
s u
s ton
s by
v emente
y lan
z ara
Ġ ilo
Ġe w
Ġp g
Ġp j
Ġp uentes
Ġd ulce
Ġs mo
Ġc aj
Ġc ima
Ġc ajas
Ġc iber
Ġque jo
Ġes tim
Ġes toma
Ġy e
ic cion
ic anos
Ġno tan
Ġf ich
Ġme tas
Ġcon ci
Ġal ber
Ġal erta
Ġpar ty
Ġo z
Ġsi ren
Ġsu posicion
Ġin dom
Ġmu tt
ab ar
ch u
go t
Ġesta bas
Ġle ad
Ġle av
Ġle tter
ier amos
Ġj ose
Ġdes po
tr ales
Ġw p
Ġw anted
em as
Ġpo k
Ġpo dias
Ġac anti
tu ri
ig na
Ġth ose
Ġmi ro
ma y
Ġdi la
di tas
di ana
ten sen
Ġpro pone
Ġhab re
Ġx xi
Ġcre cer
Ġsal ve
der berg
Ġqu o
Ġve ge
lan dose
Ġpas ados
Ġhe pta
se t
Ġco lado
Ġca gan
Ġvis i
Ġk or
Ġcas cos
Ġcas ablan
Ġcar ica
Ġam os
Ġra zas
Ġab ro
Ġab usa
Ġmar keting
Ġfor man
Ġpa co
Ġ10 8
Ġgu ia
gar a
Ġven garse
Ġcor deros
Ġne gar
Ġgran ja
Ġapar ato
be y
Ġgra do
pec ted
Ġinc one
Ġir ra
Ġir lan
Ġdar nos
Ġcab ra
Ġcab les
Ġ7 7
Ġ6 3
Ġcan nes
Ġqueda ban
Ġbo dy
ge ist
Ġinten tos
Ġu ff
Ġemp a
Ġemp an
tir se
Ġcri terio
Ġpes a
Ġher mos
Ġrep as
Ġep icos
Ġgener oso
Ġbar on
cha ch
Ġide ales
Ġjus tin
Ġban d
Ġban dera
Ġgo dard
Ġsh ell
Ġfun dido
Ġju mp
dan ce
Ġneces idades
Ġsan gu
Ġtr un
Ġtr om
Ġwh ile
Ġresul tan
Ġsalv able
Ġfantas mada
Ġfoto grama
Ġat lan
Ġcome ter
Ġsig los
Ġmeter me
Ġescri b
Ġcuer nos
Ġcomentar e
Ġlog ran
Ġmata ba
Ġbon us
Ġabur rimiento
Ġproduc ciones
Ġolvi de
Ġmir an
Ġmad s
Ġdir as
Ġcru do
Ġtro pas
Ġga za
Ġfe der
Ġinven cible
Ġrepar tiendo
Ġele gida
Ġentrar on
Ġcur ra
Ġacep tan
Ġpele an
Ġ199 6
Ġsil ver
Ġflip as
Ġfol lando
Ġpsico logo
Ġcha pu
Ġcuad ros
Ġcurios os
Ġrepresen tan
Ġ198 2
Ġ198 6
Ġdom inar
Ġare a
Ġrus so
Ġlis ton
Ġreac tor
Ġech an
Ġsir v
Ġevolucion a
Ġhal low
Ġsw ord
Ġmister iosa
Ġavis pa
Ġcoger lo
Ġdese os
Ġsp y
zz zz
Ġlogra dos
Ġpira ta
Ġtru man
Ġbl unt
Ġfiel es
Ġabandon o
Ġenamor ada
Ġofic ina
Ġchir rian
dn ight
Ġcans an
Ġce tro
br ando
Ġlig ero
Ġfamos os
Ġsepar a
Ġplas mar
Ġsep timo
Ġaprovech ar
Ġenvi dia
Ġvig go
Ġdif fer
fi que
Ġur b
Ġmulti ple
Ġrell enar
Ġsopor i
Ġsimbol ismo
Ġlook ing
Ġretras ados
Ġcontes tar
Ġimagina te
Ġxen os
Ġspe ed
Ġintu ye
Ġchirria do
Ġold boy
Ġobsesion ado
Ġmeti das
Ġjon athan
iiii iiii
Ġdesn udo
Ġken ne
Ġqueja is
Ġproto colo
Ġkar en
Ġdeca e
Ġasia tico
Ġnigh ts
Ġgratu ito
Ġrebo ot
Ġarch ivo
Ġbreak ing
Ġdeso lacion
Ġjuz gar
Ġpuneta zos
Ġdespa cho
Ġhuel las
Ġcohe tes
Ġinno v
Ġveh iculo
Ġveh iculos
Ġfl ores
Ġconcen tracion
Ġjohan sson
Ġts un
Ġfrien d
Ġfrien ds
Ġdificul tad
Ġradic al
Ġzapa tos
Ġef fec
Ġminim amente
Ġproducer s
Ġescas os
Ġze us
Ġsic ario
Ġsimili tudes
Ġbrave heart
jec t
Ġkara te
Ġmurciela go
Ġindo min
Ġkam inski
Ġere bor
Ġfelic ity
Ġkel ly
Ġmayus culas
Ġaudiovis ual
Ġfidel idad
Ġame tral
Ġpreju icios
Ġinsopor table
Ġhepta po
c l
c n
g w
g ias
n ir
v ec
x a
x e
Ġe ro
Ġe volu
Ġe ames
Ġl iado
Ġs s
ue ve
Ġde gen
as te
or an
in era
Ġen ro
Ġv ien
Ġun ex
te ado
Ġb izar
Ġse ver
Ġme a
Ġme me
Ġme cha
Ġme et
Ġcon cierto
Ġcon quista
ien se
Ġpar ten
Ġpar tia
Ġo tor
Ġper dicion
Ġre volu
Ġre ducido
Ġre quiere
Ġsi da
Ġsu c
ec emos
Ġin vis
us os
ando te
ti ria
ri ta
Ġmas tic
Ġj in
Ġso ko
Ġso derberg
ir iendo
Ġw ings
Ġw reck
Ġac omo
Ġmi dnight
Ġpro of
Ġma tones
Ġcre cido
tes y
Ġr s
Ġtra ido
Ġco c
Ġco cin
Ġti em
Ġson ris
at icas
Ġk u
Ġk ath
Ġres ena
Ġmen tes
Ġcas ti
Ġcas ado
Ġmis iones
Ġcar n
Ġro w
Ġpre es
Ġhan k
Ġab r
Ġmar ci
Ġmar tian
Ġmar icon
Ġda g
Ġdis tr
Ġsus ten
Ġpu tisima
Ġ10 6
Ġor ques
Ġpen n
Ġpon eis
Ġ4 26
Ġinter no
Ġimp one
Ġcor rom
Ġter res
Ġmuer tas
Ġsa ul
Ġcomp ensa
bo ts
Ġmin or
Ġcons cientes
Ġcam inar
Ġ8 2
Ġ8 9
Ġ7 4
Ġho urs
til los
Ġbo ba
Ġ19 60
Ġinten taba
Ġhom o
Ġemp res
Ġcontra a
Ġrep os
Ġtras torno
Ġpi va
Ġad re
Ġbar bos
Ġide o
Ġins pira
Ġins piracion
Ġju dios
Ġinteres es
Ġcol ina
Ġtar ea
Ġconf orm
Ġcer dos
Ġperfec t
Ġmatar a
Ġpregun tan
Ġta ken
Ġocur riendo
Ġsol tado
Ġdig er
Ġempie zas
Ġfamil ias
Ġvie j
Ġcompar ten
Ġcompar arla
Ġactu ando
Ġmira te
Ġat is
pos t
Ġcen tran
Ġke ira
Ġder re
Ġfran c
cre di
Ġrecuer das
Ġcla us
Ġfuncion ado
Ġbu ho
Ġcontro lado
Ġdestru ida
Ġtro oper
Ġterror ista
Ġren un
Ġemocion almente
Ġescu adron
he ad
Ġpers iguen
Ġbaj an
Ġbr illa
Ġing later
Ġmola ba
Ġdescon f
Ġ199 2
Ġayuda do
Ġbro dy
Ġbro lin
Ġintentar e
Ġdesapar ecen
Ġrecomenda ciones
Ġsuf ri
Ġsuf riendo
Ġprac tic
Ġprac tica
Ġavan zando
Ġingles es
Ġcir co
Ġrepresen tado
Ġ198 1
Ġnecesita mos
Ġcomer se
Ġapun tar
Ġfar go
Ġcoinci de
Ġalter ar
Ġdiga is
Ġsp ring
Ġgem ela
pp ie
hh h
Ġestren os
Ġlink later
Ġabandon ar
Ġauten ticos
Ġhim self
Ġpref ier
Ġagen t
Ġchina town
Ġesque leto
Ġfies tas
Ġprogra macion
Ġcomenta is
Ġeven to
Ġespi as
Ġparal elas
Ġneg ras
Ġnega tiva
Ġescuch an
Ġfig uras
Ġcapacidad es
Ġjustific ado
Ġkno ws
Ġgrab ando
Ġargumental mente
Ġnucle o
Ġcali bre
Ġcali for
Ġdedic an
Ġlocal izacion
Ġserp ientes
Ġascen so
Ġadmi racion
aaaaaaaa aaaaaaaa
Ġparticular mente
Ġanci anos
Ġcaus ado
Ġrecre acion
Ġcamp amento
Ġans ia
Ġjim my
Ġacuer das
Ġbox eo
Ġprinces s
Ġital iano
Ġabor to
Ġdestri pa
Ġciclo pe
Ġenla za
Ġrepor t
Ġmuri eron
Ġgene ticamente
Ġmecan ismo
Ġandro ides
Ġty ler
Ġempez amos
Ġidentific ado
Ġdesn uda
Ġvende tta
Ġexclus iva
Ġcrono logico
Ġmys tic
Ġcomb inacion
Ġmusic ales
Ġpersegu ir
Ġenv uel
http s
Ġcour tesy
Ġpsiquia tra
Ġhate ful
Ġfly nn
Ġdesac tiv
Ġastronau tas
Ġtradicion al
Ġdenun cia
Ġpropie dad
Ġtranquil os
Ġsupre mo
Ġveter ano
Ġbrook lyn
Ġintercamb io
Ġdurm iendo
Ġsle ep
Ġenre ves
Ġpueb los
Ġsimb ion
Ġparaca idas
Ġlebo wski
Ġhea ven
Ġvasi jas
Ġjerem y
Ġesquizo fren
Ġrors chach
Ġvibran ium
Ġestoma go
Ġcasablan ca
Ġindomin us
Ġunex pected
Ġsoderberg h
Ġinglater ra
7 20
b on
c b
c t
d j
d igos
i th
n ando
o la
p v
p lo
p ier
q e
s er
v idad
y era
Ġe ri
Ġe ach
Ġp len
Ġd ime
Ġd orado
Ġs ano
Ġa ch
Ġa fer
Ġa puesto
Ġa fortun
er do
Ġde cep
Ġde vil
en an
que en
an des
Ġque jarse
Ġes pon
Ġv im
ic om
Ġun idad
Ġun irse
te ando
Ġf ib
is ion
is her
Ġme dian
il s
Ġal o
Ġal er
Ġal ca
Ġal tamente
Ġal ways
Ġre den
Ġre mi
le x
Ġto po
Ġto ge
Ġto wn
Ġin ol
Ġin dio
Ġin mer
ti que
ti vi
Ġcu tr
ri tos
Ġle al
ad isima
Ġdes il
Ġdes ea
Ġw er
Ġw ind
tan cial
Ġth ough
Ġmi ticas
Ġmi kk
Ġdi ese
Ġser kis
Ġex quis
Ġex termin
Ġpr en
Ġpro dig
Ġas omo
Ġas pira
Ġas fix
Ġpas amos
Ġtra tara
Ġtra ducido
Ġca po
Ġ3 33
Ġk in
Ġmal foy
Ġch ul
Ġch iqu
Ġman ual
cer o
Ġprim e
Ġro jos
Ġra mas
Ġra id
Ġjo yas
Ġab om
Ġab ras
Ġmo th
um er
Ġpu diendo
Ġgu itar
Ġpun tuales
Ġdu ran
Ġinter iores
tim e
me jor
Ġsuper f
Ġsuper vis
Ġne fas
ren al
Ġgran t
Ġmuer de
Ġsa pien
Ġmin us
Ġfil trado
Ġho ja
Ġestan dar
it re
Ġus aban
Ġri fle
Ġmor dor
Ġmor tales
Ġ9 8
Ġvuel van
Ġcamb ias
Ġpes ados
Ġval la
Ġli ving
Ġgan e
Ġsac as
Ġden nis
Ġep vi
Ġtener lo
Ġad renal
Ġfa cep
Ġjus tic
Ġau b
Ġis s
Ġis rael
Ġins ec
Ġamb ic
Ġamb ul
Ġtar dar
dan dose
Ġexplic ito
Ġconf ies
Ġpan or
Ġpan tal
Ġmatar se
Ġta pa
Ġsol ido
Ġtor rente
Ġdeb ian
Ġsim ul
Ġrealidad es
Ġenter tain
ura da
Ġanim ados
iste is
Ġfantas tic
Ġ13 0
Ġenf rente
Ġder n
Ġmucha cha
Ġdisfru tando
Ġpier des
Ġvillan a
Ġepiso de
Ġproduc en
ale z
Ġbrutal idad
Ġflo jos
Ġpie tro
Ġtro pe
Ġfe tt
Ġllam ando
Ġtem ia
Ġencontrar on
Ġmedi um
Ġfir ma
Ġlin terna
Ġbr ando
Ġdefin ir
Ġsob rino
Ġdiver sas
Ġblan cos
Ġllevar lo
Ġdescon cer
Ġ199 1
Ġenem y
Ġsuf rido
Ġwal king
Ġconta g
Ġart ista
Ġup load
Ġrecono cimiento
Ġtris tes
Ġentien den
Ġcorrec tamente
Ġmc queen
Ġlis tos
Ġdesper tado
Ġqui ten
Ġcompren sible
Ġtru cos
Ġbol s
Ġbl in
Ġabandon ada
Ġlider es
Ġran go
Ġtrip ul
Ġderro tado
Ġpilo tos
Ġalcan tar
Ġadoles cencia
Ġdvd rip
Ġdesarrol le
Ġmoder no
Ġparal elos
Ġentran able
Ġescuch ando
Ġham ill
Ġexpres iones
Ġclon e
Ġarries gar
Ġgun n
Ġsci fi
Ġdisfra z
Ġcog iendo
Ġredon do
Ġpata ta
Ġhues ped
Ġincoher ente
Ġalum no
Ġgat sby
Ġinex plic
Ġserv ice
Ġatrac tiva
Ġbarb osa
Ġcrono logia
Ġrepeti tiva
Ġnego cios
Ġpeligros a
Ġminis er
Ġtroll s
wor th
Ġexplor ar
Ġrecha zo
Ġtrain ing
Ġcafe teria
Ġcomunic arse
Ġperm iso
Ġonir ico
Ġinterna tional
Ġdesagra dable
Ġtell s
Ġparra fo
Ġdais y
Ġspot light
Ġfon dos
vol ta
Ġengine er
Ġdesperdic io
Ġfore ign
Ġindividu o
Ġdescif rar
Ġsper m
Ġneu tral
Ġev acu
Ġkripton ita
Ġconvin cente
Ġcis ne
Ġdescabel lado
Ġreencuen tro
Ġconner y
Ġacre di
Ġcav ill
Ġgonz alez
Ġtuer ca
Ġbarr iles
Ġlumin oso
Ġvill ene
Ġrt ve
Ġkine polis
Ġmortif agos
espa cio
Ġsour ce
Ġsoko via
Ġwreck age
Ġbarbos sa
Ġtoge ther
Ġmikk elsen
Ġfacep al
c ing
c amiento
d illas
f ana
g encia
k ar
m n
p t
r illa
u k
u mo
Ġp c
Ġs cho
Ġs lum
Ġa jo
Ġa ton
Ġc il
en se
Ġes tir
Ġh es
do wn
Ġn ico
Ġn ine
in ario
Ġen mar
Ġel len
Ġv u
al dad
te lo
Ġno thing
Ġf rec
Ġf rost
is tica
Ġcon taba
Ġcon quis
Ġha ters
Ġg in
Ġal bert
ro ll
Ġo iga
Ġo dios
Ġcom ments
Ġpor tada
Ġre ia
Ġre ten
Ġsi tua
Ġsu re
Ġsu po
Ġsu ther
am und
Ġto toro
Ġin tr
Ġin segu
us can
Ġmu ti
ti re
ri que
Ġesta fa
Ġle tra
Ġle gado
Ġj emp
Ġj ill
ir ante
tr omo
Ġpo es
Ġac ces
tar ios
ig en
aj ada
Ġdi ana
tra ck
Ġser vi
per as
di es
Ġpro pon
Ġma tas
Ġfinal izar
ga te
Ġten dencia
Ġsal iese
Ġte k
Ġqu a
Ġqu an
Ġqu ise
tro lls
Ġpas aban
Ġpas illos
Ġtra volta
Ġhe y
Ġca zas
Ġson ador
Ġvis ible
Ġk ana
Ġmal es
Ġmal oso
Ġmal ko
Ġar ono
Ġdic ta
Ġmis s
Ġcar ton
Ġcar gada
Ġrec la
pi es
pi to
Ġro ll
Ġro uge
Ġpre dis
Ġra w
Ġjo an
Ġjo den
Ġab erra
Ġmo des
Ġda ily
Ġdej arse
Ġdis pos
iz arse
Ġfor z
Ġgu idorah
Ġpen elo
Ġpen dientes
Ġdo bles
Ġven ce
Ġos born
tim os
Ġcor tas
Ġfal lado
Ġtu bo
gra ph
Ġverdad eros
Ġsa uco
Ġapar ente
Ġapar ezcan
Ġcomp os
Ġcomp rado
ill era
Ġnos tromo
zo g
Ġlib ra
Ġcons piracion
Ġmon a
Ġmon ono
Ġcam inos
Ġ6 16
Ġho yo
Ġ19 57
Ġnue ve
Ġvol can
des uper
Ġmor ena
Ġcono zca
Ġencan tando
Ġsupon iendo
ff aut
Ġcal eb
Ġgan aria
Ġsac arse
Ġbru ta
Ġbru jo
Ġon da
Ġgener ar
Ġad icion
Ġwar ren
Ġau ra
Ġau di
Ġstar wars
Ġis a
Ġsh el
Ġdan i
Ġins is
Ġcol d
Ġcol gado
ador as
dan tes
Ġejemp lar
duc en
Ġsan tia
Ġsan dra
Ġcer ve
Ġmer yl
Ġll ore
Ġnom inados
Ġta par
Ġol or
Ġol vidad
Ġocur ria
Ġjun tan
ich i
Ġsensacion al
Ġcap tu
Ġultima te
Ġmos ca
Ġentender ia
Ġrelacion ada
Ġcompar a
Ġcen trarse
Ġke anu
Ġmag icas
Ġcuer das
Ġguar dias
Ġtemp rano
Ġproduc tion
Ġacer car
Ġmol on
Ġmol ar
Ġrapi das
Ġsho ws
Ġimpresion a
Ġincre dible
Ġmad res
Ġmad uro
Ġpub lish
Ġcru ce
Ġleer me
Ġinfin ita
Ġmedi das
Ġ24 39
Ġprofun dos
Ġengan char
dra ma
Ġlin col
Ġav aricia
Ġele f
Ġbuscar lo
Ġdescon tro
Ġsobrevi va
Ġsobrevi ven
Ġsuce diendo
Ġintentar on
Ġflip ante
Ġtes is
mm m
Ġhaga is
Ġmezc lar
Ġcuad ran
Ġfre ak
Ġensen ado
Ġsos ten
Ġred im
Ġros amund
Ġras tre
Ġgas tado
Ġrecur rir
Ġdescar gar
Ġcoinci dencia
Ġsecundar ia
Ġnarra tivo
Ġesco ger
Ġvin iendo
Ġvam onos
Ġwa it
Ġjul ia
Ġtru ffaut
Ġpris as
Ġbom bo
Ġexpec tacion
Ġafec tado
Ġespera is
cin dibles
ens tein
Ġvalor acion
Ġran king
Ġwoo k
Ġquin ce
Ġenfo car
Ġreven tando
Ġhun de
Ġwin ner
Ġsc ore
Ġface ta
Ġbrad ley
Ġ00 7
Ġelim inado
Ġalar gado
Ġ196 3
Ġsch war
Ġrelig iosa
Ġscen es
Ġexpres ar
Ġcali fic
Ġfrances es
Ġspe ech
Ġmunec os
Ġcamion eta
Ġpegar le
Ġblog desuper
Ġbox trolls
Ġinfer nal
Ġholo ca
Ġmuri ese
Ġcata pul
Ġestudi ante
Ġgravi ta
Ġgon na
Ġtab la
Ġayud ando
Ġenorm emente
Ġoce ano
Ġimpres iones
Ġreen car
Ġasque rosa
Ġsm all
Ġnecesaria mente
Ġmaf ioso
Ġmaf iosos
Ġbow col
Ġger man
Ġinmen sa
Ġreti rado
Ġplu ma
Ġcolum na
Ġextraord inaria
Ġindus tri
fs ky
Ġentusias mo
Ġabier tos
Ġconcep tos
Ġrober to
Ġenveje cido
Ġrebus cado
Ġeras e
tane amente
Ġellio tt
Ġmascul ino
Ġcostum bre
Ġcaptur ar
Ġwel les
Ġopina is
Ġcica triz
Ġencu ad
Ġherram ienta
Ġvagab undo
Ġpropor cion
Ġmalv inas
Ġboo gie
Ġcras h
Ġirrele vante
Ġpolan ski
Ġcamis eta
Ġgrim a
Ġinternacion al
Ġberg man
Ġcomed y
Ġambigue dad
Ġpropagan da
Ġhallow een
Ġprees treno
Ġfranc amente
Ġvim eo
Ġadrenal ina
Ġentertain ment
Ġvillene uve
Ġsuther land
Ġjemp lo
Ġarono fsky
Ġpenelo pe
Ġlincol n
Ġblogdesuper heroes
a ire
c w
c tor
e ver
h m
h y
i rian
j en
j ita
o v
p pe
q w
s tar
Ġe z
Ġp ab
Ġp aj
Ġd ors
Ġs pec
Ġs uela
ue ta
Ġa ul
Ġa je
Ġc usto
Ġde al
Ġde tes
Ġm im
Ġm ck
on ies
os amente
ar o
Ġque man
Ġque jan
Ġh iber
do w
Ġy es
in er
in ista
Ġel ys
ic i
ic ana
ic iar
Ġun til
Ġun credi
ci lla
Ġno e
Ġf f
Ġf lic
Ġse ts
la w
Ġcon cepcion
Ġha das
Ġha mmer
Ġal iado
Ġpar en
Ġpar es
Ġpar ecera
Ġsu pe
Ġsu mado
im ag
lo ga
lo pez
Ġin vo
us t
ti gos
Ġpara de
Ġj as
Ġj ab
Ġdes qu
Ġdes pol
tr umen
Ġw ong
Ġver du
Ġver osim
Ġac tion
Ġth under
Ġth omp
Ġfin es
Ġmi ticos
Ġesc omb
tor ias
Ġdi vid
Ġdi vision
tra ciones
Ġser vido
Ġex teriores
Ġma kes
Ġas tu
dos a
Ġcre ci
Ġsal on
Ġsal tado
Ġsin cron
Ġr ho
Ġtra ins
Ġhe lado
Ġhe ath
cia cion
Ġbuen isimas
Ġson re
at icamente
Ġmal dad
Ġbas es
Ġbas icos
Ġman io
Ġi va
Ġhu yen
Ġmis t
Ġcar gue
Ġcar teles
Ġrec ta
Ġpe tro
Ġpe gaba
Ġjo er
Ġab er
Ġab ar
Ġmo ul
Ġmar lon
Ġda w
Ġpa pe
Ġsus ur
Ġmomen tazos
Ġhace is
Ġor an
Ġdeci dieron
Ġlu cy
Ġera mos
Ġdo ce
Ġesper eis
Ġesper abamos
Ġimp rim
tim iento
Ġcor al
Ġcor uscan
Ġsuper lopez
Ġcine fil
Ġfal sas
Ġapar t
rec en
Ġpos ts
Ġcomp ens
ill s
gan tes
Ġcier ran
ida mente
Ġ7 2
Ġ6 00
Ġho t
Ġcuen te
Ġcuen ten
Ġem i
Ġem bo
Ġcan toso
Ġsegu ros
Ġsegu idas
Ġsegu ira
Ġus aba
Ġvol via
Ġmor se
tin as
Ġcal ma
Ġcal cula
Ġimag ine
Ġllev aron
Ġcomen zo
Ġher zog
Ġbe tter
Ġgan cho
gia dos
Ġbat tles
Ġtom arse
Ġz em
Ġenten dia
Ġrep u
Ġrep leta
Ġpi den
Ġgener ado
Ġad minis
Ġimpor te
Ġbar ri
Ġgo zada
Ġgo onies
Ġstar s
Ġsh it
Ġfun dador
Ġins tan
Ġins trumen
Ġju de
Ġtar s
Ġrecor da
Ġref rito
Ġmer ecer
Ġlar s
Ġnom inada
Ġol dman
Ġ12 0
Ġtor turas
Ġdef orm
Ġenter rado
rim os
Ġcap tar
ep tico
Ġpla yer
Ġllegar ia
Ġvia jando
Ġ13 1
Ġcompar ando
Ġedi tada
Ġke y
Ġke da
Ġder iv
Ġmeter te
Ġale gre
Ġatra ccion
Ġciudad anos
Ġwe ir
Ġhos t
Ġbon dad
Ġdec orado
Ġcla ire
Ġsobra da
Ġmad ru
Ġmad ure
Ġhulk buster
Ġbor do
Ġinfin itas
Ġmaes tros
Ġhumano ide
Ġtempor adas
Ġescu che
Ġinven tada
Ġapo teos
Ġang ry
Ġ25 0
Ġdiver sion
Ġgar aje
Ġcris tales
Ġtri po
Ġevi ta
Ġavan zado
Ġapor te
Ġdestro zando
Ġbal ro
Ġ198 9
Ġil usiones
Ġconvier ta
Ġras ca
Ġimper don
Ġmc c
Ġapun tando
Ġrepe tido
Ġ197 7
Ġdescar ado
Ġextre mos
Ġdam a
Ġexperimen tar
Ġequivo cas
Ġpol ter
Ġaman tes
Ġextran jera
Ġdesarrolla dos
Ġfac tura
Ġayudar le
Ġprovo cado
Ġluch ador
Ġconstru ye
Ġacojon antes
Ġchir rio
Ġsilen cios
Ġexcel entes
Ġlig era
Ġexager ada
Ġpreocu pado
Ġber lin
Ġcambi ara
Ġsospec ha
Ġsar cas
Ġinfantil es
Ġoblig ados
Ġscar face
Ġmach ac
ines s
vies en
Ġnucle ares
Ġcarre y
Ġresuci tado
Ġsens ibilidad
Ġhomen ajes
Ġmetal ica
Ġtranscur so
Ġpatr icia
Ġans ias
Ġignor ancia
Ġnav aja
Ġador o
Ġsober bio
Ġdun e
Ġdestri par
Ġpredator s
Ġbul lock
Ġhipo te
Ġreca uda
Ġrepeti tivo
Ġsy d
Ġais lado
tador as
Ġrea par
Ġfro zen
Ġtron co
Ġcopi as
Ġcagar la
Ġnoctur no
Ġpajar o
Ġasum ir
Ġvul ner
Ġinterac cion
Ġrequi red
Ġaprov echo
nan dez
Ġjeje je
Ġlimpi ar
Ġengine ers
Ġwea pon
Ġdinam ica
Ġclos e
term inar
Ġincomo do
Ġsublim es
Ġexcep tuando
Ġaud ience
Ġdesh acer
Ġprohib ido
Ġtry ing
Ġopen ing
minu tos
Ġdesaf io
Ġpelicul ones
Ġsubtra mas
Ġimpe dir
Ġdesgraci adamente
Ġlarg ometraje
Ġgian t
Ġpirami de
Ġeis enberg
Ġinher ent
Ġnomina ted
Ġnichol son
Ġlagar to
Ġequival ente
Ġacanti lado
Ġdiffer ent
Ġreden cion
Ġslum dog
Ġpoes ia
Ġmonono ke
Ġholoca usto
Ġelys ium
Ġuncredi ted
Ġthomp son
Ġcoruscan t
b el
c ta
c ine
d elo
l lar
l ero
l ins
n ibal
p m
p y
p ada
p her
r illo
t isimas
w in
x ter
y f
Ġ ice
Ġl y
Ġs low
Ġa tor
er no
Ġm ig
Ġque j
Ġla ta
Ġla ugh
Ġh s
Ġn as
Ġn isi
re a
re t
Ġen es
Ġel o
ci damente
Ġno to
ra d
Ġf igu
Ġf ather
Ġb s
Ġb ull
om ar
is es
is tan
Ġse quen
Ġcon ces
Ġlo c
Ġo t
Ġpor tu
Ġper f
Ġper turb
Ġsi x
Ġto cha
po tting
ch on
Ġcomo do
Ġj ay
Ġdes m
Ġdes poiler
ir os
ir al
Ġan i
Ġan n
Ġpo llo
Ġver s
Ġac en
Ġac ar
Ġac ri
uen o
ig no
Ġdi j
Ġdi dn
per o
ol d
Ġma gu
Ġma teria
Ġcre s
Ġcre ep
bre ak
Ġten ias
Ġvi as
Ġr ic
Ġtra te
Ġtra fic
Ġtra gado
Ġco digos
Ġca ia
Ġca che
Ġson rie
Ġim gur
Ġk ind
Ġk eep
Ġmal eta
Ġch ec
Ġch ulos
Ġtan tisimo
Ġman tuvo
Ġdic tador
Ġrec ar
Ġsab ias
Ġsobre pas
Ġhan gar
Ġra ya
Ġra ud
Ġjo y
Ġjo el
Ġjo didos
Ġenc as
Ġmar cas
Ġdej ame
Ġdis tor
Ġpa go
um bre
Ġeste lar
Ġpun al
Ġpun ch
Ġdu o
Ġpon gas
Ġpon dra
Ġ20 20
Ġinter cal
Ġof erta
Ġap pro
Ġpos tura
Ġpareci era
Ġgra y
bo xd
Ġmun icion
Ġvo tes
Ġus aron
Ġri dd
Ġinf lex
tin son
Ġencan taron
Ġsupon emos
Ġcal co
Ġpes cado
Ġpres os
Ġval ga
Ġfan aticos
Ġlla ves
Ġhar to
Ġsac erdo
Ġenten d
Ġad qui
Ġbar ton
Ġgo ta
Ġfo und
Ġau tores
Ġins isto
Ġhor da
Ġsuen an
Ġcol os
Ġtrans mit
Ġtrans lation
pen sas
Ġespec tro
Ġrecor ds
Ġconf or
Ġcer can
Ġmer cado
Ġuni ted
Ġnom inacion
Ġnom brar
Ġencon trando
Ġpregun tado
Ġwh is
Ġmil ime
Ġdig nas
Ġjun ta
Ġdeb ut
Ġbla ir
Ġ15 8
Ġguer reros
Ġprof ecia
Ġpla gio
Ġ13 9
Ġaven tur
Ġcompar te
Ġcul m
Ġcome te
Ġwi de
Ġ11 1
Ġ17 587
Ġfran ce
Ġlan gu
Ġentra ba
Ġlog icas
Ġarri val
Ġmayor do
Ġbu itre
Ġesca po
Ġsobra ban
Ġfli pe
Ġconsegu ida
Ġmano lo
Ġsho uld
Ġimpresion ado
Ġfic ha
Ġpub lica
Ġexper tos
Ġfe ige
Ġmons ters
Ġreci ben
Ġmedi ano
Ġcompan ias
Ġreb ec
fo ur
Ġcl im
Ġrit chie
Ġinclu ya
Ġbr illo
Ġingen io
Ġcur rar
Ġdol lar
Ġsil ent
Ġvir tue
Ġvir gin
Ġpensando lo
Ġchris to
Ġplante an
Ġwal ken
Ġmezc lan
Ġpoli ticos
Ġtur n
Ġley en
Ġnew man
Ġsta tic
Ġusar lo
Ġentren ando
Ġsw eet
Ġnatur ales
Ġsimp son
Ġking dom
Ġaburri dos
Ġimpac tado
Ġ197 2
Ġavis a
Ġjajaj aj
Ġfar rell
Ġextre ma
Ġdam eron
Ġencar ga
Ġquitar on
Ġoper aciones
Ġrema tar
Ġcompren de
Ġchan ged
Ġsome one
Ġcarisma ticos
Ġfac tible
Ġbir d
Ġfri kis
Ġduro tan
Ġcuida da
Ġsilen ci
Ġmental idad
Ġenfo can
Ġorgan os
Ġhun ting
Ġapre ci
gg gg
Ġpri vada
Ġpus iera
Ġparal it
Ġplas mado
Ġestupi dos
Ġform ando
ded ores
sh ip
Ġthem e
Ġinsul sa
Ġmulti ver
Ġapocalip tico
Ġago bio
Ġcali ficacion
Ġregres ar
Ġanun cios
Ġpeda zos
Ġapla u
Ġaconte cimiento
Ġexisten cial
Ġarries gado
Ġquis ieran
Ġretras o
Ġmane ja
Ġmod elos
Ġartific iales
Ġcontes ta
Ġspe cial
Ġinm ig
Ġrecre ar
Ġglo bo
Ġignor ance
Ġhum illa
Ġdesas tros
Ġpob lado
Ġdetermin ado
Ġconden ado
Ġsorprendente mente
Ġempez ara
Ġlou is
Ġrol los
Ġhipo tesis
Ġbusc aba
Ġoli ver
Ġobserv ando
Ġwil der
Ġdisco teca
Ġacu de
Ġrepub lic
Ġadecu ada
Ġpajar os
Ġembara zo
Ġjae gers
Ġobvi ando
Ġestuv ieron
Ġrumor ea
Ġflu ido
Ġarque o
Ġtrascen dental
Ġparan ormal
Ġnove doso
Ġquer ria
eg ger
Ġcomis ario
Ġinjus tice
Ġlon ger
Ġventa ja
Ġapareci era
Ġamp li
Ġrober ts
Ġmj ol
Ġwea ver
Ġsubje tivo
Ġdiverti das
Ġnathan iel
Ġcatastro fe
Ġellio t
Ġdl c
Ġree ves
Ġasim ilar
Ġfasti dia
Ġaproxim adamente
Ġsobreac tu
Ġgrandi osa
Ġpala cio
Ġawak ens
Ġsingular idad
Ġampl ia
Ġmerce des
Ġshan non
Ġsqu ad
Ġhib rido
Ġgober n
Ġamel ie
Ġhorri bles
Ġartefac to
Ġmedie val
Ġheav y
Ġtruna co
Ġtrein ta
Ġletter boxd
Ġdistr ict
Ġcalifor nia
Ġmedian amente
Ġdesil usion
Ġmoth ra
Ġupload s
Ġquan tum
Ġkana ta
Ġmalko vich
Ġaberra cion
Ġsantia go
Ġmadure z
Ġpolter geist
Ġnisi quiera
Ġraud ales
b d
b ad
c rim
d g
f ather
i fica
k ir
l is
m un
n g
p ente
t ner
u le
u ble
u cha
v n
w k
x w
y ente
Ġp ine
Ġl er
Ġs truc
ue ra
Ġa ur
Ġde du
Ġque rias
Ġes tri
Ġes bir
Ġn ido
in ter
ta p
Ġen rique
ic s
al istas
ci tas
Ġno tar
ra co
Ġb d
Ġb ren
om ir
Ġse es
Ġme dica
Ġme tiendose
Ġcon no
el y
Ġlo tr
Ġpar aba
Ġpor ra
Ġre z
Ġre emp
Ġre mor
Ġre iv
Ġre tira
Ġre ju
Ġsu g
ec kis
lo way
de la
Ġto x
Ġin te
Ġin tras
Ġin des
Ġmu uuuu
Ġcu yos
Ġesta m
Ġmas as
Ġmas iva
Ġle igh
Ġso uth
Ġdes ti
Ġdes ign
Ġdes mem
tan g
Ġmi as
Ġdi reis
Ġpro tes
Ġma que
gu ar
ga ta
Ġten gamos
ib an
Ġvi via
Ġtra go
Ġca t
Ġca ted
ho p
par ts
ie go
ie ves
Ġbas ton
Ġbas adas
ac uerdo
Ġman dado
Ġmen tor
Ġlle ven
Ġmis sion
Ġcar av
Ġrec ic
Ġro ban
Ġro cas
Ġpre ven
Ġpre tty
Ġpe eta
Ġpe garse
Ġpe gg
Ġra ton
Ġmar c
Ġmar s
Ġmar ta
Ġmar got
Ġdis cus
Ġfor tun
Ġ10 80
Ġgu antes
Ġor e
Ġor son
Ġdu cha
Ġlu ci
Ġpon dran
Ġdon e
Ġ20 49
Ġesper e
Ġven gar
Ġinter view
ina tion
qui tos
Ġfue lle
Ġcine asta
Ġmuer t
cu lado
Ġcomp r
Ġpareci das
ill y
fer encia
Ġgra ce
Ġna vio
Ġlib era
Ġmin as
Ġdecir me
Ġmon tando
Ġmon umen
Ġcab ida
Ġcan dy
ck er
Ġsegu ire
Ġnue v
Ġus en
Ġus ed
Ġinten ten
Ġinten so
Ġmor tensen
Ġ9 4
Ġcal a
Ġimag e
Ġpres a
Ġvar ian
tiv es
Ġllev adas
Ġval ent
Ġli arla
Ġesp osas
Ġz ub
du lo
Ġrep rim
Ġtras to
Ġimpor tado
Ġbar ran
Ġfo ur
Ġstar t
Ġju gada
Ġtar an
Ġtar kin
Ġneces arios
Ġexplic aria
Ġefec tivo
Ġrecor d
Ġconf iden
Ġtr illa
Ġmatar on
Ġlar son
Ġnom bran
Ġtor tur
Ġlen tas
Ġlen tamente
Ġdeb iles
elo w
Ġenter arse
Ġpin ce
Ġdesa ta
Ġmos cas
Ġcul tural
Ġmucha cho
Ġdejar le
Ġ11 0
Ġescri bo
Ġlan da
Ġlan zando
Ġbra vo
Ġbra gas
Ġgustar me
Ġtemp le
Ġmov iendose
Ġcla vo
Ġfuncion e
Ġpresen tes
Ġbu ro
Ġdesp is
Ġdesp lie
Ġ18 5
mon d
Ġcru zada
Ġbel le
Ġsenor as
Ġrela tos
Ġreci biendo
Ġhol andes
Ġengan ado
Ġconsider ado
Ġexplicar an
Ġdobla jes
Ġdesta can
Ġexac ta
Ġbr ing
Ġrap tor
Ġbuscar la
Ġtes tigos
Ġrefle jado
Ġdificil es
Ġtri er
Ġauto des
Ġapor tado
Ġcir cular
Ġnum er
ches ter
Ġdesen tona
Ġimper iales
Ġnecesita ban
Ġprepar ada
Ġpul so
Ġsimp atico
Ġperdon ar
Ġamerican as
Ġterminar la
Ġsty le
Ġnie go
Ġconcre ta
Ġdam ien
Ġamena zas
Ġacor ral
Ġspo il
Ġescon didos
Ġresca ta
Ġrecuper acion
Ġinvesti gando
Ġacci dental
Ġestren ar
Ġbl ues
Ġenamor o
Ġfri aldad
pu lo
Ġsuici dar
48 27
Ġpl us
Ġmental mente
Ġpilo tar
Ġdescono zco
Ġbil is
Ġcans ino
Ġfox x
dr ome
dddddddd dddddddd
Ġcomplic ada
Ġthr all
Ġdespe dir
Ġform al
Ġcambi aron
Ġedad es
Ġeas ter
Ġhaw k
Ġsoli to
Ġcargan dose
Ġevery one
Ġspace y
Ġscar y
Ġscar let
Ġgood man
Ġenvi an
Ġaluc inaciones
Ġasegu ro
Ġsel ina
Ġpaci encia
Ġviolen tos
Ġespiri tus
Ġsimbol iza
Ġcel es
alla mas
Ġarras tra
Ġarries gada
Ġposi tiva
Ġprision ero
Ġinm une
Ġram parts
Ġcy ber
Ġdisen ado
Ġknight ley
Ġeter nos
Ġangus ti
Ġchun ga
Ġprofesion ales
Ġtranspor te
Ġpalomi tero
Ġempu ja
hol land
Ġcub rir
Ġdesin tegra
Ġral ph
Ġsy mp
Ġoli ve
Ġnova to
Ġdescen so
Ġsum amente
Ġdiv or
Ġdiv ino
Ġminis terio
Ġmillion aire
Ġoptim ista
Ġtac ones
Ġafir ma
Ġelab orado
Ġchi hiro
Ġindic ar
Ġcruel dad
Ġaterri za
Ġcour se
Ġexpon en
Ġhuel la
Ġdespi de
Ġodi ar
Ġextin cion
Ġits elf
Ġmercen ario
Ġfrus tracion
Ġbrid ges
Ġjen ny
Ġamp lio
Ġdisci pl
Ġbienven idos
Ġsound track
Ġmiser ables
Ġfore ver
Ġpaus ado
Ġcao tica
Ġentier ro
Ġdesinf la
Ġcoun try
Ġimpi de
Ġespecula ciones
Ġfrene tico
Ġaverigu ar
Ġinfra val
Ġpring ado
Ġhop kins
Ġchascarr illos
Ġbey ond
Ġ271 4827
Ġnaufra go
dimension al
Ġpok emon
Ġsopori fera
Ġfib ra
Ġfacepal m
Ġhes ton
Ġnico le
Ġisa ac
Ġdors ky
Ġzem eckis
Ġmayordo mo
Ġchristo ph
Ġreju ven
Ġintras cen
Ġ2714827 22
a i
b ios
c am
d iera
d rian
e cido
f x
f ir
f ada
f all
g ente
g ran
g usto
i h
i ficado
k g
l im
m j
m ing
n d
n ec
p r
q g
r w
u a
u mas
v ieron
v all
w w
x on
y es
z q
z go
Ġe co
Ġe duc
Ġe fica
Ġe gg
Ġp il
Ġp ino
Ġd ada
Ġd ying
Ġs ana
Ġs tron
ue tas
Ġa per
Ġde vo
Ġde ak
Ġm imo
que za
on t
on so
Ġque s
Ġes ti
Ġla ke
Ġla zar
or p
or os
or ias
re z
Ġv el
Ġv il
Ġb ag
om ia
is pe
Ġse co
Ġse ca
Ġcon to
Ġcon duciendo
Ġha gamos
el s
el la
Ġg aron
Ġal tib
Ġpar che
ro f
Ġo wen
Ġo bed
Ġcom and
Ġsi erra
Ġsi dious
Ġsu mar
le tos
po int
Ġin es
Ġin quis
Ġin mejor
us ly
Ġdel ito
ri da
Ġesta tua
Ġesta fado
Ġle one
Ġso vie
Ġdes gar
Ġw ido
Ġw ha
Ġan do
Ġac tividad
tu ro
ig ni
tos a
ce u
Ġex cen
Ġpro ject
Ġas en
ica cion
dos is
ran ce
Ġcre emos
ga o
Ġsal imos
Ġsal dran
Ġte jado
Ġte ddy
Ġvi k
Ġsin ger
Ġr alla
Ġgus anos
Ġpas es
Ġtra tarse
Ġtra idor
Ġhay amos
Ġco w
ca pa
Ġk ne
Ġk it
Ġbas an
Ġbas ica
Ġch us
Ġch ulas
Ġman ada
Ġmis sing
Ġcar ente
Ġcar gando
Ġcar encias
Ġcar guen
Ġam ores
Ġam able
Ġam igas
Ġsab remos
ver ly
pi ta
Ġprim ario
Ġpe z
Ġra cha
Ġra cismo
Ġjo dan
Ġenc are
Ġmar a
Ġda in
Ġdis im
um ba
Ġpu f
Ġgu iller
Ġor gas
Ġexp uls
Ġpun isher
Ġdu de
Ġpare jas
Ġven as
Ġhacer les
tim illon
qui ta
Ġsuper vil
Ġne tw
ren t
Ġfal taria
Ġcomp in
Ġcomp asion
be o
Ġhi jas
Ġgra du
Ġna tional
Ġob li
Ġ8 1
vel o
Ġig n
Ġsegu ian
Ġbo th
Ġ19 46
Ġ19 39
ge ts
Ġmor eno
Ġhabia mos
Ġpres ta
Ġpres ti
Ġvar iar
Ġfan atico
Ġli qui
Ġbe verly
Ġhar mon
Ġhar ispe
Ġbat movil
Ġcontra ta
ros s
Ġenten demos
Ġtras tor
na h
Ġpi dio
Ġad on
Ġad rien
Ġbar ro
Ġbar rera
Ġstar lord
Ġju pi
Ġestu dian
Ġcol oso
pel o
Ġneces arias
Ġmue res
Ġconf io
Ġcer emon
graf ico
Ġpregun te
Ġcin cuen
Ġinterpre tada
Ġdig n
Ġtor etto
Ġresul te
Ġencuen tros
Ġenci erra
Ġsalv ador
Ġvolver an
Ġrom a
Ġrom pio
Ġrelacion adas
Ġja ula
Ġja zz
Ġdejar la
Ġ11 2
for me
Ġgi ve
dic es
et z
Ġgrande za
Ġpreci oso
Ġarri ves
Ġata cando
Ġpresen tado
Ġolvi das
Ġmir ror
Ġesca pando
Ġflo jas
Ġtre pi
Ġbor dado
Ġrazon able
Ġquedar te
Ġprome tida
Ġtop ico
Ġtem er
Ġacabar an
vier te
Ġemocion ar
Ġseguir ia
Ġ24 3
ph y
Ġaf uera
aaaa a
aaaa aa
Ġrepar te
Ġbaj os
Ġav p
Ġele ven
Ġconten er
Ġobs erva
Ġvir tual
Ġvir tudes
Ġnor ma
Ġdesapar ezca
Ġru inas
Ġtes s
Ġplante ar
mm mm
Ġenfer ma
Ġwor d
Ġtrabaj an
Ġarm amento
Ġauto ps
Ġart ist
bor ra
Ġcha po
Ġfas es
Ġcuad rar
Ġcurios idades
Ġagra do
Ġtiro teos
Ġayu de
Ġed gar
Ġsir va
Ġgas tar
Ġcuar en
Ġmul holland
Ġmul timillon
Ġsimp l
Ġtw in
Ġimpac tantes
Ġtecn icos
Ġqui jo
Ġ197 5
Ġgolpe ar
Ġfar sa
Ġaj eno
Ġexten sion
Ġesco gido
Ġlogra das
Ġjul ieta
Ġescon der
Ġever est
Ġconseguir lo
Ġbio grafia
Ġabra za
Ġtrip as
Ġatmos fer
Ġorgan ismo
Ġdescono cida
Ġprofes ores
Ġteor icamente
Ġpublic ado
Ġpat tinson
Ġback ground
Ġlibre s
Ġposterior i
Ġmagni tud
Ġencer rar
Ġpura mente
ajar os
Ġtermin ara
Ġatre vido
Ġgr in
Ġ196 6
Ġrele vo
Ġmovil es
Ġreflex iones
Ġom ni
Ġsolucion ar
Ġino centes
Ġsun dance
Ġdeba tir
Ġorg ullos
Ġcue lan
Ġpho tos
Ġgro up
Ġtraicion a
Ġsospech ar
Ġadmi ra
Ġencontra dos
Ġinm un
Ġpegan dose
fil m
Ġagar rado
Ġcomunica ciones
cra cia
Ġlic en
Ġtranspor ter
Ġestudi ando
Ġedu ardo
Ġmarion eta
zen egger
Ġnu lo
Ġcentra da
Ġdeclar acion
Ġpartici pe
Ġfron tera
Ġencaj an
Ġbun uel
Ġatraves ar
Ġgamb a
Ġpego te
Ġmom my
Ġsubn ormales
Ġmich el
Ġarque tte
Ġlanz allamas
Ġterrible mente
Ġtortu ga
Ġaterri z
Ġperm it
Ġcran ston
Ġfoo t
Ġadiv inar
Ġue de
Ġretur ns
Ġcontac t
Ġhin ca
Ġanto jo
Ġfemin ista
amo unt
Ġgalac tus
pres s
Ġdestin ado
Ġdificul tades
Ġochen tero
Ġmisterios amente
Ġcorridor s
Ġsul ly
Ġatom ica
Ġtea tral
Ġlegendar io
Ġshado w
Ġinterven cion
Ġmilen ario
Ġpaga fantas
Ġresurrec cion
Ġimpul so
Ġencier ran
orden adas
Ġdecad encia
Ġdistingu ir
Ġinspec tor
Ġaux il
Ġatravies a
Ġpayas os
Ġindom able
Ġgaza po
Ġcontraa taca
Ġderre pente
Ġtrooper s
Ġscho ol
Ġelef ante
Ġescomb ros
Ġtrains potting
Ġsonre ir
Ġabar car
Ġmadru gada
Ġinflex ion
Ġmediano che
Ġmjol nir
Ġfortun a
Ġdeak ins
Ġgaron a
Ġcomand ante
Ġguiller mo
b m
b in
b las
b ian
c le
d iendose
e to
h r
h x
h is
h il
h ip
h oras
i ando
i pe
i tion
i ko
m ine
o th
p b
p aces
s ar
s ky
v b
v z
z g
z er
z arse
Ġ omi
Ġe wan
Ġp ica
Ġd uel
Ġl ena
Ġs pol
Ġs illon
Ġa te
Ġa via
Ġa tico
Ġc era
Ġde no
Ġde vas
Ġm iente
Ġm ight
Ġm omo
ar i
Ġt as
Ġt at
Ġes t
Ġy us
Ġn ess
Ġen gen
es iones
al ea
ci les
da bles
ra ft
Ġf at
is ton
Ġme m
Ġme ets
la miento
ien t
ien tas
Ġg ad
Ġal ic
Ġal em
Ġlo th
Ġlo vec
Ġre tir
Ġsi d
Ġsu bre
Ġsu ba
de ad
Ġto c
Ġin da
Ġin cu
us as
Ġmu tu
ab ul
ti za
Ġpara guas
Ġle ar
ier nos
Ġdes mor
Ġdes gas
Ġan iston
Ġver onica
uen a
Ġmi x
Ġesc and
Ġex ci
di dad
ten to
ul an
Ġma il
Ġma zo
Ġas ks
Ġcre w
Ġsin tiendo
Ġr ut
Ġpas adas
Ġtra mos
Ġtra vis
Ġtra tase
Ġco dic
par ent
pe ta
ac as
Ġch alla
Ġman ta
Ġman tu
Ġman dal
Ġman icom
Ġcos m
Ġres en
Ġcas e
Ġcas s
Ġcas tana
Ġva cios
Ġcar g
Ġcar l
Ġro le
Ġro za
Ġpre via
Ġpre lu
Ġhan nibal
Ġpe p
Ġra ce
Ġra tas
Ġra ven
Ġenc ub
Ġmar tes
Ġmar ine
Ġmar sh
Ġmar aton
Ġdej ad
Ġdis gusto
Ġentre gar
Ġ10 4
Ġ10 9
Ġgu ard
Ġgu ild
Ġtamb or
Ġdu vall
Ġpare zcan
Ġesper es
Ġesper aban
Ġven tan
Ġinter v
Ġof en
Ġcor tando
Ġcor ona
ren o
Ġfal tar
Ġap ple
Ġsa ciedad
Ġapar a
Ġpos ta
Ġcomp lica
dar io
bo ys
Ġna vi
Ġinc ul
Ġcons tan
Ġir is
Ġcam pan
ber s
Ġ8 3
Ġho le
Ġem po
Ġand an
Ġbo tas
Ġbo bby
Ġ19 55
Ġ19 53
Ġus ing
ge t
Ġmor o
Ġmor r
Ġinf ar
Ġu f
Ġu to
ton o
Ġemp at
Ġemp resas
Ġforma cion
Ġespeci fico
Ġllev aria
Ġactor azos
Ġba ila
Ġbe biendo
Ġbe bes
Ġbe ast
Ġlla men
ger as
Ġgan arse
Ġsac ados
Ġden sa
Ġesp iral
Ġz ar
Ġenten deis
Ġtras lada
Ġtras pas
Ġton e
Ġtener la
Ġad rian
Ġimpor taba
Ġorigin almente
Ġdan os
Ġsor t
Ġtrans fondo
Ġtar dan
Ġfi ve
Ġexplic itamente
Ġentreten idas
Ġagu ante
Ġagu ila
Ġref u
Ġta e
Ġol vid
Ġpapel etas
Ġ12 3
Ġenci ende
icos is
nos is
Ġuniver se
Ġpla zo
Ġsalir se
Ġlim pieza
cil los
Ġ13 5
Ġ13 7
Ġentender la
Ġcompar ada
Ġder rum
Ġcritic an
Ġdisfru tas
Ġconsig a
Ġnina tos
Ġpier re
Ġdescu bra
Ġ14 4
Ġgi ves
Ġbra u
Ġguar deria
Ġdispar ado
Ġpreci so
Ġabur rio
Ġconven iente
Ġsho ts
Ġpolic ial
Ġdir an
Ġexper iencias
Ġtro pa
Ġhue cos
Ġterror istas
Ġ21 1
Ġllam arse
Ġprome tia
Ġtem b
Ġexis tido
Ġren e
Ġ22 6
Ġrela tivo
iel and
Ġhol land
Ġprofun damente
Ġcontar a
fo bia
Ġcl in
Ġdobla dor
Ġrepar tir
Ġcomun es
ore an
Ġinclu idas
Ġele gante
Ġele gidos
Ġing res
Ġdiver tidos
Ġcur tis
Ġjue z
Ġacep tado
Ġacep tacion
Ġdark ness
Ġhech izos
Ġsil ba
tun o
Ġsur vi
Ġconta m
Ġtrabaj adores
Ġart istas
Ġaco pla
Ġquedan dose
Ġdestro zan
Ġbal con
Ġbal let
Ġpis a
Ġconfir med
Ġrecono cido
Ġdom es
Ġdom ina
Ġcho car
Ġiden tico
Ġpelo ta
Ġmc car
Ġdead shot
Ġbut ler
Ġevolucion ar
Ġconoci das
Ġinfec tada
Ġexplo tando
Ġimpac ta
Ġavis ado
Ġbich ar
Ġpredeci bles
Ġelec ciones
Ġsue ro
Ġrun ning
Ġblo w
Ġsigo urney
Ġcinemato grafia
Ġprofundi za
Ġstre ep
Ġafec tar
Ġexag era
Ġprovo cando
Ġfri k
Ġfri ed
Ġbio pic
Ġcalle jon
ical ly
Ġboy le
11 51
Ġtrip le
Ġagen da
Ġdiscur sos
Ġhun ger
Ġaclar an
Ġpermi ten
Ġpri vil
Ġmues tren
Ġencer rada
Ġexager ados
Ġmantener se
Ġreun e
Ġsoli da
Ġexces iva
Ġescuch aba
Ġmanip ulado
Ġarran que
ffff ffff
Ġconvencer me
Ġcron enberg
Ġscre am
Ġcach ondo
Ġexpres s
Ġexpres ividad
Ġdeba tes
Ġtransfor man
Ġapla usos
Ġsimbol ico
Ġweb s
Ġpho to
Ġtin ie
Ġtraicion ar
Ġdesesper ada
Ġego ismo
Ġcontrolar lo
Ġear l
Ġintu ir
Ġnick y
Ġcuch illa
Ġcuch illos
Ġrecre a
Ġocu par
Ġdil emas
Ġcli p
Ġpay ne
Ġans iedad
Ġconex iones
Ġconflic tos
Ġinca paces
Ġinmor tales
Ġjuras ico
Ġcaracteris tico
Ġdetermin ados
Ġconden a
Ġinvi ta
Ġacadem y
Ġinsta lacion
Ġcompu tadoras
Ġnego cio
Ġnumeros os
Ġtos ar
Ġsto ck
Ġtron os
Ġminis tro
Ġetern al
Ġbene fic
Ġfrag mentos
Ġantic ip
Ġdesf ase
Ġbritan ica
Ġretor cido
Ġet ce
Ġcran eo
Ġkid man
Ġproce de
Ġenvej ece
Ġhack er
Ġfalle cido
Ġgim li
Ġkra ken
Ġfaci les
Ġhappen ed
Ġwit ch
Ġgalac tica
Ġsolar is
Ġtunel es
Ġaficion ado
Ġdus tin
Ġindependen t
Ġdevuel ve
Ġtopica zos
Ġench uf
Ġmedic ina
Ġdescan so
Ġanalo gia
Ġvigil ancia
Ġdeprim ente
Ġdepre dador
Ġwee k
Ġcoinciden cias
Ġaustral ia
Ġindign ado
Ġvelocirap tores
Ġseem s
Ġguin da
Ġdiscurs ito
Ġocci dental
Ġrevuel tas
Ġestudia do
Ġsit ges
Ġtrian gulo
Ġcongres ista
Ġmilag ros
Ġirra cional
Ġtsun ami
tivi ty
Ġtripul antes
Ġcaptu ran
Ġschwar zenegger
Ġdaw son
Ġoran ge
Ġbalro g
Ġimperdon able
tap ajaros
Ġencare cidamente
Ġnetw ork
Ġjupi ter
Ġcincuen ta
Ġhinca pie
Ġalem ana
Ġprelu de
a ce
c x
f l
f eo
f avor
f uck
h in
j l
m g
m il
p x
p rise
r us
r ina
r ich
t isimos
u mp
w l
w ers
Ġe b
Ġe vas
Ġp k
Ġd d
Ġd im
Ġd ron
Ġl so
Ġl omb
Ġl istas
Ġa res
Ġa ba
Ġa tt
Ġa fe
Ġc uerdo
Ġde ta
Ġde acuerdo
Ġm ajo
Ġm aje
Ġque spoiler
Ġes tres
Ġh uelo
un tos
Ġy et
Ġn em
Ġn at
in co
re k
ta o
Ġen du
es pal
al ia
te ad
ci ada
ci era
Ġno omi
Ġf ien
Ġf eria
Ġf itz
Ġse ten
Ġme la
Ġme dal
la je
la dora
Ġcon cur
Ġcon tados
Ġha ter
ia h
Ġg g
Ġg ado
Ġg av
Ġg ome
Ġal tera
Ġlo oper
Ġo da
Ġcom man
Ġper u
Ġper la
Ġper rito
Ġre du
Ġsi rena
Ġsu pi
Ġto cara
Ġin er
ch in
ti das
ri z
Ġmas cado
Ġle j
Ġle eros
Ġle ais
ad ito
Ġso pa
Ġdes ha
Ġw omen
Ġw ent
Ġw ah
Ġan on
Ġan iqu
tan ea
dad ores
Ġfin ds
Ġdi osa
Ġser ios
ol lo
ol ito
Ġma p
Ġma ya
Ġma ton
Ġas gar
ran dose
Ġcre cimiento
Ġten sa
Ġsal em
Ġte ta
man uel
Ġsin ce
Ġescen o
Ġr up
Ġpas ad
Ġtra ga
Ġtra umas
ur ia
ur ke
Ġco gio
Ġco ordenadas
Ġca es
mas ter
mas car
mo ur
Ġim o
Ġmal vada
Ġch am
Ġch lo
Ġch ill
Ġman dando
Ġres t
Ġres ide
Ġi van
Ġcas arse
Ġva ug
Ġcar to
Ġmejor able
Ġsab io
Ġsab iendas
ver se
tt om
Ġsobre dosis
Ġro urke
Ġpre ve
Ġpre vi
Ġpre deces
Ġpe te
Ġenc ad
Ġmo tores
Ġmo dulo
Ġmar v
Ġdis top
Ġdis pone
Ġdis minu
Ġdis capa
Ġfor zar
Ġpa ciente
um s
Ġpu t
Ġgu iar
Ġor gia
Ġdeci da
Ġexp rim
Ġdu dando
Ġlu cido
Ġlu bez
Ġhec tor
den ce
tras e
Ġdo o
Ġven a
Ġven ge
Ġimp la
tic al
Ġcor ro
me la
Ġne p
Ġap el
Ġsa tura
Ġhi lado
Ġacab en
gan cia
Ġcons truc
Ġcam illa
cen do
Ġ7 00
Ġho ur
Ġhub ieras
Ġvo taciones
Ġ19 0
Ġ19 27
Ġ19 32
Ġri ta
Ġles tran
dor as
Ġmor ib
Ġmor iar
Ġencan taria
ris mo
Ġu y
Ġu per
Ġu tm
ton ces
Ġvuel ves
Ġhom bros
Ġcal iente
Ġimag inas
Ġtal iban
Ġpes ci
Ġpres cindibles
Ġli ves
Ġdia z
Ġgan ara
Ġsac aba
Ġcontra p
Ġbru to
Ġcuan ta
Ġpi ro
Ġsh uman
Ġfilm ada
Ġfilm ma
Ġinteres e
Ġmalo tes
Ġtar do
Ġgusta ban
pen sa
Ġfi jarse
Ġrecor rido
Ġconf ia
Ġconf ig
Ġconf iar
Ġdra x
Ġdra mas
Ġmatar an
Ġlar ry
Ġencon trara
Ġcin em
Ġcin ico
Ġtor ino
Ġjun o
Ġdeb era
Ġ15 3
Ġ15 7
zon a
Ġsalv arla
Ġpin k
tur ales
Ġultima tum
Ġpla ga
Ġfantas y
Ġreg imen
Ġempe zas
Ġhaciendo lo
Ġrelacion ados
Ġcompar able
Ġat las
Ġcen tin
Ġcen izas
Ġenf asis
Ġwi kia
Ġdejar me
Ġvio lar
Ġ11 7
Ġbon g
Ġfis icos
Ġata cado
Ġequi pos
Ġfuncion amiento
Ġbu yers
Ġbu ried
Ġtre e
Ġrecomen dad
Ġcontin ue
Ġga un
Ġfe ar
Ġterror ifico
Ġinic iar
Ġprome tido
Ġtop ic
Ġbel icas
Ġemocion e
Ġrela tividad
Ġhol loway
Ġaf ro
Ġconsider an
Ġag il
Ġag ilidad
Ġimpos ibles
Ġzomb ieland
Ġmete mos
Ġlin ks
Ġbr uno
Ġdefin ido
Ġconten tar
Ġblan can
Ġcur rada
Ġgar field
Ġespan tapajaros
Ġobje tiva
Ġintentar a
Ġplante ada
Ġtira da
Ġespectacular idad
Ġsur gido
Ġconta gio
Ġtrabaj ada
Ġarm y
Ġevi tado
Ġauto p
Ġrob ando
Ġfol low
Ġintro du
Ġintro ducido
Ġmezc lando
Ġpoli ticamente
Ġpsico logia
duci dos
Ġchar lot
Ġpis os
Ġconfir m
Ġconfir mo
Ġbur ning
Ġcho can
Ġdro ide
Ġdro ides
Ġsincer o
Ġras car
Ġras pado
Ġanad iendo
Ġmia mi
Ġech arse
Ġgua pos
Ġgua pas
Ġconc uer
Ġcuar tos
Ġdesper tarse
Ġsimp ati
Ġroman ticas
Ġmoles tar
Ġ197 6
Ġ197 8
Ġencar go
Ġdejando lo
Ġresis tir
pp ing
Ġdefen diendo
Ġwa i
sel os
Ġchor re
Ġfac ciones
Ġcoher ence
Ġmono logos
Ġdorm i
Ġescal ada
Ġenfo cada
Ġnose que
Ġoportun idades
Ġinto cables
Ġarreg lado
Ġimagin ario
Ġcans ina
Ġprefer ia
Ġprefer iria
Ġind ig
Ġelim inada
Ġestupi deces
Ġsar geras
Ġreun ir
Ġevery where
Ġsigu iera
Ġvig ilando
Ġcop iado
Ġdep resion
Ġamar illo
Ġresuel ta
Ġperdi das
Ġenfermedad es
Ġviolen t
Ġquedas e
Ġcolo car
Ġescla vo
Ġparano ias
Ġdesesper ado
Ġquis ieron
Ġposi tivas
Ġbella trix
Ġjer ry
Ġjer jes
Ġcontes to
si ve
Ġpow ers
Ġgigantes co
Ġtun nel
Ġmunec a
Ġfrank enstein
Ġpata tas
Ġimita cion
Ġbox e
ille d
Ġculp ables
Ġinesper ada
Ġpose er
Ġpose ido
Ġcerc anos
Ġvolun taria
Ġcaracteris tica
Ġdetermin adas
Ġmodi ficado
Ġllen os
Ġviven cias
Ġhiper espacio
Ġsenti d
Ġcabre a
Ġcore ana
Ġempu jon
Ġidentific ar
Ġfemen inos
Ġkil os
dre z
Ġlab ios
Ġgay s
Ġpartici pa
Ġterren ce
Ġatropel lado
Ġrepro ducir
Ġdescen dientes
Ġacce de
Ġsecuestra do
Ġetern amente
Ġresiden cia
Ġcorrup tos
oooooooo oooooooo
Ġbene ficio
Ġafir mar
Ġobvi as
Ġlanz amiento
Ġsien tas
Ġaterri zar
Ġdiferen ciar
Ġcaptura do
Ġonir ica
Ġguarda espal
Ġparticip acion
Ġocurri ra
Ġcontemp oran
Ġinmen so
Ġmila gro
Ġanima ted
Ġhappen s
Ġwri tten
Ġmelo drama
Ġdich os
Ġabier tas
Ġesqu ina
Ġwins let
Ġdisci pulo
Ġdesencad en
Ġfrancis co
Ġmuuu y
Ġlesb iana
Ġ1759 60
Ġ1759 40
Ġbrook s
Ġdure za
Ġdob lado
Ġdepor te
Ġcolabor acion
Ġsimplon a
Ġconge lado
Ġdiscul pas
Ġkings ley
Ġnan cy
Ġaer eo
Ġ1777 51
Ġaconse jo
Ġcoh en
Ġesen cial
Ġargen tina
Ġparalel ismos
Ġdemen cia
Ġlapi z
Ġrees cri
Ġfall ido
Ġagon ia
Ġdiabol ico
Ġpilar es
Ġvue lan
Ġconfund ir
Ġdila tacion
Ġirlan des
Ġkenne dy
Ġminor ity
Ġdiger ir
pier cer
Ġconfies a
Ġbols illo
Ġgin ny
Ġpluma zo
Ġpab lo
Ġaje drez
Ġflic kr
Ġmoul in
Ġrebec ca
Ġleyen das
Ġparalit ico
Ġcarav ana
Ġconfiden tial
Ġdiscipl ina
Ġquijo te
Ġmomo a
Ġloth ar
Ġescand alo
Ġmanicom io
Ġmorr alla
Ġtinie blas
Ġfien nes
Ġgome z
Ġvaug hn
Ġlubez ki
Ġvenge ance
Ġguardaespal das
a te
a ir
b j
b z
b ias
d c
d ul
f it
g l
g ic
g ren
g est
j ados
n ante
o h
p c
p ido
p ris
q a
t d
t v
t ien
v l
v ales
w all
z cas
z elle
Ġe u
Ġp ib
Ġd j
Ġd ados
Ġd uela
Ġs tr
Ġs pen
Ġs pan
Ġa mas
Ġa vi
Ġa dd
Ġa tur
Ġc ito
er na
Ġde duce
Ġm s
Ġm ica
en or
en ten
on ed
Ġh uer
Ġh alo
un ch
un di
un dan
Ġen vio
Ġen ough
Ġel u
Ġel ip
es is
al i
al ismo
ci ando
Ġf ie
Ġf ell
Ġb iz
Ġb um
is m
is se
Ġse que
Ġse amos
Ġme tia
Ġcon ducir
Ġha ha
el lo
el and
el ess
ia m
ia mos
Ġal mos
Ġlo w
Ġpar ir
Ġpar idas
Ġpar king
Ġo puesto
Ġo zy
Ġo jete
Ġcom arca
Ġpor ke
Ġpor favor
Ġre que
Ġre po
Ġre ad
Ġre ducir
Ġre ady
Ġsi p
Ġsu ceso
le men
ec cion
de te
de puta
Ġto by
po te
Ġin a
Ġin cer
Ġmu tacion
Ġmu gg
Ġmu xo
Ġdel gada
ch ino
Ġesta mpa
Ġesta llar
Ġmas caras
Ġle ones
Ġle vante
Ġdes tel
ado ok
Ġw ron
Ġan tor
tan eo
em ble
Ġpo table
Ġac ues
ter ran
tu oso
ig on
Ġmi de
Ġmi tele
Ġdi ra
Ġser ias
Ġex hib
ten cias
Ġma car
dos poiler
Ġtien de
Ġcre ciendo
gu i
Ġtodo poder
Ġsal te
Ġte d
Ġvi king
man a
man era
Ġya tes
Ġr h
Ġr ug
Ġgus tase
lan a
Ġtra en
Ġtra fico
Ġbuen isimos
Ġti quis
ca u
Ġca ver
Ġca gue
Ġson riendo
Ġ3 60
Ġ3 59
Ġ3 26
Ġk as
Ġk un
Ġk is
Ġk ira
ac os
Ġch ita
Ġtan ger
Ġcos tner
Ġar res
Ġar tic
Ġres erv
Ġres cue
Ġi das
Ġcas queria
Ġva cias
Ġlle gaba
Ġcar ell
Ġam pu
ver tido
Ġsobre manera
Ġprim i
Ġah on
Ġhan cock
Ġra cista
Ġra ging
Ġjo ke
Ġjo diendo
Ġab ran
Ġmo ch
Ġmo tin
Ġmar g
Ġfor ero
Ġsus an
Ġpu te
Ġpu ff
Ġeste mos
Ġgu an
Ġhis ter
Ġexp ul
Ġpues tas
Ġreal izo
Ġpon iendose
Ġdon g
Ġ4 38
Ġ4 19
Ġ20 21
den t
Ġdo quier
Ġven ian
Ġven cido
Ġimp ens
Ġsuper acion
Ġgen u
Ġne uron
Ġfal tas
li t
li da
li tas
Ġsa gra
Ġapar enta
rec ta
ill eros
Ġgra cie
Ġacab ada
gan dose
ag er
Ġmon itor
Ġfil as
Ġcam in
Ġcab ras
Ġvo lo
Ġvo tar
Ġvo tado
Ġvo lador
Ġcan taba
Ġ19 42
Ġ19 41
Ġpens ad
Ġpens ada
Ġmor do
Ġencan tar
che z
ton ia
Ġespe jos
Ġemp un
Ġcri as
Ġsec ond
Ġtal e
Ġpes ca
Ġpres o
Ġpres s
Ġpres um
Ġval er
Ġval ia
Ġval ley
Ġba ker
Ġestar e
Ġib as
Ġden is
Ġdirector s
Ġminu tes
Ġz umb
du il
Ġton os
Ġpi ka
Ġci tado
Ġon das
Ġfa uno
Ġgo ya
Ġau ton
Ġsh at
mi quis
Ġins truc
Ġtotal idad
lla do
Ġcol m
Ġcol lar
Ġcol inas
Ġcol gante
Ġmega post
Ġtrans f
Ġtar zan
Ġje fes
Ġneces ite
Ġefec tista
duc tor
Ġpan tallas
Ġuni forme
Ġargumen tar
Ġta ilan
Ġmil ius
bra do
Ġol er
Ġol imp
Ġ12 6
Ġ12 9
Ġtor ne
Ġrey nol
Ġlen tos
Ġlen ny
Ġcomple men
Ġpin tado
Ġcap turas
Ġpla us
Ġpla tos
Ġpla tes
Ġtend ras
Ġfu ri
Ġdocumen tary
Ġpeque n
Ġreg ala
Ġconver sa
ular es
Ġ13 2
Ġ13 6
Ġcompar as
Ġmag icamente
Ġvio lado
Ġchica go
Ġ11 3
Ġ17 4
for t
Ġdeberia is
Ġdeberia mos
Ġmorir ia
Ġps icosis
Ġjam ie
Ġconven cen
Ġrobo tica
Ġfuncion ando
Ġbrutal mente
Ġcrea tivo
Ġadap tada
Ġbu d
Ġdesp res
Ġcontro lando
Ġnar co
Ġconsegu idos
Ġsho o
Ġfic tic
Ġbor rado
Ġgru a
Ġtro lle
Ġfe w
Ġflash es
izar reta
Ġ21 8
Ġllam adas
Ġexis tian
Ġ22 7
Ġbel ica
Ġrela ta
Ġpuer to
Ġinven tando
Ġaf ric
Ġconsider aba
Ġexplicar me
Ġproyec ta
Ġfir mado
Ġsuel do
Ġdesta cables
Ġlin delo
Ġrap tores
Ġele v
Ġpra tt
Ġextra er
und ante
Ġmonta dos
Ġgar cia
Ġgar anti
Ġmalos os
Ġsalvar lo
Ġsuf rio
Ġbic i
Ġenfer mer
Ġavan zaba
Ġcomien dose
Ġcomien zan
Ġespanol as
Ġfre aks
Ġcir cu
Ġsigni ficar
Ġclo u
ent iende
Ġdesen ton
Ġbre aker
Ġenam ore
Ġfallo ut
Ġech aba
uri e
Ġevolucion ado
Ġgua peras
Ġsimp li
Ġsimp atica
tle t
tern al
Ġperdon o
Ġrecur ren
Ġlevan to
Ġpec ado
Ġhabita ble
Ġavis ados
Ġcojon udos
Ġamena z
Ġexten dido
andon os
Ġgem elas
Ġequivo que
Ġcere br
Ġjul es
Ġbomb ero
Ġrespe tado
Ġfac t
Ġlamen ta
Ġlamen tables
Ġcalle d
Ġlec turas
Ġdescono cia
Ġdetec tives
Ġprogra m
Ġapre cio
Ġpat ente
Ġcie gas
Ġtransform ado
Ġpus ieran
Ġmagni ficos
Ġara bia
Ġelim inadas
Ġbab adook
Ġatre vo
Ġreun en
Ġ196 2
Ġmoral idad
Ġpisto las
Ġgenera ciones
Ġsith s
Ġur l
Ġamar go
Ġrich ie
Ġcargar on
Ġviolen tas
Ġrodar on
Ġsopor to
Ġfren ch
Ġtin tero
Ġbeg in
Ġater rador
Ġimaginar me
Ġtel ita
Ġaff air
Ġdil u
Ġcli ps
Ġrepor tero
Ġincoher encia
Ġdefra udar
Ġindepend ientes
Ġgat taca
col ia
Ġadi es
Ġpsicopa tas
Ġaumen tar
Ġhard core
Ġfron t
Ġexpe diente
Ġsustitu ir
Ġcorrup to
Ġautom aticamente
wor ks
Ġbene ficios
Ġasum e
Ġvul gar
Ġrodri go
Ġcachon da
Ġcep illa
Ġparas ito
Ġexpon er
Ġcros so
Ġmone das
Ġperman ente
Ġextin gu
Ġcorrespon de
Ġconfun de
Ġenvej ecer
Ġtok io
Ġmam ada
Ġdispon ible
Ġadiv ina
Ġregen er
Ġinmedia to
Ġdesac uerdo
Ġgim bal
Ġkra mer
Ġinflu ye
Ġvideoc lip
Ġextraord inar
Ġadelan to
Ġcoco dr
Ġestadouniden ses
Ġeg ip
Ġmelan co
Ġmelan colia
Ġvivi an
Ġzapa to
Ġfacehug gers
Ġdiaman te
Ġochen tera
Ġterri bles
Ġreveal s
Ġreveal ed
Ġtopica zo
Ġtatu ajes
Ġspoile ar
Ġsinte tico
Ġdesaperci bida
Ġlabor al
Ġfijar me
Ġesplen dor
Ġsand ler
Ġretro ce
Ġexor cismo
Ġgasol ina
Ġgasol inera
Ġassass in
Ġpear l
Ġpear ce
Ġshado ws
Ġadm ito
Ġmetral la
Ġresal tar
Ġmatema tico
fel las
Ġdesem bar
Ġhomosexual idad
Ġchoco la
Ġcig ar
too ine
Ġgab riel
Ġatrever ia
Ġsangr ienta
Ġagradeci miento
Ġvergonz oso
Ġcontun dente
Ġsua vi
Ġindef en
Ġcruci ficado
Ġrecopi lacion
Ġametral ladora
Ġdegen er
Ġsuc ces
Ġclaus tro
Ġpanor ama
fana to
Ġtek ken
Ġdicta dura
Ġdespol le
Ġpape lazo
Ġcinefil os
Ġrasca ci
Ġator men
Ġenes ima
Ġmagu ire
Ġlangu age
Ġsug iere
Ġore jas
Ġvalent ine
Ġzub izarreta
Ġbarran co
Ġaltib ajos
Ġinmejor able
Ġwido w
Ġwha te
Ġtrepi dante
Ġautops ia
Ġaterriz aje
Ġspol ier
Ġyus uf
Ġmutu amente
Ġmandal or
Ġetce tera
Ġgado t
Ġchlo e
Ġgaun tlet
Ġalmos t
Ġtiquis miquis
Ġgracie tas
Ġreynol ds
Ġlindelo f
8 00
b c
b ara
c ador
c usion
e os
f r
g b
h j
i y
j n
j ack
k l
n zc
q r
q s
s w
s iva
t ly
w ork
x k
z h
z amiento
Ġe ddy
Ġp illas
Ġp ilas
Ġs lo
Ġs tun
Ġde man
Ġde gra
Ġde ducir
en tar
an s
Ġt ic
Ġt ag
Ġes q
Ġes bo
un dos
Ġn ab
Ġn ena
in able
ta ta
Ġen sa
Ġel sa
Ġv ara
es o
Ġno venta
ra dora
Ġf las
Ġf av
Ġb jor
Ġb acter
om bre
is tico
Ġse y
Ġme g
Ġcon je
Ġha il
ien den
ia o
Ġg le
Ġg um
Ġpar cial
Ġo dian
Ġo idos
Ġpor cierto
Ġre duce
Ġre tom
Ġsu ch
Ġsu bo
Ġsu minis
am ent
lo que
Ġto uch
Ġto bey
Ġin unda
Ġmu tos
Ġmu ll
ch ados
ti ga
ti jos
ti pos
ti bur
Ġcu aron
ri es
ri ante
Ġpara da
Ġle it
Ġle via
Ġso ul
Ġso ft
Ġdes l
Ġdes ter
Ġdes ma
Ġdes ay
Ġdes pia
tr ic
tr almente
Ġw en
Ġw ag
Ġan ar
Ġan tar
Ġan daba
Ġpo c
Ġpo lar
Ġpo zos
Ġac la
ter y
ter ed
Ġth ran
Ġesc an
Ġesc ul
ce ys
di tary
ol es
Ġpr isma
Ġhab ras
Ġhab reis
Ġma tch
Ġas tero
Ġfinal idad
Ġtien den
Ġcre encias
gu ro
Ġten ed
Ġte di
Ġvi ese
Ġsin tio
Ġescen ita
Ġthe o
Ġr y
Ġr ome
Ġtra jo
Ġco f
Ġco ord
Ġco jea
Ġca uso
Ġca gando
at ing
ie d
Ġ3 46
Ġ3 47
Ġk er
Ġk an
Ġk ip
Ġk illed
Ġmal igno
Ġmen udas
Ġcas an
Ġcas ita
Ġva y
Ġdic cion
Ġmis tico
Ġmis eria
Ġmis ticismo
Ġcar eta
vo lo
Ġam ado
cer ia
Ġrec omb
Ġsab reis
lar a
pi da
tt s
Ġprim avera
Ġro les
Ġro und
Ġpe w
Ġpe dante
Ġpe aks
Ġra ices
Ġjo d
Ġenc ab
Ġenc ante
Ġab ismo
Ġda ve
Ġdis cos
Ġdis posicion
Ġpa p
Ġpa usa
Ġpu re
Ġentre la
dd in
Ġor fanato
Ġpun t
den tales
Ġdo bby
Ġesper amos
Ġinter fer
ina zo
Ġcor tada
Ġcor red
Ġcor taron
Ġsuper ceys
Ġfal s
Ġfal lan
Ġter n
Ġap p
li que
Ġtoda y
rec es
Ġcomp uer
Ġcomp osicion
be e
ill ero
Ġgra ham
bo x
Ġna po
Ġna us
Ġna omi
Ġacab amos
Ġcons pir
Ġir me
Ġdecir les
Ġfil o
Ġclar idad
Ġcam iones
Ġcam isa
Ġsegu ida
Ġqueda is
Ġpod ras
Ġ19 59
Ġ19 48
Ġ19 36
Ġ19 45
Ġinten tas
Ġop tado
Ġhuman s
Ġhom b
tre am
Ġsec as
Ġsec tor
Ġpes im
Ġval ky
Ġli tera
Ġba tal
Ġsac ara
Ġtom adura
Ġesp el
Ġcontra tado
ros as
Ġrep ent
Ġton i
Ġcuan tica
Ġsub ray
Ġimpor taria
Ġjus tos
Ġau gus
Ġorigin s
Ġsh ame
Ġdan ger
Ġins uf
Ġins igni
Ġhor ren
Ġcol ar
ome jor
Ġcapi to
Ġseria mente
Ġentreten id
Ġsan chez
Ġdra mon
Ġperfec tas
Ġpan dilla
Ġmus ico
Ġmus tang
Ġnom inado
Ġta tooine
Ġmil las
Ġol sen
Ġ12 8
Ġjun e
Ġspi es
Ġspi ri
Ġrey es
Ġdeb ieron
Ġcomple tar
Ġhijo puta
cas t
Ġpin tas
Ġprof e
mar e
Ġfantas ias
Ġreg usto
Ġthor ne
Ġconver tira
Ġespa cios
pos itos
Ġvio lador
Ġgor das
Ġ11 4
Ġ11 9
Ġpier dan
Ġestil os
Ġ14 1
Ġgi ven
Ġmorir se
Ġguar ida
Ġvision ados
Ġbon itos
ak a
Ġacer tijos
Ġcla u
Ġorden a
Ġolvi dan
Ġbu fff
Ġcontro lan
Ġ18 0
Ġste al
Ġsho ot
Ġmad ura
Ġtenga is
Ġhic iesen
Ġmencion o
Ġmencion as
Ġterror ific
Ġ21 7
Ġ21 9
ud ir
Ġllam ara
Ġcues te
Ġencontrar an
Ġacabar la
Ġren ee
Ġ22 0
Ġbel fort
Ġemocion a
Ġreci b
Ġreci bio
Ġparecer se
Ġaf gan
Ġconsider ada
Ġcl iente
ona zo
ona zos
Ġinclu idos
Ġrespon dido
Ġsacar an
Ġsacar lo
Ġdefin idos
Ġsuic ido
Ġpais aje
Ġjue gue
Ġpreten der
Ġobje tivamente
Ġsil va
Ġbro ke
Ġllama tivo
Ġsuf ren
Ġrefle jos
Ġrefle jar
Ġsur tur
Ġwal t
Ġtri b
Ġtri es
Ġconta mos
Ġsam an
Ġevi dencia
Ġauto con
Ġart icu
Ġfol lows
Ġgre g
Ġcha zelle
Ġenfren tar
Ġfre ddy
Ġcir culos
Ġclo ck
Ġprepar ados
Ġech aron
Ġrev olver
Ġ197 0
cul es
Ġperder ia
Ġperder se
Ġfar ma
Ġfar rel
Ġcojon udas
Ġalter ado
Ġacor dais
Ġescon di
Ġescon den
Ġescon dida
Ġbol l
Ġdur isima
Ġsup lan
Ġsup uso
Ġsup rim
Ġrespe tar
Ġrespe table
Ġafec tan
Ġchor ras
Ġbir ds
Ġreco gen
Ġconstru yendo
Ġabra zo
Ġliber ar
Ġron in
Ġderro teros
Ġvelo cir
Ġenfo cado
Ġenfo cando
Ġlec ciones
Ġaclar o
Ġdetec tar
cien tas
Ġconec tan
Ġprogra mas
Ġzo om
tis h
Ġexcel encia
Ġcie gos
ij i
Ġfab ul
Ġresum ido
Ġtermin ando
Ġsep tima
Ġwes ker
Ġarran can
vs ky
Ġst ones
Ġlamentable mente
Ġvig ila
Ġsun set
Ġcr unch
Ġparticu las
Ġapocalip tica
Ġfiloso fica
Ġcali ficar
Ġapa gon
Ġcolo can
Ġhere ditary
Ġdomin io
Ġparano ico
Ġejecu tado
Ġarries ga
Ġdre dd
Ġmane jo
Ġsospech as
kin son
Ġinneces arios
Ġhier ba
Ġprodu jo
Ġdescri to
ku y
Ġfum ar
Ġtaqu illera
Ġdesaprovech ados
Ġinver tido
Ġsna ke
Ġfer nandez
Ġtuv imos
Ġinterpreta tivo
Ġbri tish
Ġhen ri
Ġalimen ta
Ġpedir le
Ġacuer de
Ġcientific as
Ġdeten ido
Ġrefier en
Ġpose idos
Ġsober ana
Ġdiri gen
Ġmecan ico
Ġinvi tado
Ġgraba ciones
Ġcata lo
Ġcata lan
Ġrevi ve
cuen tes
Ġinex pres
tier an
Ġtab erna
Ġrea fir
Ġatropel lo
Ġdies tro
Ġaumen ta
Ġgris es
Ġmism amente
Ġatraves ando
Ġeli ja
Ġali ve
Ġrecha zar
Ġbombar deros
Ġmultip lica
Ġpur ga
Ġdescojon ado
Ġquer ra
Ġdesf ig
Ġjeff rey
Ġdespa cio
Ġhoriz on
Ġses iones
Ġcran k
Ġcep illar
Ġparas itos
Ġhip pies
Ġtig er
Ġapos tar
Ġladr illo
Ġvalen tia
Ġinterro gatorio
Ġfaci lon
Ġsad ico
Ġimplic ados
Ġsem illa
Ġsnow piercer
Ġagrade cido
Ġdesvel ar
Ġdespre cio
Ġeg gs
Ġsatisfac cion
Ġbienven ido
Ġ84 1151
Ġdiverti disima
Ġsacrific arse
Ġdespren de
Ġpretenci oso
Ġterri torio
Ġnov ember
Ġabstra cto
Ġdeton ante
Ġpreocup acion
Ġpune tera
Ġyel mo
Ġafron tar
Ġqe u
Ġtil da
Ġesqui v
Ġporta til
Ġgrandi oso
Ġcaca o
Ġcristi ana
Ġvelocirap tor
Ġow ned
Ġparalel ismo
Ġcomporta mientos
Ġprecipi tado
Ġdescafe inado
Ġdescafe inada
Ġcorpor acion
Ġbamb i
Ġcitizen four
Ġconfron tacion
Ġtax ista
Ġvac una
Ġmasco ta
Ġevangel ion
Ġheptapo do
Ġrow ling
Ġterres tre
Ġinmer sion
Ġjustic iero
Ġcatapul t
Ġapart ment
Ġtripo des
Ġdeshacer se
Ġsequen ce
Ġdistor sion
Ġsacerdo te
Ġgobern ador
Ġreemp la
Ġmaque tas
Ġnuev amente
Ġtaran tin
Ġpince ladas
Ġestudian tes
Ġceremon ia
Ġinmun es
Ġinfar to
Ġsilba to
Ġprivil e
Ġsupi ese
Ġimpla cable
Ġnep tuno
Ġlestran ge
Ġcentin elas
Ġblancan ieves
Ġincer tid
Ġwron g
Ġrascaci elos
Ġwhate ver
Ġthran duil
Ġinsigni fic
Ġvelocir rap
b ell
c uente
e ado
e gal
f q
g uer
g ador
h k
h as
h os
h ack
i tado
j v
k ie
k no
k amp
l m
n ad
n ag
p ora
s tan
t j
t l
t to
v ente
v ion
w h
w ind
x y
x as
x os
y lum
Ġe qu
Ġe vo
Ġe rec
Ġp ales
Ġp ida
Ġd ru
Ġd way
Ġd orada
Ġl ies
Ġa tribu
Ġa puestas
Ġa tip
Ġc us
er y
Ġde an
Ġde pend
Ġm m
Ġm ada
Ġm iga
en dose
que ros
as i
as ure
ar las
ar tada
Ġla va
Ġla zos
Ġla urie
un ds
Ġn el
Ġn ac
Ġn imo
in ga
in arse
Ġen ga
Ġen loque
Ġel ba
es que
es as
Ġf ias
Ġb ye
Ġb ers
Ġse g
Ġse dante
Ġme de
Ġme dir
Ġme chas
la ble
Ġcon tribu
Ġha c
Ġg om
Ġg ues
Ġg len
Ġal m
Ġal cal
Ġal tern
Ġal omejor
Ġlo la
Ġlo vers
Ġlo quisimo
Ġpar pa
Ġpar arse
Ġo ve
Ġper cal
Ġre m
Ġre cep
Ġsi ri
Ġsi em
Ġsu dden
le d
Ġto wards
Ġin ri
Ġin min
Ġin movil
Ġin humanos
us en
Ġdel orean
ch arse
Ġcu bre
Ġcu ba
Ġesta tu
Ġesta dio
Ġmas on
Ġmas cad
Ġle ak
Ġle guas
Ġj ona
ad uras
Ġso p
Ġso pla
Ġdes men
Ġdes ire
Ġdes fas
tr ica
Ġw b
Ġan ge
Ġpo qu
Ġpo ker
Ġver ed
ter no
tu p
ion aje
Ġspoiler a
ma c
ce la
Ġex puesto
Ġex terminar
di ante
ul t
ul es
Ġpro puesto
Ġhab len
Ġma za
Ġas ylum
Ġfinal ista
dos elo
ran t
Ġcre ma
ga cion
Ġten so
man n
man dias
Ġsin fin
Ġsin drome
tro w
Ġthe a
Ġr ien
Ġtra po
Ġtra tandose
cia ciones
Ġco artada
Ġca ian
ho o
pe are
Ġson o
Ġson da
Ġvis cer
at iendo
at ismo
Ġ3 50
Ġ3 31
Ġ3 27
Ġk w
Ġk eno
Ġk ame
Ġk ang
Ġch if
Ġman i
Ġman tis
Ġman iqui
Ġcos mo
Ġcos mico
Ġres i
Ġres piracion
Ġi p
Ġi rian
Ġmen des
Ġcas car
Ġlle guen
Ġcar s
Ġcar gante
Ġam igu
cer se
Ġsab ras
omen a
Ġsobre entiende
Ġro dan
Ġro tun
Ġpe dido
Ġjo didas
Ġab u
mp h
Ġmo de
Ġmo ve
Ġmo jon
vi dable
Ġmar ip
Ġdej aban
iz ador
Ġpa pi
Ġeste ticamente
dd on
Ġgu tier
Ġpen ita
Ġexp os
Ġdu alidad
Ġlu cir
Ġhistor ica
Ġ4 33
Ġ4 22
Ġdo ok
Ġven diendo
pon g
Ġcor tisima
Ġsuper e
Ġne ill
Ġne xo
Ġfal si
Ġgran adas
Ġap rue
be th
Ġna tas
Ġacab aron
Ġmin tiendo
Ġcons er
Ġcons tancia
Ġcons erva
Ġir ri
Ġir ris
Ġdar an
Ġmon as
Ġmon olito
Ġfil ip
ita ker
Ġvo cal
Ġem manuel
Ġcan ada
Ġ19 58
Ġpens aria
Ġpens aban
Ġus amos
Ġri de
Ġri gor
Ġri queza
Ġmor ian
Ġmor almente
Ġencan tadora
Ġemp ren
Ġpres iden
Ġprotagon iza
Ġpal me
Ġpal trow
Ġfan boys
Ġher cules
Ġba tibur
Ġhar ta
Ġz an
Ġz umba
Ġtras mi
Ġtras gos
Ġton ica
Ġton ks
Ġcomic as
Ġterm inas
Ġpi rado
Ġci tar
Ġad j
Ġad ven
Ġad quiere
Ġfa una
Ġban ks
Ġwar ri
Ġfo co
Ġsh ang
Ġsh rek
Ġdan za
Ġfun ciones
gen o
Ġju dia
tad isimo
Ġfi jando
Ġje ep
Ġexplic as
Ġexplic ame
Ġsan tos
Ġsan gra
Ġcer rados
Ġmer itos
Ġmatar te
Ġmus iqui
Ġta to
Ġta char
Ġwh itaker
Ġtor men
Ġdeb emos
Ġdeb ris
Ġsim ula
Ġcomple te
Ġcomple jos
Ġtier ras
Ġtier no
Ġenter ar
Ġ15 5
Ġviendo lo
cas ser
Ġpin cha
Ġases inada
Ġfu ma
Ġbes a
Ġreg ion
Ġcompar ta
Ġja pan
Ġedi ting
Ġcen ar
Ġenf ure
Ġiron ico
Ġder ra
imen to
Ġwi fe
Ġwi ther
Ġdisfru taba
Ġdejar te
Ġvio lada
Ġmeter nos
Ġale jarse
Ġ11 8
Ġpien ses
Ġescri tos
Ġclas ificacion
Ġlan ds
Ġ14 0
Ġgi ft
Ġwe bb
Ġwe instein
Ġhero ica
Ġmov ing
Ġhabla ban
Ġmill en
Ġdec ember
Ġpreci os
Ġacer tar
Ġcla van
Ġris e
Ġ16 1
Ġ16 7
Ġpresen to
Ġadap tarse
Ġ18 4
Ġ18 6
Ġdecepcion ar
Ġrapi dos
Ġste lla
Ġgol d
Ġcru zan
Ġcru cero
Ġfe ed
Ġflash point
Ġ21 0
Ġ21 6
Ġmaqu inaria
Ġmaqu inista
Ġinfin itos
Ġencontrar le
Ġcontinu as
Ġcontinu os
Ġresulta ba
zan as
Ġexis tan
Ġren dir
Ġspoilers poiler
Ġcompan y
Ġprofun das
Ġapo yan
Ġaf an
Ġcontar an
Ġespecial ista
Ġutil izo
Ġfir th
Ġpartir se
Ġsuel te
Ġrepar ar
Ġrespon do
Ġacep tas
Ġsalvar le
ws ky
Ġllor ique
Ġsobrevi vio
Ġsil ueta
Ġbro ck
Ġru tin
Ġtira ba
Ġsur gio
Ġarm ado
Ġart iculos
Ġdirig io
Ġhel en
Ġhel ena
Ġka tana
Ġsalva tion
Ġpsico loga
Ġdestro zada
Ġprob abilidad
Ġbal les
Ġbal anza
Ġmanten ia
Ġgod father
Ġ198 3
Ġbur t
Ġbur ro
Ġdom ino
Ġcho cado
Ġray ada
Ġred may
Ġdesen can
Ġcorta das
Ġiden tica
Ġsta te
Ġmc gu
Ġmc gre
Ġcontrar ia
Ġsky line
Ġech as
Ġevolucion ando
Ġgas ta
Ġsw een
Ġcambiar an
Ġapren diendo
Ġllevan dose
oooo oo
Ġtremen dos
Ġmoles tan
Ġpredeci r
Ġgolpe a
Ġconcre tos
Ġdese quilib
Ġchu par
Ġdefen sas
Ġblo om
Ġrema kes
Ġstran g
Ġprox im
Ġpira tes
Ġcompren sion
Ġrepi tiendo
50 9
Ġdur ing
Ġchan g
Ġchan ge
Ġchan taje
Ġestren ara
sel as
Ġhype ado
tom as
Ġexag eracion
Ġprovo co
cier an
Ġbec ome
Ġsuici dandose
Ġpl z
Ġconstru yo
dem ia
Ġboy ero
Ġanal izando
Ġmandar on
Ġgirl s
Ġcump lio
Ġwan ts
Ġwin dow
Ġpermi tio
Ġinde x
Ġvolv ieron
Ġarreg lan
Ġce ja
Ġce guera
br oso
Ġlig ar
Ġirre vers
Ġgeor gie
Ġara cn
Ġcomplic e
Ġsepar ar
Ġpreocu parse
Ġsep amos
Ġdespe gar
Ġintencion ado
Ġconnor s
Ġatre ve
Ġ196 4
Ġ196 9
Ġcontex t
gir l
kes peare
Ġahor ra
Ġoblig acion
Ġocul tos
Ġmanip ulacion
and re
Ġgood fellas
Ġom ar
Ġstu dio
Ġremo to
Ġshe en
Ġmateri ales
Ġrode an
Ġaus tria
Ġcr us
Ġham br
Ġcorre gir
Ġasegu rarse
Ġcue vas
Ġrell en
Ġcolo ca
Ġsimbol ica
Ġtin tes
Ġgro tes
Ġnatural idad
Ġalex andre
Ġdesgra cias
Ġdesapare cio
Ġdesapare cida
Ġconsigu iendo
Ġdesaprovech ada
Ġintu yo
Ġcaus ar
Ġfestiv ales
Ġcog ida
Ġocu p
Ġalimen to
Ġalimen tos
Ġsang rante
Ġintri gado
Ġesfuer zos
Ġagar rar
Ġunder ground
Ġital ian
Ġasus tar
Ġabor da
Ġabor igen
Ġsemej antes
Ġinfil trado
Ġenla ces
Ġrepor taje
Ġlic encia
Ġgene tico
Ġpir an
Ġdefender se
Ġserv icios
Ġatrac ciones
Ġkil lian
Ġinsta gram
Ġral en
Ġreca udo
Ġdie go
Ġais lada
Ġconduc ta
Ġinj usto
Ġatropel lada
Ġcesar ea
Ġsto ker
Ġpeligros as
Ġplay ed
Ġgamb as
Ġali vio
Ġtriun far
Ġzor ro
Ġwat ts
Ġfight ing
Ġsecues trar
Ġxddddddddd ddd
Ġsinsen tidos
Ġlimita ciones
Ġmultip lic
Ġincon dicion
Ġescope tas
Ġjajajajaj aja
Ġcontemp la
Ġconse jos
Ġcum bre
Ġcinematogra ficos
Ġcinematogra ficamente
Ġimbe ciles
Ġdepar tamento
Ġhack man
Ġimpre gn
Ġimprovis ado
Ġparra fos
Ġmanif ies
Ġgim nas
Ġimages hack
Ġagres ivo
Ġextraord inario
Ġtragar me
Ġapareci ese
Ġeconom ico
Ġprom esa
Ġprom esas
Ġdich as
Ġhund imiento
Ġconcep t
Ġamen abar
Ġgrie gos
Ġprogres o
Ġcare to
Ġsupre ma
Ġcatastro fes
Ġllan e
Ġllan amente
Ġtrio logia
Ġinsinu a
Ġmarch arse
Ġtrasla dar
Ġsearch light
Ġamazon as
Ġdesaperci bido
Ġcapital ismo
Ġacordar me
Ġsecu aces
Ġpune tero
Ġacier ta
Ġmean s
Ġciru gia
Ġinvad ir
Ġherram ientas
Ġbate man
Ġcante o
Ġmerce d
Ġchap lin
Ġbrain dead
Ġmacab ro
Ġsni f
Ġtene broso
Ġprevis to
Ġcompon ente
Ġsystem s
Ġconsis tencia
Ġmovi das
Ġclassic s
Ġimpuls ivo
Ġnee ds
Ġnee ded
Ġfasc inado
Ġic ono
Ġparad iso
Ġjine te
Ġguap isima
Ġlobotom ia
Ġleav es
Ġhermos o
Ġeffec ts
Ġrevolu tion
Ġcocin ero
Ġprefier en
Ġdesactiv ar
Ġsimbion te
Ġach ac
Ġremi x
Ġinol vidable
Ġinsec tos
Ġpantal ones
Ġminiser ie
Ġdispos itivo
Ġjas mine
Ġbarri ga
omar vel
Ġvers us
Ġacri b
Ġcres cendo
Ġcreep y
Ġridd ick
Ġdedu zco
Ġbren dan
Ġdesti la
Ġacorral ado
Ġaccidental mente
Ġintrascen dente
orp ion
Ġmultimillon ario
Ġmarsh all
Ġevas ion
Ġnem esis
Ġmela fo
Ġcomman der
Ġwah l
Ġaniqu ilar
Ġuper man
Ġcharlot te
Ġelip sis
Ġmoch ila
Ġpika chu
Ġbjor k
Ġgum mo
Ġlevia than
Ġlitera tura
Ġinsuf rible
Ġescondi te
Ġdway ne
Ġnimo y
Ġmede iros
Ġvered icto
Ġgutier rez
Ġmusiqui ta
Ġredmay ne
a ta
b w
c res
d t
d imientos
e zas
e gs
f v
f na
f ron
g j
g m
g ras
h w
h art
i u
j g
j ones
k an
k us
n m
n u
o ut
p unk
s worth
u ary
v v
v ic
v ard
w u
Ġ io
Ġ ill
Ġe i
Ġe ti
Ġe tico
Ġe instein
Ġp f
Ġp om
Ġd ante
Ġd ino
Ġd ylan
Ġd ceu
Ġl ion
Ġl und
Ġs las
Ġs ca
Ġa tada
Ġc g
Ġc im
Ġc ell
er ias
Ġde posito
os lo
Ġque des
Ġt l
Ġes lo
Ġes tor
Ġes tran
Ġes fera
Ġn im
Ġn ano
Ġn ice
Ġn tonces
ta culos
Ġen ds
Ġen mascar
Ġel io
Ġv omi
Ġno ir
ra can
Ġf n
Ġf oso
Ġb if
Ġb kuy
is ter
Ġcon cien
Ġg n
Ġg ill
Ġg ale
Ġg iac
Ġal g
Ġal qu
Ġal ba
Ġal bus
Ġal low
Ġal dea
Ġlo cur
ro lla
Ġcom i
Ġcom puesta
Ġpor co
Ġper tur
Ġre ce
Ġre cepcion
Ġre inas
Ġsi er
Ġsu cia
Ġsu mas
Ġsu mo
le on
le tes
lo te
Ġto b
Ġto ur
Ġto caba
po li
Ġin gre
ab er
ab il
ab ont
ch is
ch ando
ch able
ti ri
ti tas
ti ales
ti ese
ti zada
Ġcu co
Ġcu los
Ġpara iso
Ġesta ciones
Ġmas ivo
Ġle m
Ġle ed
ad ra
Ġso cor
io us
Ġdes ve
Ġw is
Ġw orm
Ġan gulo
Ġpo la
Ġpo ema
Ġac tivity
tu ron
ig encia
ada p
Ġmi d
Ġmi ds
ma ch
gun o
tra das
tra jes
Ġex ca
di th
Ġpr ice
Ġas tra
Ġas so
Ġas usto
Ġas imi
Ġas eme
Ġas untos
ga i
Ġten tacion
Ġsal tarse
Ġvi dente
Ġqu ick
Ġsin tomas
tro po
Ġr yu
Ġr pv
lan dia
Ġpas cu
Ġpas emos
Ġpas ase
Ġtra m
Ġtra gue
Ġhe ard
pe k
Ġni eta
Ġni hil
Ġson ara
Ġson aje
Ġson adores
Ġim an
at pong
ie f
Ġ3 29
Ġk lo
Ġk ami
Ġman cha
Ġcos mica
Ġar cos
Ġres ign
Ġres piro
Ġcas ar
Ġva go
Ġaun k
Ġlle wyn
Ġhu racan
Ġcar nic
Ġcar bon
vo us
das e
pi d
Ġro jas
Ġro land
Ġro lle
Ġro tten
Ġhan ds
Ġhan nah
Ġra cion
Ġra mon
Ġmar i
Ġmar ina
Ġmar cada
Ġdej ase
Ġdis tan
iz ard
Ġpa gando
Ġpa int
Ġ10 5
Ġ10 7
Ġgu ys
ras e
Ġplan tan
Ġpun teria
Ġpare jita
Ġlu ck
Ġdon a
ble ma
ble cito
Ġ4 86
Ġ20 46
Ġdo ing
jo y
Ġven dria
Ġinter ra
Ġinter medio
Ġof icio
Ġcor rido
Ġcor tarse
me a
Ġfue gos
Ġsuper produccion
Ġsuper produc
Ġfal se
Ġap al
Ġap lica
Ġap ich
lic as
Ġapar tar
Ġpos o
Ġpos tear
Ġpos esiones
Ġhi lada
Ġhi dden
ill ion
Ġnos fera
Ġna tivos
Ġcons titu
Ġdar ian
Ġdar abont
Ġmon go
Ġmon tones
Ġfil tracion
car d
Ġdirec tos
Ġcuen tos
Ġestan teria
Ġvo id
Ġem bed
Ġem borra
Ġcan tado
Ġcan tante
Ġbo f
Ġbo ch
Ġpod reis
Ġ19 4
Ġ19 33
Ġ19 38
Ġ19 37
Ġ19 52
Ġ19 56
Ġ19 28
Ġ19 43
it ch
Ġus es
Ġus ada
Ġri der
Ġri vales
Ġop res
dor o
Ġmor ris
Ġmor ric
igh ters
Ġcono cio
che d
Ġu fff
Ġcal lado
Ġcal zon
Ġpres tig
Ġllev ados
Ġval idas
Ġpal man
Ġli ando
Ġli arse
Ġba za
Ġbe ta
ger ald
Ġgan g
Ġbus h
Ġsac arla
Ġesp oras
Ġesp ionaje
Ġz h
du la
Ġcuan dospoiler
Ġpi j
Ġsub gen
Ġsub ord
Ġfa p
Ġmay be
arse la
Ġau tos
Ġstar ts
Ġstar ship
Ġsh ir
Ġsh ane
ly ing
ly wood
00 00
Ġfun de
Ġins i
Ġins os
Ġins uper
Ġins pir
Ġtema zo
Ġinteres te
Ġinteres aba
Ġyoutu b
Ġcol men
Ġcol lins
Ġtrans cen
Ġtrans plan
Ġtar ta
Ġje j
Ġagu ilas
Ġrecor dais
Ġcara tu
Ġfalta ban
Ġcin turon
ner s
Ġta za
Ġta tum
Ġmil f
Ġmil k
Ġ12 5
Ġsol ven
Ġdig nos
Ġtor nado
Ġjun ior
ni tas
Ġsim ulacion
Ġbla bla
Ġcabeza zos
Ġ15 4
Ġsalv ara
Ġpin gu
Ġpin tada
Ġanim aciones
Ġpla gado
mar t
itar ia
Ġmos cu
Ġtir en
Ġtir as
Ġestr ic
Ġja de
Ġja pos
Ġmira ba
Ġcen ta
Ġke i
Ġenf in
Ġenf ati
Ġcritic ado
fica ciones
Ġdejar nos
Ġmeter an
Ġ11 5
Ġ17 0
Ġatra cos
Ġfran ja
Ġlan zo
Ġgi tano
Ġbra z
Ġhabria mos
Ġwe as
Ġganas e
Ġdispar e
Ġbon e
Ġbon itas
Ġpreci osas
Ġfis cal
Ġacer camiento
Ġdrama ticos
Ġabsur damente
Ġfuncion aba
Ġ16 5
Ġcritica is
Ġmol ly
Ġdesp ierto
Ġsho wn
Ġmad ison
Ġrecomen do
Ġgol ds
Ġgol db
Ġdir ty
Ġtrilo gias
Ġcru zado
Ġbor is
Ġexper ience
Ġtro le
izar lo
Ġ21 3
Ġpodia mos
Ġtem e
Ġtele di
Ġcontinu ara
Ġer ra
Ġ22 5
Ġsenor ita
Ġemocion ales
Ġreci entes
Ġexc lu
Ġescu cho
Ġ24 36
Ġ24 35
ss s
aaaa aaa
Ġag encia
Ġag usto
Ġ25 5
Ġpers as
Ġsex y
Ġrespon dio
Ġrespon diendo
Ġingen uo
Ġdefin ite
Ġsuic idas
Ġconten ida
Ġobs es
Ġllevar an
Ġdol ph
Ġcris tian
Ġridicu l
Ġbro che
Ġbro ken
Ġru leta
Ġtes la
Ġtira dos
Ġconta gia
Ġwor king
Ġsola ce
Ġarm ados
Ġauto bots
Ġprac ticas
Ġavan ces
Ġavan zados
Ġepo cas
Ġmemor ies
Ġtur ns
Ġtur ret
Ġconfir man
Ġrepresen tada
Ġbur la
Ġarma ge
Ġray ado
Ġbre ves
Ġ26 8
Ġdro gad
Ġed wards
Ġras a
Ġanad en
Ġlis ten
Ġsky fall
Ġpul gar
Ġevolucion an
Ġconc uerdo
Ġconoci an
Ġcuar enta
Ġdesper to
Ġmostrar nos
Ġapun tan
Ġroman ticismo
Ġinfec tar
Ġaburri das
Ġexplo te
Ġlevan tando
Ġhabita ciones
Ġtecno logico
Ġcaer se
Ġvic kers
Ġdam ian
Ġsp r
Ġchu pa
Ġequivo car
Ġsue cia
Ġsue los
Ġesco l
Ġesco ba
Ġprox imos
Ġvam pi
Ġcria do
Ġprofundi zado
Ġrecuper ado
Ġdur ara
Ġbl om
Ġrespe ta
Ġens al
Ġentendi ble
Ġlamen to
Ġdestruc tores
Ġpl cp
Ġran cho
Ġspa in
Ġabra zar
Ġliber ado
Ġok ay
Ġama te
Ġama go
Ġgili po
Ġlove d
Ġconec ta
Ġconec tados
Ġpermi tido
Ġreaccion ar
Ġsuperior idad
Ġtransform arse
Ġeven t
Ġeven tual
Ġfab r
au rio
Ġneg rito
Ġtermin aba
Ġpreocu pan
rr r
Ġpate ticos
Ġsolu ciones
Ġbab e
Ġreun iones
Ġreun idos
Ġdescubre s
Ġtelef onica
Ġmach ista
Ġala ddin
Ġrelig iosos
Ġrode ados
Ġdif um
yen dose
Ġaus tin
Ġhow ever
bi ante
Ġduen a
Ġago biante
Ġsel f
Ġdedic ar
Ġapla uso
Ġsens ib
Ġalta vo
Ġtraicion ado
Ġarras trando
Ġadmi te
Ġestruc turas
Ġfum ado
haha ha
Ġpatr ul
Ġtum bas
Ġcog es
Ġlimi ted
Ġdijer an
Ġsher man
Ġsutil eza
Ġstal ker
Ġador able
Ġasus tado
Ġdestri pe
Ġguay s
Ġposicion es
Ġinvestiga ciones
Ġperten e
Ġconden ados
Ġmarion etas
Ġgat ten
Ġatrap ada
Ġcirc le
nn nn
Ġcub ierto
Ġphil lips
Ġcrono logicamente
Ġgeo ff
Ġhipo cres
Ġbusc adores
Ġoli via
Ġpartici po
Ġsimbo logia
Ġestable ce
Ġestable cido
Ġaleg oria
Ġdescen diente
Ġfunda mento
Ġelectr ica
Ġfron tal
Ġrevis ar
Ġgamb ito
Ġasque roso
Ġamista des
Ġlun as
Ġtac os
Ġrealiz an
Ġtrascen dencia
Ġxddddddddd d
Ġsinies tros
Ġinforma tico
Ġkir s
Ġadop tado
Ġmaf ias
Ġjan et
Ġjan uary
Ġdream s
Ġduer mo
Ġmillon ario
Ġstra ub
Ġanecdo tas
Ġsentimen tales
Ġexig ente
Ġapos ta
Ġapos taria
Ġsurre alistas
Ġperci bir
Ġrespec tivos
Ġcorrespon diente
Ġenvej ecen
Ġrin de
spo on
Ġorien tal
Ġrevie ws
Ġaplaud iendo
Ġfly ing
Ġaplas ta
Ġfaci li
Ġprop ul
Ġapareci eron
Ġhem bra
Ġhund ir
Ġcomprobar lo
Ġsobreval or
Ġradic almente
Ġfloj ita
Ġaceler ado
Ġnecesitar ia
Ġdesconec tar
Ġstri ker
Ġdob lar
Ġsla ve
Ġaplic ar
Ġadver tencia
Ġreper cusion
Ġdespla t
Ġacier tos
Ġmed icos
Ġpiz za
Ġexor cista
Ġestereo tipo
Ġfus il
Ġconvi vir
Ġnorteamer icano
Ġdeli rios
Ġtomorrow land
Ġjefa zo
Ġtumb lr
Ġmech ner
Ġcompon entes
Ġtej ados
Ġargen tino
Ġbrus co
Ġmentir oso
Ġfotograf o
Ġhorrocrux es
Ġpale tos
tex to
Ġdeser t
Ġdesig ual
Ġincompren sible
Ġkris ten
Ġpastelos a
Ġchapu za
Ġmarci anos
Ġatis bo
Ġafortun adamente
Ġasfix iante
Ġenmar car
Ġvu du
Ġfrec uen
Ġcompos itor
Ġadicion al
Ġencuad res
Ġhiber nacion
Ġverdu go
Ġdivid ir
Ġpetro leo
Ġmcc lane
Ġsarcas mo
Ġvulner able
Ġmig uel
Ġportu gues
Ġconno isse
Ġdesplie gue
Ġefica z
Ġstron g
Ġlazar o
Ġexcen trico
Ġracha el
Ġcuaren tena
Ġorgullos o
Ġlicen sed
Ġavia dor
Ġrut ina
Ġrefu giados
Ġmccar thy
Ġlomb riz
Ġiner cia
Ġmoriar ty
Ġcontrap unto
Ġrecomendad isima
Ġautop ista
Ġconcuer da
Ġvoluntaria mente
Ġfie bre
Ġozy mandias
Ġchita uri
Ġfictic io
Ġcerebr al
Ġprogram ador
Ġcocodr ilo
Ġconspir ano
Ġtrib unal
Ġincertid umbre
Ġsiri us
Ġnatas ha
Ġbatibur rillo
Ġtormen tas
Ġwither spoon
Ġmcgre gor
Ġirrevers ible
Ġwahl berg
fron t
Ġgiac chino
Ġdesve lado
Ġasso cia
Ġsuperproduc ciones
Ġapich atpong
Ġnosfera tu
Ġmorric one
Ġgoldb lum
Ġhipocres ia
Ġconnoisse ur
b q
b ando
b ones
c f
c ante
c ome
d ec
e h
e ad
f la
f fer
f une
g am
g icas
h em
i ti
i tt
j ala
k j
k una
l man
m ita
m und
p iado
q n
q y
r c
r k
s k
t ho
t cher
u te
v m
y ed
y ub
z d
Ġe je
Ġe ye
Ġe ure
Ġp im
Ġp ath
Ġl ara
Ġl ios
Ġs li
Ġs ly
Ġs taba
Ġs yn
Ġs mart
ue ga
ue les
Ġa tas
Ġa aa
Ġa reces
Ġc d
Ġc elos
er ase
Ġde tiene
Ġm b
Ġm ina
que r
que ra
os tia
an im
Ġla te
Ġla den
Ġla tin
Ġla van
Ġla pso
un ta
Ġn en
in ton
in ts
re ad
re se
re mo
Ġen tire
Ġv inci
Ġv ano
te za
da cion
Ġno ble
Ġf lan
Ġb g
Ġb w
is ing
Ġse th
Ġse ason
Ġme w
Ġme gal
Ġme dula
Ġcon cier
Ġcon ferencia
Ġha g
Ġha ving
Ġg ue
Ġg ia
Ġg ras
Ġg ry
Ġg ip
Ġal tos
Ġal usion
Ġal casser
Ġlo cas
Ġlo cke
Ġpar ida
Ġpar entes
Ġo yen
Ġcom bo
Ġcom ique
Ġcom mun
Ġper e
Ġper ry
Ġper sa
Ġper ez
Ġper dais
Ġper dices
Ġre ta
Ġre ba
Ġsi esta
le en
Ġto ch
Ġto ok
Ġto ld
po lar
Ġin imag
us tancial
Ġmu taciones
ti empo
Ġcu id
ri um
Ġesta f
Ġle an
Ġj k
ad le
Ġso ph
Ġdes gan
Ġdes mer
qu illa
qu illos
Ġac tue
ter es
tos os
Ġth x
Ġth ous
Ġfin k
Ġfin ch
Ġmi i
Ġmi fune
Ġesc ase
Ġesc aso
Ġesc eptico
ce a
Ġdi ary
Ġser ial
di que
di us
di ano
Ġpro ven
Ġpro duci
Ġma th
Ġma pas
Ġma tter
Ġas tro
Ġas oma
Ġfinal ly
Ġcre encia
gu ra
Ġsal uda
Ġsal pic
Ġte t
ib or
Ġvi vio
tes t
Ġve la
Ġve dla
lan ds
Ġpas tor
Ġpas aje
Ġtra gica
Ġco de
Ġco pio
Ġco jer
Ġca yeron
ho le
mo tiv
Ġ3 21
Ġ3 40
Ġ3 48
Ġ3 56
Ġk al
Ġk la
Ġk ee
Ġk ore
Ġk iss
Ġmal inter
Ġpue blecito
Ġch ron
Ġman z
Ġman co
Ġman di
Ġcos te
Ġar der
Ġar diendo
Ġres ines
Ġva cil
Ġlle gados
Ġcar y
Ġcar tu
Ġmejor ando
Ġam on
Ġrec all
Ġsab o
tt rell
Ġsobre car
Ġro h
Ġsen il
Ġsen tar
Ġsen tada
Ġpe g
Ġpe deras
Ġpe ticion
Ġpe ace
Ġra ul
Ġra mp
Ġra ider
Ġjo on
Ġab arca
Ġmo tiva
vi an
Ġmar gar
Ġmar ea
Ġda te
Ġdej es
Ġdis a
Ġdis puestos
ing os
Ġnin jas
Ġfor ja
Ġpa u
Ġpa x
Ġpa tro
Ġpa terna
Ġhace d
pa h
Ġpu p
Ġpu fff
th ak
th read
ras tra
Ġtamb ale
Ġtamb alea
Ġplan ificacion
Ġor lando
Ġor grim
Ġdeci des
Ġpun k
Ġdu ke
Ġlu kas
Ġdon o
Ġ4 21
den ne
Ġdo tar
Ġdo fp
Ġven tanas
Ġhacer los
Ġimp lemen
Ġ5 77
tim on
me di
Ġgen ia
Ġter remo
Ġtu b
Ġap abul
Ġverdad eras
Ġapar tados
rec om
Ġpos teo
ian as
Ġgra ficos
ios as
Ġmin ions
Ġcons istente
Ġir ina
Ġdar denne
Ġdecir se
Ġdecir nos
Ġcam ina
Ġhaber te
Ġdirec ciones
Ġmun d
Ġhub ieramos
Ġcual idades
Ġvo ice
Ġem blema
Ġcan ad
Ġcan alla
Ġcan ibal
tros pectiva
Ġbo ard
Ġpod re
Ġpod remos
Ġ19 50
Ġ19 35
Ġ19 54
Ġus te
Ġri os
Ġri ven
Ġri ge
Ġri tuales
Ġbuena zo
Ġop ta
Ġmor der
Ġmor dis
Ġu h
Ġu ps
Ġu we
Ġcal culado
Ġemp ecemos
Ġtal ks
Ġpes adas
Ġpres tar
Ġval ientes
Ġprotagon izar
Ġmier der
Ġpal izas
Ġher encia
Ġbe as
Ġbe bida
Ġsac adas
Ġtom ara
Ġz u
Ġbru j
Ġenten diendo
Ġrep ug
na u
Ġpi eces
Ġci fra
ves ter
Ġad icto
Ġsub irse
Ġfa ir
Ġbar ril
Ġbar reras
Ġban cos
Ġis n
Ġdan ar
Ġju bi
Ġsor do
Ġamb ientes
Ġhor se
Ġhor rores
Ġcol omb
Ġtar ko
omb ra
Ġexplic ada
Ġref uer
Ġtr ic
Ġpan ch
Ġmer i
Ġmer os
Ġll enas
Ġll ueve
Ġmus cul
Ġmus chie
Ġincl usion
bra dor
Ġ12 1
Ġspi ke
Ġcomple jas
Ġdef orme
Ġenter prise
Ġ15 2
cas e
Ġsalv acion
Ġpasar an
Ġcap ta
Ġpla te
Ġpla gada
Ġconver sion
Ġlim itar
Ġdesa fortun
Ġfoto grafias
cil las
Ġrelacion a
Ġat ten
Ġcen i
Ġcen ten
Ġcul tiv
Ġcome dor
Ġcome diante
Ġwi re
Ġmag ical
Ġmag gie
Ġvio lan
Ġ17 1
Ġ17 5
Ġnina to
Ġ14 2
Ġ14 5
Ġ14 9
Ġamor osa
Ġ30 6
Ġsabia is
Ġwe erase
Ġguar dado
por cion
Ġmov iendo
Ġdispar arle
dic e
Ġpreci sion
Ġata cados
imo v
Ġacer que
Ġdrama ticas
ys s
Ġ16 9
Ġcrea tividad
Ġorden adores
Ġmir arlo
Ġmir anda
Ġmol ones
Ġmol ona
Ġbu ddy
Ġesca p
Ġ18 2
Ġ18 9
Ġnar rada
Ġsho p
Ġimpresion o
Ġmad urar
Ġmad rastra
log ias
Ġcole gu
Ġfe os
Ġfe at
Ġrazon amiento
Ġllam amos
Ġllam aban
Ġquedar an
Ġtem pera
Ġencontrar la
Ġencontrar me
Ġer rante
Ġer ron
Ġmaes tria
Ġren ner
Ġ22 1
Ġ22 4
ula da
Ġtempor almente
Ġinven tadas
Ġ24 1
Ġ24 38
Ġaf in
Ġcontar te
Ġcontar lo
Ġge ar
Ġge tting
Ġconsider ando
Ġconsider arse
Ġgri t
Ġpregunta ba
Ġfir me
Ġdebe is
Ġimpos sible
Ġbr ick
Ġrecom ienda
Ġentr ena
Ġsob ras
Ġpreten do
Ġpreten da
Ġespan to
Ġhech ic
Ġ23 0
Ġbro ly
Ġbro ught
Ġllama tivos
Ġru in
Ġru ta
Ġru th
Ġru ins
Ġtes timon
ath y
Ġmur dock
Ġ28 0
Ġdificil mente
Ġsur core
Ġtri al
Ġconta in
Ġconta ban
Ġpase ando
Ġfol le
Ġaco p
Ġaco gida
Ġpsico pat
Ġpsico logicos
Ġcha ppie
Ġensen arle
Ġgig an
Ġbur rada
bus ters
Ġdom ingos
Ġdesen c
Ġrus sel
Ġras guno
Ġmc don
Ġcomer ciales
Ġprepar ar
Ġentren ados
Ġentren ador
Ġgas tarse
Ġsw inton
Ġcambiar lo
Ġrev uelo
Ġviv ieron
Ġmostrar on
Ġmostrar lo
Ġaburri disima
Ġmoles tia
Ġtw il
Ġqui rof
Ġdescar ada
Ġgraci os
Ġnie to
top ic
top ds
Ġquitar ia
Ġchu pe
Ġexperimen tado
Ġexperimen tal
Ġexperimen tando
Ġsco ut
ull ido
Ġvin ieron
Ġvam p
Ġwa po
Ġjul ie
Ġrum ore
Ġevitar lo
Ġbol lywood
ugh ter
Ġsup ieron
Ġacci dentes
Ġchan nel
Ġens eno
Ġreco giendo
Ġaz rael
Ġran d
Ġran gers
Ġliber an
Ġ38 4
han ger
Ġdemon ia
Ġcump la
Ġron da
Ġescal on
Ġama es
Ġdescono ce
Ġsupues tos
Ġwin du
Ġaclar acion
Ġprote ge
Ġprote giendo
Ġalf onso
Ġaguan to
Ġaguan tando
cien de
cien ce
Ġzo e
Ġmaravillos os
Ġpri or
Ġza pat
Ġfle x
Ġmoder nos
Ġexager ar
Ġtermin ada
Ġsepar ados
Ġsepar adas
Ġira k
Ġber n
Ġdespe dido
Ġatre yub
Ġquitando le
Ġom fg
Ġolvidar se
Ġdev ol
Ġalre ady
Ġgrab adas
Ġsolucion a
Ġcr ueles
Ġdep res
Ġcach os
Ġcach arro
Ġamar illa
Ġinsul tos
Ġinsul tante
Ġinsul so
Ġresuel ven
Ġinv ente
Ġparado jas
Ġdiscu ten
Ġdiscu tiendo
Ġdiscu tible
Ġcolo cado
Ġfren os
Ġemb ri
Ġarras trar
Ġejecu tivo
Ġejecu tada
Ġpoten tes
Ġdespro positos
Ġdespro porcion
Ġater ror
Ġfija os
Ġdesapare ciendo
Ġconsigu iente
Ġear ly
Ġcaus as
Ġmunec as
Ġcog ieron
Ġnav idades
Ġhorror oso
Ġunder stan
Ġolvida da
Ġcolon iz
Ġfem ale
Ġmeti eran
Ġshow thread
ju dic
Ġequilib rium
Ġperten ecen
Ġmodi ficar
Ġexpan siva
Ġdefra udo
Ġpir arse
Ġroy al
Ġnervi osa
Ġarquitec ta
Ġfracas ado
Ġconsciente mente
Ġtranqu ilidad
Ġnecesi tado
Ġbara tos
Ġinex per
Ġcabre o
Ġbul let
Ġinfluen cias
Ġempu jar
Ġgon dor
Ġcub ierta
Ġdesin teg
Ġbusc ador
Ġrein ven
Ġrein icio
Ġid ris
Ġasal tan
Ġkar l
Ġany thing
Ġasia tica
Ġmoon light
Ġmotor ball
Ġrebo ta
Ġjor ge
Ġidi omas
Ġsustitu to
Ġimpro b
Ġplay ing
wor king
wor ld
Ġexplor acion
Ġinmortal idad
Ġlun ar
Ġrecha za
Ġthan ks
Ġabus os
Ġfrag mento
Ġaho gado
Ġestra teg
Ġpersegu ido
Ġantic risto
Ġantic lim
Ġjuz gado
human o
Ġlimita da
Ġxddddddddddddd dddd
Ġrevel ar
Ġperiod istas
Ġgargan tua
Ġmind fuck
Ġcaracteri za
Ġreti ro
Ġlegen d
Ġexig ir
Ġcinematogra ficas
Ġfenomen os
Ġproce dencia
Ġrespec ta
Ġrespec tivamente
Ġconfun dido
Ġrin con
Ġventa jas
Ġdal ton
Ġdepar a
Ġimpre vis
Ġester il
Ġasomb roso
Ġcontac tos
Ġindifer encia
Ġaden trarse
Ġsemi dios
Ġanto ine
Ġarrep iente
Ġadelan tado
Ġllegas e
Ġzas ca
Ġmelo dia
Ġactiv ar
Ġreclu ta
Ġhem sworth
Ġole ada
Ġgrie vous
Ġbin go
Ġriendo me
Ġemer gencia
Ġaficion ados
Ġclos er
Ġintim ista
Ġlam bert
Ġtransicion es
Ġencen der
Ġrival idad
Ġinform ado
Ġaud iencia
Ġmedioc ridad
Ġdescarga working
Ġcau tivo
Ġposte ado
Ġdescom unal
Ġmaj or
Ġbron x
Ġpelu che
Ġciru jano
Ġpiz ca
Ġcone jo
Ġcone jos
Ġchur ch
Ġdiscre po
Ġrepel us
Ġrepel ente
Ġintroduc en
Ġconclu ir
Ġdescolo cado
Ġvagab undos
Ġassass ination
kb ps
Ġpatron us
Ġarrepen timiento
Ġconmo ve
Ġsumer gir
Ġventi la
Ġvine ta
Ġvine tas
Ġinta cto
Ġoffic ial
Ġincen dio
Ġvola dores
Ġsubtra ma
Ġtene bros
Ġcoh esion
Ġshan gai
Ġacercan dose
Ġesen ciales
Ġentidad es
Ġcolec tivo
Ġinteg rantes
Ġdesem bo
Ġgafapas ta
Ġvagon es
Ġappe ars
Ġrecal car
Ġthir d
Ġretar d
Ġtrayec toria
Ġcaz adores
Ġsobreco ge
Ġlargu isima
Ġew ok
Ġsmo ke
Ġcaj on
Ġalber to
Ġsiren as
Ġquo te
Ġvege tacion
Ġspy break
Ġotor ga
Ġinvis ibilidad
Ġadre de
Ġplen amente
Ġdecep ciones
Ġleal tad
Ġthough t
Ġguitar ra
Ġminus val
Ġambic iosa
Ġdesconcer tante
Ġcil lian
Ġconquis tar
Ġodios os
Ġcerve za
Ġgerman y
Ġparen ts
Ġapoteos ico
Ġrecauda cion
Ġtransmit ia
Ġmilime tro
Ġaventur ero
Ġmultiver so
Ġinmig racion
Ġmedica cion
Ġdesmem bra
Ġpegg y
Ġcompr ome
Ġburo cra
Ġines table
Ġcow boy
Ġkne w
Ġsupervil lano
Ġword press
Ġgad gets
Ġapara tos
Ġcomplica ciones
Ġmaje ure
Ġfitz gerald
Ġcontemporan eo
Ġspen cer
undan cia
Ġelu cu
Ġfell ini
Ġtodopoder oso
Ġimpens able
Ġtorne o
Ġconversa tion
Ġcrosso ver
Ġegip to
Ġatormen tado
Ġgle eson
Ġvay amos
Ġtern ura
Ġespel uz
Ġcapito lio
Ġnel son
Ġbers er
Ġrecep tor
Ġinmin ente
Ġjona h
Ġange la
Ġkeno bi
Ġmarip osa
Ġsween ey
Ġaracn ido
egs topds
Ġeti queta
Ġslas her
Ġsubgen ero
Ġkei tel
Ġdefinite ly
jala ta
Ġmalinter pre
thak ul
Ġmuschie tti
Ġweerase thakul
Ġquirof ano
b p
b ye
b len
b idos
c j
c lo
c co
d v
d ecer
e tt
f ly
f ps
g ma
g ios
g resion
h z
h or
i jo
j aba
k h
k q
l ist
m el
m ut
n w
n z
n io
n ada
o dy
p f
p icio
q z
r isimo
r aria
s tro
t q
t ney
x g
x s
Ġ ie
Ġp ig
Ġp ion
Ġp ada
Ġp ick
Ġp fe
Ġd p
Ġd s
Ġd res
Ġd ame
Ġl td
Ġs z
Ġs ke
Ġs cience
Ġa ve
Ġa ere
Ġc roc
Ġc ibor
Ġde ar
Ġde fic
Ġde term
que se
on i
os poiler
an al
Ġque mada
Ġt era
Ġt omen
Ġt aba
Ġt empo
Ġt ech
Ġla uda
or ar
Ġh bo
Ġh mm
Ġn ci
in c
ta cas
ta culo
Ġen an
Ġen ca
Ġv ell
Ġv icio
ic us
al en
al ko
Ġun iendo
ci tado
Ġno pe
Ġno ah
Ġno vie
ra h
ra gest
Ġf ero
Ġf rig
Ġb ing
Ġb rig
Ġme tian
Ġcon de
Ġcon du
Ġcon tienen
Ġcon nec
Ġha ir
el es
ia cion
il ia
Ġal za
Ġal iento
Ġlo lita
Ġpar io
Ġpar cialmente
ro y
Ġo y
Ġpor tales
Ġper se
Ġper dedores
Ġre t
Ġre lu
Ġre mol
Ġsu iza
ec os
am or
am is
Ġto ler
po tente
Ġin ne
Ġin du
Ġin volucion
Ġin val
ando los
Ġmu ta
ab ra
Ġdel gado
Ġdel itos
ch era
Ġcu ts
go ba
ri ar
ri ty
Ġmas k
Ġle zo
Ġle ast
Ġle gua
Ġj p
Ġj fk
Ġlas tim
Ġso on
Ġdes or
Ġdes par
Ġdes mar
Ġdes cal
Ġdes bor
tr in
Ġw ish
Ġan ces
Ġpo pa
Ġver bal
tu an
Ġth ur
co ta
Ġesc orpion
tor a
tra z
tra te
Ġser gio
Ġser rano
Ġpro poner
Ġhab il
Ġhab ias
Ġma k
Ġma the
Ġma tase
Ġas ientos
Ġas pir
ica a
Ġfinal spoiler
Ġsal d
Ġsal sa
Ġvi d
Ġvi vas
man te
Ġve ias
Ġsin cera
Ġpas tilla
ur al
Ġporque ria
Ġbuen orra
Ġco pp
ca pi
Ġca to
Ġca tar
par amount
mo vie
Ġson oras
at si
ie ga
Ġ3 51
Ġk um
Ġmal isimos
Ġbas ically
Ġch ucky
Ġch erno
Ġtan k
Ġman s
Ġman ita
Ġman itas
Ġman ique
Ġar en
Ġar ts
Ġar mar
Ġar tem
Ġres tr
Ġcas cada
Ġva gos
Ġaun ke
Ġmis a
Ġcar o
Ġcar am
Ġcar ds
Ġcar tera
Ġam ada
Ġsab ran
ver as
Ġro tos
Ġro pas
Ġpre mon
Ġpre his
Ġpre cau
Ġah ead
Ġpe tado
Ġpe dra
Ġpe gad
Ġra dar
Ġra ther
Ġra dica
Ġjo k
Ġjo die
Ġjo dieron
Ġenc am
Ġab le
Ġab ria
Ġab rum
Ġmo j
Ġmo ck
Ġmo ves
vi das
Ġmar in
Ġmar char
Ġmar ket
Ġda goba
ing e
iz aba
Ġpa w
Ġpa tio
pa ta
Ġ10 3
Ġplan ea
Ġplan cha
Ġor illa
Ġor cs
Ġexp el
Ġpun tual
Ġlu k
Ġlu cier
Ġlu ttrell
Ġpon te
Ġhistor icos
gar t
gar ia
Ġ4 34
Ġ4 31
Ġdo uble
Ġesper pen
Ġesper are
Ġven en
Ġinter gal
Ġ5 18
Ġ5 000
Ġof ens
Ġof recen
tim ento
Ġcor don
Ġcor aje
Ġcor dura
Ġmenos pre
me e
Ġgen o
Ġgen ios
Ġne y
Ġne bras
Ġfal te
Ġfal ls
Ġap an
Ġap to
Ġsa ve
Ġsa tel
Ġsa ying
Ġpos ib
be la
Ġhi ppie
dar ia
Ġnos ecu
bo t
bo ards
Ġmin s
Ġsea gal
Ġcons umo
Ġdar in
Ġdar ren
Ġdecir os
Ġob v
Ġob tiene
ag h
Ġmon ty
ita da
Ġcam er
Ġcam pes
cen a
Ġho u
Ġvo c
Ġem in
Ġcan ino
Ġand al
Ġsegu idos
Ġsegu imiento
Ġbo bo
Ġbo ye
Ġ19 51
Ġ19 29
Ġ19 44
it us
av es
Ġus b
Ġus ual
Ġus arla
Ġri to
Ġri zo
Ġri ot
Ġmor ro
Ġinf iel
Ġinf iernos
tin amente
Ġcono zcan
Ġcono zcas
Ġu ma
Ġpoder osas
Ġtal king
Ġpes te
Ġcuenta me
Ġllev arla
Ġval ora
Ġmier don
Ġpal an
Ġpal mo
Ġfan atismo
gue dad
Ġgan s
Ġhar ias
Ġcontra posicion
ros os
Ġz am
Ġrep ly
Ġrep lica
Ġrep aso
Ġtras lado
Ġtener le
Ġci f
Ġon u
Ġgener ico
Ġpodria is
Ġad iccion
Ġsub terran
Ġfa chada
Ġbar ney
Ġfo ty
Ġstar gate
Ġsh eep
Ġdan ish
aa an
Ġins tantes
Ġins ustancial
Ġju as
Ġinteres ant
Ġcol la
Ġcol ump
ome trajes
Ġfi ar
Ġmue va
Ġrecor tes
Ġrecor rer
Ġrecor dara
Ġdra g
Ġcer ra
Ġcer ro
Ġcer tain
Ġcer rando
Ġcer teza
Ġwatch es
Ġmer cy
Ġmatar ia
Ġuni form
Ġta i
Ġta pan
Ġinterpre tados
Ġtor na
Ġtor pes
Ġlen s
Ġlen non
elo ve
cas ter
Ġguer rera
rim o
Ġpin tar
Ġcap rich
ep ente
Ġvolver la
Ġtend reis
Ġases inados
Ġfu j
Ġfu kuna
itar ios
Ġconver tida
Ġhaciendo le
Ġrom pa
Ġ13 8
Ġrelacion ar
Ġcen ic
Ġmedia vi
Ġder man
Ġder epente
Ġdisfru tan
Ġdejar e
Ġvio laciones
Ġ17 2
Ġ17 3
Ġ17 6
Ġescri tura
for o
Ġdescu ar
Ġ14 3
Ġcomentar la
are z
Ġmata mos
uu u
Ġdec li
Ġarri ve
Ġcla vada
Ġcla ude
gi ra
Ġcrea tiva
Ġcrea ted
Ġolvi des
Ġbu tacas
Ġsobra damente
Ġmano el
Ġimpresion ar
bu lo
Ġcontin ente
tific ado
Ġpd f
Ġfic ticia
Ġgol f
mon ger
Ġcru zadas
Ġbor at
Ġdura ba
Ġexper ta
Ġleer te
Ġfe tic
Ġinic ialmente
Ġllam alo
Ġllam aron
Ġanti hero
Ġinfin ite
Ġexis tiera
Ġ22 8
Ġmes tizo
Ġexc la
Ġseguir an
Ġaten tado
Ġhol y
Ġapo der
Ġcontar nos
Ġge os
Ġutil idad
Ġejer cer
Ġexplicar le
Ġproyec tor
Ġfir mar
Ġdesta cando
Ġav alan
Ġinclu yen
Ġrecom pensa
Ġrap tors
Ġsacar me
Ġwith in
Ġentr eno
Ġsob ado
Ġconten ta
Ġcur ran
Ġcur radas
Ġextra va
Ġpolicia co
Ġhigh way
truc tura
Ġdol ar
Ġdol by
Ġmola o
Ġ23 8
Ġsobrevi viendo
Ġsil mar
Ġvir tud
Ġsuce da
Ġsuce dan
Ġintentar an
Ġru ina
Ġchris tine
Ġtira dor
ide z
Ġenem iga
Ġenem igas
Ġmur alla
Ġsur fer
Ġsur gen
Ġsur gir
ili ario
Ġconta min
Ġwor st
Ġtrabaj aba
Ġrecordar lo
Ġdirig iendo
Ġintro duciendo
Ġka tie
deci ble
bro ken
Ġcha os
Ġindi e
Ġindi as
Ġfas cina
Ġtur co
Ġtur ing
Ġ2014 0
Ġil egal
Ġbur bu
Ġtransmi tio
Ġare ce
Ġros char
Ġbre vemente
Ġ26 9
Ġpic ar
Ġed ge
Ġbos te
Ġech aban
Ġpul mon
Ġbut ter
Ġcuar tel
Ġmul t
Ġapren dio
Ġdr um
tern as
oooo o
Ġrepe ticion
Ġtremen das
Ġcreer ia
Ġfuerte mente
Ġpec ados
Ġdescar te
Ġgraci ose
Ġtren t
Ġtren es
Ġavion eta
Ġchaval in
Ġcoinci dir
Ġsha un
Ġsha kespeare
Ġexten so
Ġdese ado
top us
Ġoper ador
Ġwa de
Ġtriste mente
Ġjul y
Ġescon didas
Ġescon derse
Ġresca tado
Ġresca tando
Ġsentir me
Ġbol i
Ġbol go
Ġrecuper e
Ġestren e
Ġextran jero
Ġsk ull
Ġfac tores
Ġauten ticas
Ġenamor arse
Ġfri tz
Ġofic inas
Ġpl s
Ġconstru ida
Ġhead s
Ġran as
Ġran ger
Ġestaria mos
Ġdorm am
Ġ38 0
Ġpresu pon
Ġlec tores
26 4
if fer
Ġdemos tracion
Ġaguan tado
Ġprogra mado
Ġrock n
Ġpat in
Ġobvio us
Ġgrand ilo
Ġelim ina
Ġpreocu par
Ġber en
Ġrevision ar
Ġrevision ando
Ġmantener te
Ġaprovech arse
Ġalar ga
Ġgr andote
Ġcontex tual
Ġhaw ks
Ġsubtitu lado
Ġjustific an
Ġsch ul
Ġcron icas
Ġcabron a
Ġlengu as
Ġconsec uente
dri os
Ġamar gado
Ġpoe tas
Ġautor idad
Ġdeath stro
Ġcargar a
Ġpagar ia
Ġsimbol os
Ġalterna tivos
Ġalterna tivas
Ġescla va
Ġloca tion
Ġparano ya
Ġgun da
Ġtitan s
Ġinneces arias
Ġcrio gen
Ġmere cio
Ġinco g
Ġpow ell
Ġconsigu ieron
Ġspe ak
kis tan
Ġtun da
Ġintu icion
Ġidentidad es
Ġdispara te
Ġfollar se
Ġreve lado
Ġlimi tan
fil ia
Ġsutil es
Ġcientific amente
Ġital iana
Ġculp abilidad
Ġhad dock
Ġko ba
Ġcolon ias
Ġfem ina
Ġfla uta
Ġpasaj eros
Ġdetermin ada
Ġdetermin ante
Ġcomprar e
Ġmecan icos
Ġincoher entes
Ġpir uetas
Ġedu ca
Ġki ds
Ġempati zas
Ġty son
Ġnu ca
Ġnu be
col m
Ġadi vin
Ġdesn u
Ġral lado
Ġcrono crim
Ġretra ta
Ġsy l
Ġtab u
Ġayud ara
Ġpromete dor
Ġsuje ta
Ġdisco ver
Ġaumen to
Ġpeligros os
Ġpeligros amente
Ġdiv ina
Ġelectr icos
Ġsecuestra da
Ġrevis tas
Ġatraves ado
Ġgangs ters
Ġruss ian
Ġhill s
Ġexplor adores
Ġtriun f
Ġtriun fo
Ġtriun fa
Ġmapa che
Ġabus ado
Ġobvi os
Ġparti gi
Ġcorr ientes
Ġxddddddddd dd
Ġarreglar lo
Ġenv ol
Ġrevolucion ario
Ġinforma tica
Ġbombar deo
Ġpegando le
Ġdespier te
Ġdesf ile
Ġhorm igas
Ġbow ie
Ġonir icas
Ġses os
Ġmex icano
Ġviste is
Ġradia c
Ġestupen damente
Ġdisgus ta
Ġdesagra dables
Ġinvol un
Ġperman ecer
Ġemple ado
Ġemple ados
Ġlon don
Ġaso ciacion
Ġdispon ibles
Ġorien tada
Ġcliff hanger
Ġiw o
Ġodia do
Ġagres ividad
Ġquem ando
Ġquem ados
Ġwri ter
Ġprop uls
Ġcompe ti
Ġmanipula dos
Ġmetafor ico
Ġpatrio ta
Ġpatrio tismo
Ġobliga torio
Ġobliga toria
Ġdesvel an
Ġwins tead
Ġtribu to
Ġxx x
Ġcazar recom
Ġsubje tiva
Ġrese t
rrrr rrrr
Ġlea ve
Ġambigu a
Ġtrin idad
Ġsobrena turales
Ġindividu os
Ġsublim inal
Ġnich olas
Ġagradecer ia
Ġmascul ina
Ġinspi rada
Ġtatu ado
Ġterra za
Ġdebilidad es
Ġprostitu ta
Ġprostitu cion
Ġbrand t
Ġwel come
Ġinnecesaria mente
Ġpreguntando me
Ġcharl ton
Ġvigil antes
Ġev ad
Ġsecu az
Ġsobreac tuacion
Ġjug ger
Ġmosque a
Ġelectro cu
Ġplatafor mas
Ġmed usa
Ġcao tico
Ġsimili tud
Ġcica trices
Ġpropor ciones
Ġrespira ble
Ġkings man
Ġeurope a
Ġventi lacion
Ġcristi ano
Ġimpa gable
wy ne
Ġprevis ibles
Ġcolle jas
Ġec lip
Ġindis cu
Ġteen age
Ġbrus cos
Ġpit ch
Ġexpla y
Ġelig io
Ġjac ques
Ġnam ed
Ġperver sa
Ġcross bones
llll llll
Ġchapa pote
Ġari zona
Ġrefor zar
Ġ1779 30
Ġnorman dia
Ġtelep or
Ġpill en
Ġjine tes
Ġtrayec to
Ġdecapi tado
Ġsuposicion es
Ġleav ing
Ġcarica tura
Ġtrom peta
Ġurb ano
Ġeffec t
Ġsonris as
Ġdag ger
Ġenreves ada
Ġesquizofren ico
Ġalca traz
Ġabom inacion
Ġnefas to
Ġepvi i
Ġambul ante
Ġalcantar illas
Ġacredi tacion
Ġnine z
Ġservi dor
Ġmodes ta
Ġpublish ing
Ġpublish ed
Ġindustri al
Ġaul lidos
Ġcusto dia
Ġthunder bol
Ġrho des
Ġmanio bra
Ġembo bado
Ġinstrumen to
Ġrecorda ban
Ġlaugh s
Ġacar iciar
Ġcolos al
Ġculm ina
Ġdesastros o
Ġrez nor
Ġremor dimientos
Ġreiv ind
Ġinte gro
Ġceles tial
Ġsymp athy
Ġolive ira
Ġpil grim
Ġobli vion
Ġpresti gio
Ġauxil iar
Ġlovec raft
Ġsid ney
Ġempat ice
Ġtone ladas
Ġatt icus
Ġesceno grafia
Ġrup tura
Ġmorib undo
Ġboxe ador
Ġmica h
Ġbiz arro
Ġdestel los
Ġantor cha
Ġviking os
Ġshat ner
Ġplaus ible
Ġbreaker s
Ġflas back
Ġconje turas
Ġleit motiv
Ġdesay uno
Ġtedi osa
Ġrome o
Ġdiccion ario
Ġnaus icaa
Ġspiri t
Ġclau dia
Ġafgan istan
Ġsaman tha
Ġlucir se
Ġdook u
Ġstrang elove
Ġincondicion al
Ġlund gren
Ġsocor ro
Ġmids om
Ġrolle te
Ġblom kamp
Ġassocia tion
Ġgip sy
Ġsoph ie
Ġvacil ando
Ġbeas ts
Ġbruj ula
Ġtwil ight
Ġespeluz nante
Ġintergal ac
Ġnebras ka
Ġsatel lite
Ġfukuna ga
Ġantihero e
Ġcronocrim enes
Ġcazarrecom pensas
a ga
a tivo
b ada
b urne
d l
d x
e as
e jo
f d
f io
f ales
f ono
g ales
g ieron
h b
h g
h ab
i q
i ya
j w
j z
k w
k ro
k aban
m h
m l
n ell
o w
p q
p w
p ano
p ados
t iado
v g
v on
v illa
w oman
y ese
z ie
Ġ ones
Ġe ficiente
Ġp ing
Ġd ras
Ġd ath
Ġd yn
Ġl ente
Ġl iz
Ġs ter
Ġc s
Ġc una
Ġde pues
Ġde ne
Ġde mi
Ġde duc
Ġde tienen
Ġde xter
Ġm uel
Ġm pre
en tal
que a
on ista
as tas
ar is
ar ing
Ġque rida
Ġt n
Ġt p
Ġt ora
Ġt ing
Ġt ina
Ġt cw
Ġla o
Ġla cer
Ġla tigo
Ġla vado
Ġla beo
Ġn c
Ġn m
Ġn abo
in aron
ta t
ta le
Ġen son
Ġv ora
ic en
Ġun broken
te la
da ta
Ġno o
ra mente
Ġf ood
Ġb lon
is as
Ġme ca
la ba
Ġcon cha
il on
il ity
Ġg el
Ġg wyne
Ġal ia
Ġal be
Ġal ias
Ġal ly
Ġal ong
Ġal dr
Ġo o
Ġo lo
Ġo va
Ġo puesta
Ġo tono
Ġcom illas
Ġpor cen
Ġper dieron
Ġre go
Ġre son
Ġpel ele
Ġsu it
Ġsu dor
Ġsu dan
le ce
ec a
lo c
de en
de ar
Ġto pa
po cal
us s
icu las
Ġmu do
Ġmu ros
ti zacion
ier os
ier da
ier tos
Ġj c
Ġj al
Ġj ima
Ġj yn
ad i
ad il
Ġso fia
Ġso fis
Ġdes u
Ġdes cer
Ġdes vir
Ġdes ang
ir ar
ir iendose
tr iste
Ġw illo
Ġan c
Ġan h
Ġan tido
Ġan ore
Ġan iqui
Ġpo ya
tar i
tu me
Ġth ra
Ġth alia
Ġfin giendo
Ġmi el
Ġmi tos
co la
co pia
ma gic
Ġesc ab
Ġesc up
Ġesc oria
Ġdi va
Ġser en
Ġex it
Ġex cur
Ġpro gresion
Ġhab ito
Ġma ce
Ġma ps
Ġma queta
Ġma tasen
Ġas ilo
Ġas ign
Ġas fal
Ġas imov
Ġtien das
ran a
Ġx vid
Ġcre cen
ga cy
Ġtodo ter
Ġsal u
Ġsal taron
ib ales
man d
man ji
Ġqu ar
Ġqu ill
Ġsin dica
Ġsin gle
Ġescen itas
Ġtra igo
ur u
ur ri
ur ing
Ġbuen or
Ġco ch
Ġco ba
Ġco ver
Ġco bran
Ġti jer
Ġca era
Ġca ve
Ġca zan
Ġca use
Ġca zando
ho w
ho use
par d
par o
mas h
Ġson oro
Ġim ho
Ġ3 30
Ġ3 79
Ġ3 22
Ġ3 77
Ġ3 34
Ġk g
Ġk ien
Ġk ha
Ġk ni
Ġmal colm
Ġbas tisimo
ac re
Ġch im
Ġman ido
Ġman sal
Ġcos tar
Ġcos ica
Ġar go
Ġar row
Ġar diente
Ġar turo
Ġres acon
Ġmen ciones
Ġcas ta
Ġcas ey
Ġhu ge
Ġcar men
Ġcar net
Ġcar ey
Ġcar rito
Ġmejor an
ba ta
ba cion
idad os
Ġrec into
ver na
Ġprim os
Ġro lla
Ġro dados
Ġsen sa
Ġsen ala
Ġpe tri
Ġpe gada
Ġpe dr
Ġra ja
Ġjo i
Ġjo jo
Ġjo key
Ġjo dais
Ġab rup
Ġmo use
vi ra
Ġmar ino
Ġmar cial
Ġmar ear
Ġmar tilla
Ġda ko
Ġda ughter
Ġdej emos
Ġdis per
Ġdis turb
ing rado
va ge
Ġfor gi
Ġpa ula
Ġsus pir
Ġgu al
Ġhis tri
Ġplan ific
Ġor d
Ġor to
Ġor be
Ġpen ul
Ġpen tad
Ġdeci mos
Ġdeci dan
Ġexp enda
Ġpun tu
Ġesto pa
Ġlu pin
Ġlu pita
gar le
ble mente
Ġ4 77
Ġ4 57
Ġ20 2
Ġ20 3
Ġ20 5
Ġ20 6
Ġ20 8
Ġesper ada
Ġesper arse
Ġven til
Ġven tura
Ġven ecia
Ġinter rup
Ġcor ps
me t
Ġsuper hom
Ġgen ialmente
Ġne gado
Ġne uro
Ġfal len
Ġfal lida
Ġgran dios
Ġap uras
Ġap ril
Ġap parent
li es
Ġsa fe
Ġsa tanas
Ġapar entar
Ġcomp la
Ġgra ff
Ġgra fico
pec h
Ġna tion
Ġna cho
Ġlib rar
Ġlib eracion
Ġinc es
Ġcier vo
Ġmin imos
Ġir te
Ġdecir selo
Ġob reros
Ġmon arch
Ġfil i
Ġclar ke
Ġcam eras
ber os
vel y
Ġcan gre
Ġcan ibales
jer ia
Ġbo d
Ġbo tes
Ġbo drios
Ġ19 2
Ġ19 30
Ġ19 40
av ing
Ġus ados
Ġmor etz
Ġmor feo
Ġ9 11
Ġu z
Ġu ffff
Ġoc topus
Ġhom er
Ġcal lo
Ġcal lar
Ġtal ones
Ġespeci fica
Ġespeci ficamente
Ġvar itas
Ġpal mado
Ġli diar
Ġbe ach
Ġbe tty
Ġbus ques
Ġhar bor
Ġhar old
Ġden iro
Ġbat ty
Ġcontra tar
Ġz one
ea u
Ġton tas
na ut
na tural
Ġpi re
Ġci tas
Ġci elos
Ġon to
Ġad ic
Ġsub ida
Ġide m
Ġfo cus
Ġau tista
Ġsh u
Ġsh uri
Ġdan g
Ġdan vers
Ġins tancia
Ġju b
Ġju garse
Ġju dge
Ġju manji
Ġfilm ar
Ġinteres an
Ġinteres ar
Ġcol arse
Ġtrans mis
Ġespec ulacion
Ġfi x
Ġje d
tel lo
Ġefec tiva
Ġrecor tado
Ġrecor damos
Ġdra go
Ġref n
Ġref iriendose
Ġwatch ing
Ġtr ueno
Ġpan ic
Ġopin as
graf o
Ġmus ul
Ġnom inadas
Ġdeber an
Ġtor so
Ġtor eto
Ġlen e
Ġdeb iera
Ġdeb ili
Ġsim il
Ġsim io
Ġproble m
Ġdef ienden
Ġmarvel s
Ġenter an
Ġ15 1
Ġ15 9
Ġfutu ris
Ġsalv aj
Ġpasar lo
Ġanim ar
Ġcap ture
Ġcap ucha
Ġultima tes
Ġtend rias
Ġases or
Ġcien cias
bb it
Ġfu gi
Ġdocumen to
Ġvia jeros
id y
Ġtir ano
Ġtir aron
ick y
Ġactu ado
dy s
Ġat tra
Ġedi tor
Ġcen time
Ġemo tivos
Ġemo tivas
Ġemo tividad
Ġcul len
Ġcul turas
Ġke de
Ġmedia dos
Ġder r
Ġcritic arla
Ġsig il
Ġmag na
Ġdisfru tad
Ġvio leta
Ġgor ila
Ġmeter la
Ġescri bia
Ġescri bi
Ġatra gan
Ġconsig an
Ġfran ch
udo egstopds
Ġlan ce
Ġlan zado
Ġsorpren den
Ġsorpren dentes
Ġentra mos
ajaj aja
ajaj ajaja
Ġ14 6
Ġcomentar on
Ġcomentar lo
Ġguar ra
Ġguar dan
Ġhos tel
Ġhero ico
Ġves tim
Ġves tida
Ġtec hn
por ro
Ġrecuer d
ell en
et ti
Ġabur res
titu des
Ġvideo play
Ġconven cion
Ġconven ciendo
Ġpresen tando
Ġpresen ciar
Ġolvi den
Ġmir andose
Ġflo or
Ġflo tante
Ġflo wers
Ġsobra das
Ġrapi dez
Ġfli pan
Ġconsegu ia
Ġmad ness
Ġpolic e
Ġdialo gue
Ġdestru ya
Ġbor re
Ġbor dan
Ġhic iste
Ġhic imos
Ġgru pito
Ġga ta
Ġleer se
izar la
Ġmencion ada
Ġrazon ar
Ġpost produccion
Ġanti guedad
Ġtem or
ild ing
Ġexis tiendo
Ġexis tente
Ġren cor
Ġ22 9
Ġemocion o
Ġmes s
Ġqueria mos
Ġpad me
Ġescu pe
Ġinven taron
Ġhol d
Ġapo lo
Ġaf lo
Ġengan ando
he it
Ġge tt
Ġutil izada
aaaa an
fo b
Ġfir m
Ġfir mo
Ġencanta o
Ġencanta dor
Ġ25 6
Ġimpos ibilidad
Ġdesta cado
Ġblack magic
Ġante ce
Ġlin da
Ġlin us
Ġinclu ding
Ġsacar te
Ġentr ara
Ġele va
Ġdefin ida
Ġdiver sidad
Ġblan cas
Ġjue gas
rer ia
Ġobs er
Ġacep te
Ġpreten dian
Ġcivil izaciones
Ġmonta ge
Ġllevar le
Ġpele arse
Ġcris tina
Ġdescon tento
Ġchris tie
Ġplante o
Ġplante ando
Ġmur m
Ġmur nau
Ġsuf ra
Ġwal ks
Ġpinta za
Ġtri dente
Ġtri bus
Ġwor ks
Ġevi dentes
Ġrob os
Ġinfor me
Ġhel m
Ġ27 5
Ġgre m
Ġgre ase
Ġsecre taria
Ġveia mos
Ġpsico logicamente
Ġenfren tandose
Ġconfir macion
Ġrecono ci
Ġ40 7
Ġbur n
Ġayu den
Ġnight mare
Ġred undancia
Ġnum ber
Ġros so
Ġbre cha
val u
Ġpic ara
Ġtris tisimo
Ġed mund
Ġras hom
Ġanad idos
Ġcorrec cion
Ġcorrec tos
Ġsta y
Ġlis a
Ġlis tado
Ġcomer me
Ġprepar acion
Ġeh hh
Ġconoci amos
Ġfra gata
tern idad
Ġrepe tida
Ġexplo tan
Ġcreer se
Ġmoles te
Ġlevan tado
Ġpec kin
Ġjajaj ajj
Ġencar na
Ġcuestion ar
21 8
Ġsp alko
Ġelemen ts
Ġgal le
Ġgal eria
Ġexperimen tacion
Ġacor des
Ġacor dado
Ġacor dando
Ġdefen sor
Ġnarra tivamente
zz i
Ġesco ces
Ġrema ta
Ġstran ger
Ġwa pa
Ġcere bros
Ġbol sas
Ġrecuper o
Ġcambia ba
Ġstre ets
30 2
Ġsk ills
Ġafec te
Ġafec to
Ġwho le
Ġchor ro
Ġdestruir lo
Ġayudar les
tom ato
Ġbir th
Ġluch ado
Ġofic ialmente
Ġmono tona
pu tas
Ġconstru yen
Ġcolor ido
Ġaz kaban
Ġhead shot
Ġext iende
Ġplane an
Ġplane ando
Ġran a
Ġliber ty
Ġdorm ida
han d
Ġdemon s
cis tas
Ġmirando lo
Ġbil letes
Ġalf ombra
Ġaguan tan
Ġhabi tualmente
Ġsc ru
Ġalcan zo
Ġkill s
Ġkill monger
Ġclic k
Ġcie g
Ġtransform er
Ġtransform ar
Ġtransform ando
Ġpri de
Ġpri va
Ġmues tras
Ġmues tre
Ġaparecer ia
Ġdem ol
Ġhobbit s
Ġlig ado
Ġfle ck
Ġfle tcher
Ġind ones
Ġexager adamente
Ġtermin al
Ġase dio
Ġber ry
Ġrevision arla
Ġpate ticas
Ġmotiv ado
Ġform ada
Ġalar ma
Ġgr un
Ġgr ues
Ġrele ase
Ġprin c
Ġprin ce
Ġoblig an
Ġoblig ando
Ġmoral ina
Ġgood bye
Ġperio dos
Ġarth as
Ġst iller
Ġstu pid
Ġacompan ante
Ġdibu jar
Ġshe eran
Ġcron ica
Ġcabron azo
Ġrespons ables
Ġscen a
Ġamar ga
Ġinsul sos
Ġrich ards
Ġinv icto
Ġfea tures
Ġcompor tarse
Ġautor a
Ġduen os
Ġpaci fico
Ġcue ro
Ġapa gar
Ġsopor ta
Ġcolo cando
Ġsens or
Ġsens ibles
Ġhere dero
Ġsimbol ismos
Ġweb cam
Ġfren a
Ġlocal izar
Ġarras trandose
Ġdesesper ados
Ġposi tivos
Ġmane jan
Ġescapa toria
Ġcontes tado
Ġcontes tando
Ġtel ar
Ġtel aran
Ġmaximo ff
Ġinm ol
Ġinver sion
Ġjos s
Ġfer ry
Ġfer nando
Ġcog ni
Ġdil igencia
Ġcamp bell
Ġeng ran
Ġans ioso
Ġdaniel s
Ġital ianos
tina tion
Ġjuras ic
Ġilum inar
quier en
Ġfem me
Ġchun gos
Ġdiri gidas
Ġvolun tario
Ġcontrola dos
Ġequilib rada
Ġfla g
Ġfla men
Ġperten ecer
Ġjon h
Ġsenti ria
Ġnecesi ten
cuen cia
Ġproteger se
Ġcore anos
Ġrol lito
Ġmagis tralmente
Ġthin king
Ġbusc aban
Ġescritor a
Ġais lados
Ġtrauma tizado
Ġautobus es
Ġproto tipo
Ġatropel lar
Ġnova tos
Ġwestern s
Ġaumen tando
Ġincom ing
Ġpromo cional
Ġelectr icidad
Ġarch ivos
Ġdue los
Ġespar ta
Ġflor ero
Ġflor encia
Ġgamb er
Ġcomb ina
Ġdescrip ciones
Ġhoff a
Ġtriun fado
Ġrealiz ador
Ġobvi ar
Ġfrag il
Ġaho ga
Ġaho gar
Ġox ford
Ġindic ios
Ġdeso lado
Ġdeso lador
Ġantic i
Ġacepta mos
Ġinquie tud
Ġpur gatorio
Ġvera cidad
Ġcomunic an
Ġadop ta
Ġcrack s
Ġincon tro
Ġinterac tuar
Ġbow ers
Ġparticip ado
Ġparticip antes
Ġdream works
Ġger ard
Ġcep illado
Ġhip nosis
Ġstra ight
Ġcoron ado
Ġenfrenta mientos
Ġcinematogra phy
cor p
Ġperci b
acu lo
Ġanima tion
Ġregen era
Ġregen eracion
Ġasomb rosa
Ġcobar des
Ġanalizar la
Ġapete cia
Ġpole mico
Ġcontradic e
Ġjuven il
Ġagres iva
Ġglor y
Ġglor iosa
Ġsitu ado
Ġcredi ts
Ġfon da
Ġcompe tir
Ġactiv ista
Ġvaria ciones
Ġdenun ciar
Ġseleccion ar
Ġmmm m
Ġinstin tos
hhhh hhhh
Ġsatisfac toria
Ġhell boy
Ġcoca ina
Ġcoca cola
Ġtitu lar
Ġdesencad enado
Ġreconstru ir
Ġantagon istas
Ġdinam ismo
Ġmeteor itos
Ġdivi de
Ġdivi dida
Ġgil lian
Ġintegra dos
Ġasis tentes
Ġveter anos
Ġpaus ada
Ġincomo da
Ġub ic
Ġdesconec tado
Ġinevitable mente
Ġtrasla dan
Ġcaps ulas
Ġaprendiz aje
Ġcolabor ar
Ġdesvan ece
Ġanalo gico
Ġservir ia
Ġcapital ista
Ġreper cu
Ġpalmar la
Ġvom ito
Ġcau tiv
Ġcry oned
Ġbron ca
Ġinvoluc rado
Ġsuger ir
Ġcoti diana
Ġcandida to
Ġnombra do
Ġestereo tip
Ġestereo tipos
Ġestrope a
Ġcle ar
Ġmalv ados
Ġmoney ball
Ġtelevis or
Ġmurciela gos
Ġfabric ado
Ġawak en
Ġllo yd
Ġshin ing
Ġaustral iano
Ġoffic e
Ġmotos ier
Ġum bre
Ġtumb ado
Ġbis hop
Ġpredic cion
Ġencier ro
Ġenfada do
Ġcolec tiva
Ġdemen cial
Ġgarra fal
Ġrena ce
Ġpale to
Ġincorpor aciones
Ġatar decer
Ġlaur ent
Ġlaur ence
Ġyan ki
Ġbue h
Ġcrom os
Ġdemo le
Ġdemo cracia
Ġalea toria
Ġbelie ve
Ġanomal ia
Ġanomal isa
Ġvue le
Ġhacke ar
Ġescalof riante
Ġchal eco
Ġmostra ban
Ġfasc inacion
Ġpill ando
Ġcun ado
Ġenven en
Ġsua ve
Ġmasco tas
Ġexil io
Ġshar k
Ġilo gico
Ġpaco tilla
Ġsirv ienta
Ġurb ana
Ġsever us
Ġinvis ibles
Ġcoc tel
Ġcarn age
Ġpractic ar
Ġsimbion tes
Ġesquizofren ia
Ġwer ner
Ġaspira ciones
Ġsupervis or
Ġsimul tane
Ġinexplic ablemente
Ġcil ind
Ġinsegu ridad
Ġrecla mo
Ġez ra
Ġmck ellen
Ġparade mons
Ġdesqu ic
Ġverosim il
Ġrho dey
Ġbattles hip
Ġrepu tacion
Ġreapar ece
Ġfigu re
Ġbs c
Ġconces iones
Ġperf ume
Ġacen tua
Ġric ardo
Ġappro ach
Ġcercan as
Ġsimpson s
Ġarqueo logo
Ġstruc ker
Ġesbir ros
guar dia
Ġautodes truccion
Ġspoil ea
Ġdespedir se
Ġaper tura
Ġdign idad
Ġdeno ta
Ġalic iente
Ġcass idy
Ġposta pocal
Ġconstan tino
Ġacopla miento
Ġbichar raco
Ġendu rance
Ġmedal la
Ġcaes ar
Ġdistop ico
Ġdiscapa cidad
Ġfilmma ker
dul idad
Ġspan ish
Ġprimi tiva
Ġhister ica
Ġinstruc ciones
Ġtransf usion
Ġdesembar co
Ġsucces s
Ġclaustro fob
Ġantar tida
Ġescan dal
Ġbroke back
Ġinexpres ivo
Ġesquiv ando
nag as
Ġfias co
Ġalm irante
Ġalcal de
Ġmascad ito
Ġgill iam
Ġpertur bado
Ġklo pek
Ġrotten tomato
Ġinterra cial
Ġcolmen a
Ġarmage ddon
Ġpatrul la
Ġkirs ten
Ġeure ka
Ġmii ke
Ġuste des
Ġimprob able
Ġpada wan
Ġmathe w
Ġlucier nagas
Ġnosecu an
Ġboye ga
Ġcenic ienta
Ġdecli ve
Ġmult icul
Ġrockn rolla
Ġdeathstro ke
Ġincog nitas
Ġjugger naut
Ġindiscu tible
Ġmidsom mar
Ġlabeo uf
Ġsofis tic
Ġdescer e
Ġwillo w
Ġanore x
Ġaniqui lacion
Ġasfal to
Ġmansal va
Ġdako ta
Ġpentad imension
Ġexpenda bles
Ġrashom on
Ġpeckin pah
Ġpostapocal ip
Ġrottentomato es
2 00
b ul
b ron
c ro
c uer
c amos
c dn
f b
f j
f z
f ista
f fic
f uc
f indel
g c
g ly
g adores
h p
h q
h ue
h un
i w
i yo
i tivos
j b
j x
j y
j ia
k z
k ku
n am
n ings
o a
o ke
p iente
q l
q atsi
r x
r inos
s tone
s tein
u v
v w
v ds
v ale
w i
w r
w oo
w eet
x z
y or
y entes
z k
z x
z ad
z aban
Ġ uego
Ġ omb
Ġe ru
Ġp ta
Ġp ito
Ġp ng
Ġd y
Ġd ora
Ġd iente
Ġd nd
Ġl il
Ġl elo
Ġl illy
Ġs ra
Ġs can
Ġs cul
Ġs tif
Ġs isi
Ġa x
Ġa im
Ġa du
Ġa eron
er lo
Ġde e
Ġde is
Ġde pos
Ġde dico
Ġde ux
Ġde ficiente
Ġde mac
Ġm pg
en omena
que ar
as s
as es
an an
an is
Ġt ve
Ġt aaan
Ġes la
Ġes tima
Ġla tiga
Ġla brador
or al
or ando
Ġh mmm
un ic
Ġy uma
Ġn ana
in en
in ing
ta m
ta ins
Ġen vie
Ġen medio
Ġen umer
Ġel f
Ġel as
Ġel is
Ġel le
Ġv ina
Ġv lad
ic ista
ic ias
ic ismo
ic leta
es i
Ġun ida
Ġun kno
te z
Ġno ven
Ġno ke
Ġf tw
Ġf ighters
Ġb aba
Ġb ino
Ġb ug
Ġb right
Ġb acon
Ġb elow
om os
is er
to x
to don
Ġse pia
Ġme gas
Ġme mes
Ġcon que
Ġcon or
Ġcon vo
Ġha un
Ġha da
ien ses
il os
il yn
Ġg rom
Ġg ps
Ġg ong
Ġal tar
Ġal pin
Ġal mana
Ġlo teria
Ġlo op
Ġpar ido
Ġpar ienta
Ġpar dillo
ro l
Ġo i
Ġo be
Ġo oo
Ġo dys
Ġcom ia
Ġcom ieron
Ġpor n
Ġpor ron
Ġpor tador
Ġper las
Ġre el
Ġre ducida
Ġre trospectiva
Ġre bela
Ġpel le
Ġsu cios
am entos
de g
de ja
Ġto cada
Ġin ad
Ġin ma
Ġin mo
Ġin ac
us co
us tillo
Ġmu uuuuuuuu
ab uena
Ġdel iber
Ġdel irante
ch en
Ġcomo didad
ti ran
ti jeras
Ġcu p
go od
Ġpara fer
Ġpara dis
Ġesta lla
Ġmas todon
Ġle gi
Ġle gacy
Ġj ong
ad isimos
io ur
Ġdes v
Ġdes di
Ġdes den
Ġw ena
Ġw izard
Ġan f
Ġan ac
em eja
Ġpo o
Ġpo ko
Ġpo dais
Ġac ora
Ġac oso
Ġac tivo
tu ris
ada ms
aj an
Ġfin iqui
Ġmi dic
ma ciones
Ġesc rup
Ġesc asa
tor e
tor menta
ce d
ce te
ce lado
Ġdi ar
Ġdi rian
Ġdi ed
Ġdi rias
Ġser ra
Ġex tas
Ġex itos
Ġex ige
di anos
ol i
ul c
Ġma ga
Ġma ver
Ġma ko
Ġas emeja
Ġx a
Ġx p
Ġcre amos
Ġcre adas
ga os
Ġsal ly
Ġsal udar
Ġya ku
Ġve je
Ġr lm
Ġpas sion
Ġpas ea
Ġpas ajes
Ġtra g
Ġtra ten
Ġtra tada
Ġhe ar
se e
Ġhay den
Ġco ber
Ġco pas
Ġco brar
Ġco fra
Ġti pe
Ġti jera
Ġca f
Ġca ke
Ġca guen
Ġca tch
Ġca yera
ho pe
ho ck
pe o
pe ton
Ġni k
Ġni xon
mas s
ie te
ie ty
Ġ3 32
Ġk b
Ġk us
Ġk ay
Ġmal ditas
Ġpeli ro
Ġbas ed
Ġbas icas
Ġtan ke
Ġman de
Ġman dos
Ġman chester
Ġcos tume
Ġar sen
Ġres ol
Ġres iste
Ġres enar
Ġres pal
Ġcas ca
Ġcas ados
Ġcas cado
Ġva pu
Ġva queros
Ġhu me
Ġmis ta
Ġcar ry
Ġcar ly
Ġcar ni
Ġcar ecen
Ġcar lito
Ġmejor ada
ba y
Ġam aba
Ġam nes
ine o
ver sa
pi tos
tt tt
Ġro d
Ġro dillas
Ġsen ado
Ġsen tarse
Ġpe inado
Ġpe guen
Ġpe gaban
Ġpe dantes
Ġra mi
Ġjo da
Ġjo doro
Ġab el
Ġmo h
Ġmo via
Ġmo tel
Ġmar mo
Ġmar ron
Ġmar isa
Ġmar rones
Ġda ga
Ġdej eis
Ġpa tan
Ġpa kistan
Ġmomen taneamente
Ġpu ri
Ġeste la
Ġeste ban
Ġgu la
Ġgu ir
Ġgu iado
Ġgu ramente
ru mp
Ġdeci as
Ġexp resa
Ġpun os
Ġdu k
Ġdu card
Ġdu verna
Ġlu v
Ġlu cia
ble bee
Ġ4 51
Ġ4 40
Ġ4 11
Ġ4 37
Ġ4 98
Ġ20 7
den a
den cias
Ġven azo
Ġven tormenta
Ġos tion
Ġhacer las
Ġinter dimensional
Ġ5 19
pon ent
Ġcor tita
Ġcor bata
me zc
Ġsuper an
Ġsuper ando
Ġsuper vision
Ġgen tle
Ġne igh
ke e
Ġap ale
Ġsa cha
fic ador
Ġapar ta
Ġpos tre
Ġcomp ras
Ġcomp rando
men es
uc ar
Ġacab aban
Ġcier va
Ġmin ia
Ġmon ica
Ġmon je
Ġmon ja
Ġfil e
Ġfil emon
Ġfil traciones
so o
Ġ8 47
cen ce
Ġmun ich
Ġho pper
Ġestan cia
Ġem is
Ġem bos
ne tt
Ġcan i
Ġcan cha
Ġcan non
Ġcan dela
Ġcan onazos
Ġand ante
Ġsegu i
Ġqueda te
Ġbo ce
Ġpod cast
Ġ19 1
Ġ19 34
Ġ19 31
Ġpens ara
Ġpens emos
Ġpens adas
Ġpens aron
Ġus ara
Ġri gu
Ġri zar
Ġvol viese
Ġinten sas
Ġop to
Ġop resion
Ġop ens
Ġop ponent
Ġmor ada
Ġmor bo
Ġmor ning
Ġencan tara
Ġu hm
tando lo
Ġoc p
Ġhom on
Ġcal e
Ġcal cado
Ġcal cados
Ġemp eno
Ġorig ina
Ġtal ler
Ġpres tado
Ġpal mas
Ġfan ning
Ġli la
Ġli tros
Ġher ir
Ġba f
Ġba tes
Ġba xter
Ġestar emos
Ġsac os
Ġsac red
Ġtom os
Ġesp in
Ġesp oso
Ġcontra tan
Ġz el
Ġenten dio
vis te
Ġep il
Ġpi que
Ġpi ece
Ġad je
Ġad ded
Ġsub produc
Ġsub texto
Ġbar ric
Ġban al
Ġwar mach
Ġis las
Ġsh are
Ġdan cing
Ġins tru
Ġins truccion
Ġabs ten
Ġestu b
Ġestu viesen
Ġhor ita
Ġfilm es
Ġinteres ting
Ġsuen e
Ġcol era
Ġcol gados
Ġcol later
Ġtar des
Ġtar dara
Ġtar eas
Ġgusta o
Ġespec ular
Ġexplic itas
osa urio
Ġsan t
Ġcabe zon
Ġrecor tada
Ġref lo
Ġpan es
Ġpan cho
Ġmer lin
Ġuni das
Ġponer los
Ġmus culos
Ġnom b
Ġcin tura
Ġincl ino
Ġdetal lito
Ġdetal litos
Ġwh it
Ġdeber es
Ġ12 4
Ġsol ia
Ġsaber se
Ġtor rent
Ġlen titud
Ġano d
Ġtier na
Ġenter arme
Ġnota bles
Ġsalv aron
Ġpasar le
tur ro
Ġpla ton
mar k
Ġfu man
Ġvia jo
Ġfantas iosa
Ġreg ustillo
Ġlim us
id el
Ġtir ria
Ġrom anos
inar y
Ġespa ci
Ġ13 3
Ġcompar es
Ġpensar an
Ġja kku
Ġcen tros
Ġcen tre
Ġcen iza
Ġenf ado
Ġder ek
Ġsig nos
Ġgor dito
Ġmeter ia
Ġale j
Ġale jar
Ġ17 8
for ce
Ġdin os
Ġlan ding
Ġdescu ad
Ġbra m
Ġlog ros
Ġmata ban
Ġps ss
Ġbon ham
Ġpreci osos
Ġfis t
ins tream
Ġris ing
Ġido la
Ġfuncion o
Ġfuncion al
Ġfuncion aria
Ġ16 6
Ġ16 8
Ġcrea ture
Ġbu a
Ġcontro le
Ġ18 3
Ġdecepcion ada
Ġserio us
Ġtre asure
Ġincre dulidad
log y
Ġhablar le
mon os
ther in
Ġbor omir
Ġmencion adas
Ġ21 2
Ġ21 4
Ġ21 5
Ġrefer ir
Ġprome teo
Ġtem aticas
Ġcontinu an
Ġer rone
Ġacabar ian
Ġren ombre
Ġinven ten
Ġaten tos
Ġaten der
Ġ24 5
ph one
Ġfel t
Ġang ulos
he he
Ġcontar e
Ġespecial istas
Ġgri al
Ġgri eta
Ġdobla das
Ġdesta que
Ġrepar tido
Ġdescub rio
Ġcomun ista
Ġblack hand
ers elo
Ġlin es
Ġlin aje
Ġbr illar
Ġele vado
Ġele gancia
Ġsob ro
Ġsob raron
Ġambien ta
Ġcur ren
Ġcur si
Ġcur rent
Ġextra ido
Ġpropia mente
Ġacep tando
Ġpele andose
Ġgar den
Ġwas n
ting ue
Ġdescon cier
Ġllor aba
Ġ23 7
Ġnor uega
Ġactual izando
Ġbro ad
Ġllama tiva
Ġtes oros
Ġplante e
Ġ28 1
Ġ28 6
Ġ28 20
Ġ28 19
Ġtex tualmente
Ġmanos tijeras
ili tud
Ġtri tura
Ġwor ds
Ġfol lan
Ġfol lado
Ġinfor man
Ġpobre za
Ġ27 0
Ġcomien zos
Ġka tanas
iller ia
Ġpsico del
Ġcha in
Ġcha chi
Ġenfren tados
Ġtur turro
Ġconfir mada
Ġensen e
Ġensen en
Ġrepresen tando
Ġbur gues
Ġred undante
Ġros tros
Ġros ario
Ġrus he
Ġpelo ton
Ġdro gado
Ġbos ton
Ġsta tus
Ġmc adams
Ġmatan dose
Ġexplos ivo
Ġprepar e
Ġpul s
Ġpul pos
Ġgas to
Ġhal le
Ġnatur almente
Ġprem isas
Ġsimp atia
Ġapun al
Ġroman ces
Ġph ys
Ġph enomena
Ġking pin
oooo ooo
Ġcreer me
Ġquita ba
Ġquita mos
Ġpec k
Ġnie tos
Ġgolpe ando
Ġconcre tas
ters weet
Ġelec tron
Ġdese aba
Ġcaracter es
Ġdejando te
21 4
Ġsp ino
Ġgal lo
Ġchu te
Ġrub iales
Ġcria das
Ġbuscando la
Ġrecuper ando
Ġbom beros
Ġestren adas
Ġsome where
Ġextran ado
Ġdimension al
Ġbomb adil
Ġllamar la
Ġllamar me
30 5
Ġabandon aron
Ġdestruir la
Ġfac cion
Ġreir te
Ġprovo can
Ġfri os
Ġreco p
tw o
48 8
Ġtramp illa
Ġaz ucar
Ġingenier ia
Ġfeliz mente
Ġbig elow
Ġabra is
Ġanal iza
Ġpolla das
Ġ38 22
Ġquin tana
Ġderro tan
Ġhollywood iense
Ġorgan izado
Ġorgan ismos
Ġdescono cimiento
Ġ39 7
38 1
Ġdemos tro
Ġdum blen
Ġdetec ta
cien dose
Ġconec tadas
Ġprogra mados
Ġapre ciado
Ġconvertir la
Ġface tas
Ġescapar a
Ġimagin ando
Ġeven ts
Ġprefer idos
Ġce bo
Ġresum idas
16 00
Ġfamos as
Ġneg rita
Ġdinosa ur
Ġtermin en
Ġsepar an
Ġsepar arse
Ġamo ur
Ġdespe inarse
Ġsar ta
Ġresu mo
Ġ196 1
Ġprin gao
eeee ee
Ġexces os
Ġexces ivas
Ġoblig ada
Ġdri ft
ish i
ish ing
Ġmanip ulando
Ġofre cio
Ġjustific able
Ġmaravilla do
Ġreflex ivo
Ġala triste
Ġarran co
Ġcamar era
Ġacompan an
Ġacompan ar
Ġaluc inado
Ġner f
Ġsun g
Ġinn umer
Ġpoe tico
Ġcasco porro
Ġresuel va
Ġrei tero
Ġparado x
Ġdiscu te
yer an
Ġago tado
Ġfiloso ficos
Ġcali fica
Ġharia mos
Ġregres an
Ġanun ciar
Ġcarre tilla
Ġcargar an
Ġpaci entes
Ġsuces or
Ġcopia da
Ġdedic ada
Ġresuci tan
Ġapa gado
Ġapa gada
Ġges tion
Ġcolo fon
Ġfren tes
Ġfren esi
Ġemb ru
Ġwonder ful
Ġparano yas
Ġarries garse
Ġdesesper adamente
Ġtranscur ra
Ġmod el
Ġater radora
Ġextrem ista
vers ario
Ġsenal ado
aaaaaaaa a
Ġmere dith
Ġimagina is
Ġ32 3
Ġcompro bado
Ġspe ci
Ġultra vio
Ġdesaprovech ar
Ġintu ia
Ġinver so
Ġinver tidos
Ġcaus ante
Ġpatr ones
Ġdisfra ces
Ġrecre ado
Ġborra chos
Ġocu pan
vida bles
Ġcli ve
Ġglo bos
Ġalimen tar
Ġalimen tacion
Ġener ge
Ġmac beth
Ġignor ante
Ġsang soo
Ġstorm wind
Ġrepetir lo
Ġstal ingrado
Ġinesper ados
Ġcolon izar
Ġtorre mol
Ġilum ina
Ġador an
Ġasus tada
Ġchic le
Ġpose ida
Ġatro cidad
Ġinfil tra
Ġholo gramas
Ġinvi to
Ġinvi tados
Ġmodi ficaciones
Ġbastar do
Ġarquitec tura
Ġhiper re
Ġki ki
Ġwould n
Ġgat illa
Ġdeclar o
Ġbul to
Ġrobar on
Ġexclus ivo
Ġbala zos
Ġsobresal ientes
Ġrein iciar
Ġid il
Ġsubir ia
Ġape go
Ġtrauma tico
Ġfria mente
Ġdisc rim
Ġkar ma
Ġnumeros as
Ġestable cer
Ġradio ac
Ġandre i
Ġinci ta
Ġincom pe
Ġopera tivo
Ġelectr ico
Ġencaj aba
Ġempi ecen
Ġsecuestra dor
Ġvestu arios
Ġrebo te
Ġasque ado
Ġrick y
Ġoptim ismo
Ġafir man
Ġabus an
Ġabus ar
Ġlong bo
Ġsm ell
Ġblock busters
Ġsecues tran
Ġacel era
Ġkre o
Ġpur p
Ġcomunic ar
Ġxddddddddddddd dddddddd
Ġhorm igon
Ġrevel ando
Ġreser va
Ġonir icos
Ġperiod icos
Ġcrepus cular
Ġdespi den
Ġcum ulo
Ġintroducir se
Ġresponsabilidad es
Ġbit tersweet
Ġperci be
Ġinno va
Ġextin ction
Ġvag amente
Ġnostal gico
Ġconfun den
Ġlon gi
nal ia
Ġvib ra
Ġarru inar
Ġarru inado
Ġjohan n
Ġimpre decible
Ġspot less
Ġaden tra
Ġaden tro
Ġinflu ido
Ġcolum bus
Ġhappen ing
Ġglor findel
Ġsitu ada
Ġprop uso
Ġeconom ica
Ġeconom icos
Ġincongr uente
Ġcompe tencia
Ġvein ti
Ġgrie ga
Ġhaz lo
Ġpropie tario
Ġpropie dades
Ġcampe ona
aaa an
Ġmelan ie
Ġsatisfac er
Ġtitu lada
Ġbienven ida
Ġemer gen
Ġbah ia
Ġmuuu ucho
Ġlesb ica
Ġderri bar
Ġderri bado
Ġdespren derse
Ġsentimental ismo
Ġquera mos
Ġmej icano
Ġgil roy
Ġintegra cion
Ġmiser able
Ġbailar ina
Ġtrin ity
Ġindividu ales
Ġinverosim iles
Ġmaltra to
Ġdistra e
Ġdelic iosa
Ġexcep ciones
Ġcostum bres
Ġmoun tains
Ġregal ar
Ġvice versa
Ġble h
Ġterra form
Ġrelevan tes
Ġrica chon
Ġhand ma
Ġfish burne
Ġconserv ar
Ġjug adores
Ġyel low
Ġpelu queria
Ġdistribu cion
Ġdistribu idora
Ġdeprim ido
Ġincongruen cia
Ġdetalla do
Ġlav abo
Ġdescolo ca
Ġdepre dadores
Ġhilar ante
Ġempal ag
Ġtelevis ivo
Ġeurope o
Ġllo ver
Ġllo viendo
Ġdecid me
Ġepi demia
Ġaer ea
Ġhahaha ha
Ġinta cta
Ġoffic er
Ġvola dora
Ġbrain iac
Ġdeli rio
Ġdesar ollo
Ġdiscurs itos
Ġmatema ticas
Ġresurrec tion
az go
fel d
Ġec lips
Ġquejar me
Ġmech ero
Ġlock er
Ġow ne
Ġindis pens
Ġtej ido
Ġprison ers
Ġirrele van
Ġnon sen
Ġprece dentes
Ġimpon ente
Ġboom er
Ġgarra fales
Ġchatar reros
Ġelabor ar
Ġgafapas tas
Ġblas t
Ġrena cido
Ġamel ia
Ġcorpor al
Ġzoo ey
Ġtimo thy
Ġesfor zado
Ġentras e
Ġproces os
Ġcamuf laje
Ġatravies an
Ġsangr iento
Ġdecan to
Ġdelin cuentes
Ġdelin cuente
Ġcule bra
Ġcule bron
Ġmass acre
Ġmostra ba
Ġcelebra cion
Ġvergonz osa
Ġlights aber
Ġfec unda
Ġabri go
Ġpastelos o
Ġilo gicas
Ġcarica tures
Ġhermos a
Ġrepas ando
Ġjump s
Ġatlan tis
Ġcansan cio
Ġvien tre
Ġmeet ing
Ġempres arios
Ġideo logia
Ġprefier es
Ġenvuel to
Ġenreves ado
Ġdecep tic
Ġinol vidables
Ġexquis ito
Ġextermin io
Ġchiqu illa
Ġepvi ii
Ġambic ioso
Ġambul ancia
Ġtrope cientos
Ġcontag ion
Ġalcantar illa
Ġdvdrip http
Ġminiser ies
Ġevacu ar
Ġinsegu ro
Ġmales tar
Ġcerve zas
Ġspec tre
Ġastu to
Ġmerecer ia
Ġhipote tica
Ġhipote tico
Ġhs iao
Ġtrafic antes
Ġchec k
Ġrecar gar
Ġpunal ada
Ġesbir ro
Ġindes truc
Ġcated ral
Ġdiscus iones
Ġmonumen tal
Ġcala veras
Ġangusti osa
Ġeco log
Ġchus ta
Ġorgas mo
velo cidad
Ġharmon ica
Ġadon is
Ġgrin go
Ġpermit iendo
Ġsubre alista
Ġinda gar
Ġcodic ia
Ġcosm icas
Ġpep ino
Ġventan illa
Ġclin ica
Ġgav io
Ġlej ana
Ġdesha ce
Ġprevi os
Ġpredeces ora
Ġtaliban es
Ġdesencaden ante
Ġacues ta
Ġrh ino
Ġenfermer ia
Ġcircu ito
Ġsimpli fic
Ġextraordinar ias
Ġchocola te
Ġbacter ias
Ġsey mour
Ġmull igan
Ġdester rado
Ġkan sas
Ġencab ron
Ġcompuer ta
Ġaugus t
Ġclock work
Ġ841151 97
esque leto
Ġresi du
Ġjapan ese
Ġmcgu ffin
Ġmanifies ta
Ġrevolution ary
Ġcim ino
Ġeslo va
Ġestor n
Ġelio t
Ġingre dientes
Ġworm hole
Ġexca v
Ġkami ka
Ġboch orn
Ġinsi dious
Ġamate ur
Ġescase z
Ġdisa ppe
Ġcanad iense
Ġriven del
Ġjubi lado
Ġzapat illas
Ġunderstan d
Ġewok s
Ġtera pia
Ġindu dable
Ġprehis tor
Ġprecau cion
Ġcif ras
Ġmediavi deros
Ġsilmar illion
Ġroschar ch
Ġgraciose te
Ġdormam mu
Ġdath omir
Ġalbe drio
Ġaldr ich
Ġexcur sion
Ġtodoter reno
Ġtijer eta
Ġforgi ves
Ġhistri on
Ġpenul tima
Ġapparent ly
Ġcangre jo
Ġderr umb
Ġtelaran as
Ġincontro lable
Ġmotosier ra
Ġumbre lla
Ġanorex ica
Ġstif ler
Ġelis abeth
Ġunkno wn
Ġodys sey
Ġparafer nalia
Ġdesdi bu
Ġescrup ulos
Ġmaver ick
Ġcofra de
Ġjodoro wsky
Ġwarmach ine
Ġcollater al
Ġtorremol inos
5 46
a ca
b ri
b one
b ile
c les
c ord
c rito
d z
d son
d imos
e ando
e ase
f h
f n
f itas
g ger
g ala
g ins
i fer
i ficar
j d
j ante
j ara
k tu
k ha
k iria
k ely
m c
m w
n abe
o g
o x
p tor
p ica
p adas
p tico
p ped
p cm
q c
q m
r iente
u za
u ke
u ts
u ille
v u
v us
w b
x l
x p
y k
z zo
Ġe ma
Ġe man
Ġp m
Ġp lo
Ġp eces
Ġp aje
Ġp izar
Ġp imiento
Ġp echos
Ġp fis
Ġd f
Ġd n
Ġd ul
Ġl s
Ġl umb
Ġs v
Ġs tro
Ġs ick
Ġa vo
Ġc ed
Ġde d
Ġde mente
Ġde cre
Ġde duccion
Ġde dique
Ġm ine
Ġm gs
Ġm ple
Ġm nu
on to
as u
an ia
an illo
Ġque so
Ġla mer
or io
Ġh ig
Ġh ala
Ġh ondo
Ġy i
Ġy os
Ġy ang
Ġn r
Ġn ur
Ġn cer
Ġn ero
Ġn ono
in gu
in dic
Ġen joy
Ġel pa
Ġel eph
Ġv elas
Ġv acu
ic ona
es tes
es sa
al s
Ġun idades
Ġun cle
te to
ci ados
Ġno gales
Ġf b
Ġf io
Ġf ry
Ġf osa
Ġf ps
Ġf eet
Ġf andom
Ġb ub
is sa
is bol
to v
Ġme t
Ġme lon
Ġcon nel
Ġha des
el ma
ien dan
ien donos
Ġg ores
Ġg are
Ġg row
Ġal do
Ġal lan
Ġal by
Ġal tisimo
Ġal ison
Ġpar la
Ġpar ts
Ġpar gue
Ġpar kinson
Ġo ia
Ġo je
Ġo pon
Ġo yendo
Ġo dias
Ġper dia
Ġper dedor
Ġper eg
Ġre de
Ġre mas
Ġre inar
Ġre imos
Ġre dedor
Ġre ason
Ġre quis
Ġsi e
Ġsi k
Ġsi te
Ġsi tting
Ġsu dar
le c
im ita
de ho
Ġto ward
Ġto chos
Ġto wer
po d
Ġin gra
Ġin human
Ġmu ten
ab ajo
ab ly
ch ina
ti zan
ti bulo
Ġcu yas
ri das
ri guera
Ġpara dos
Ġesta ll
Ġesta tus
Ġmas tur
Ġle ader
ier en
Ġj la
Ġj uer
Ġj ajj
ad ero
Ġso lic
Ġdes an
Ġdes al
Ġdes via
Ġdes alo
Ġdes chan
Ġdes toro
Ġdes may
qu im
Ġw c
Ġw u
Ġw ise
Ġan no
Ġan cho
Ġan ormal
tan ear
Ġpo cion
Ġpo bla
Ġpo tts
Ġac ta
Ġac ting
Ġac ross
tar ro
tu c
tu ry
tu osa
ig ra
Ġspoiler y
Ġspoiler me
Ġfin ger
Ġmi tch
co y
Ġesc ep
Ġdi al
Ġdi vin
Ġser ge
Ġser ena
Ġser vid
Ġser bian
Ġex mu
per son
uer ra
ul u
Ġpro cla
Ġma u
Ġma ci
Ġma ur
Ġma tad
Ġma tiz
Ġma instream
Ġas a
Ġas in
Ġas om
Ġas ter
Ġas tral
Ġas ked
Ġas pirar
Ġx l
Ġx vi
Ġcre ian
Ġcre yente
gu ya
Ġyo gur
Ġten en
Ġten sos
Ġsal ieran
Ġvi tales
son y
Ġqu id
Ġsin s
Ġsin tiendose
Ġr pg
Ġr ylan
Ġtra tos
Ġtra gando
Ġtra ffic
ur us
se x
Ġco gi
Ġco tarro
ca pe
era ct
Ġca ci
Ġca char
Ġca ther
Ġca idas
Ġca garse
Ġca tara
Ġni pon
Ġvis itas
Ġvis ibles
at ones
Ġ3 20
Ġ3 52
Ġ3 57
Ġ3 44
Ġk es
Ġk le
Ġk ep
Ġk ling
Ġk risto
Ġmal illa
Ġmal one
Ġbas tamente
Ġbas ados
Ġpue bla
Ġch imen
Ġch inas
Ġch illar
Ġtan os
Ġman to
Ġman ager
Ġcos ech
Ġcos tara
Ġar c
Ġar ra
Ġar de
Ġar til
Ġar mor
Ġar isto
Ġres tantes
Ġres pir
Ġmen da
Ġmen udos
Ġlle gaban
Ġhu ido
Ġhu yo
Ġmis ero
Ġcar encia
Ġcar gaba
Ġmejor e
ba ch
Ġam ig
Ġam igue
ine a
Ġrec to
Ġsab ios
Ġsobre mes
Ġro ce
Ġro tura
Ġro zando
Ġro oney
Ġro camb
Ġsen t
Ġsen uelo
Ġsen deros
Ġsen tarte
Ġpre tor
Ġpe ti
Ġpe zones
Ġra t
Ġra tillo
Ġra tato
Ġra cc
Ġra bbit
Ġjo di
ero us
Ġab c
mp oral
Ġmo co
Ġmo jar
Ġmar cando
Ġmar omo
Ġmar nie
Ġmar carse
Ġmar cados
Ġmar ilyn
Ġdis ta
Ġdis tante
ing ly
Ġnin era
Ġnin yas
iz er
iz on
Ġfor zando
Ġfor ense
Ġpa gue
Ġpu ts
Ġpu tisimo
th s
th al
th less
Ġentre tienen
Ġeste is
Ġeste tico
dd le
Ġhas tiado
pues tamente
ria do
Ġplan tilla
Ġplan ificado
Ġpen dri
Ġexp one
Ġpun tito
Ġreal izando
Ġdu ty
Ġdu dosa
Ġlu j
Ġhistor ieta
Ġdon ner
Ġ4 20
Ġ4 50
Ġ4 79
Ġ4 16
Ġ4 80
Ġ4 18
Ġ4 41
Ġ20 9
je je
Ġdo tado
Ġdo ub
Ġesper ara
Ġven er
Ġven us
Ġven dia
Ġven dran
Ġinter cep
Ġinter nos
Ġinter nas
Ġinter iour
Ġ5 80
Ġcor tinas
me ga
Ġsuper po
Ġne on
Ġne omor
li van
cu lada
Ġsa o
Ġsa tira
Ġapar cado
rec ono
men dar
Ġhi j
Ġhi ro
Ġgra dos
bo ard
Ġna tos
Ġna val
Ġna cis
zo t
Ġinc ur
Ġinc rus
Ġsegun das
Ġcons en
Ġcons pira
Ġir respon
Ġmon jas
isim amente
Ġ8 33
Ġ8 50
Ġ8 34
Ġ8 86
Ġ8 87
Ġ6 46
Ġ6 48
Ġ6 27
ible mente
Ġho us
Ġho vel
Ġho jas
Ġho oper
til es
Ġem par
Ġcan so
Ġcan guro
Ġqueda o
Ġbo at
Ġbo ttom
Ġbo hem
Ġpod rido
Ġ19 47
Ġpens abas
Ġpens ativo
av al
Ġus as
Ġus aria
ge o
ha us
ha wk
Ġri f
Ġri tos
dor mand
Ġinf idel
tin os
Ġ9 000
ris ing
ya h
ya anis
Ġu fo
Ġu puestamente
tando le
Ġigual ito
Ġcal am
Ġcal culo
Ġpes imas
Ġpes tanear
Ġpres un
Ġvar iety
Ġllev adera
Ġval dria
Ġval ance
Ġval kiria
Ġprotagon izado
Ġpal p
Ġpal mer
Ġfan atica
Ġpasa o
Ġli andola
Ġactor s
Ġba u
Ġba cio
Ġbe a
Ġbe b
Ġbe isbol
Ġbus quen
Ġbus iness
teri dge
Ġestar ias
Ġestar eis
Ġden om
Ġden sidad
Ġbat ista
icion es
Ġtom aria
Ġtom arla
Ġtran qui
Ġtran cos
Ġesp os
Ġbru jeria
Ġrep leto
Ġrep lante
Ġcuan ticos
Ġpi fos
Ġpi von
Ġsimple za
Ġon g
Ġad kins
Ġad vierte
Ġsub es
Ġimpor to
Ġfa cial
Ġbar aj
eta da
tru o
Ġban deja
Ġgo ce
Ġwar m
Ġau t
Ġau dre
Ġins iste
Ġins ens
Ġju das
Ġju dy
Ġju dic
pre tacion
Ġtema zos
Ġsor kin
Ġestu bo
Ġhor itas
Ġinteres ados
zar d
Ġcol gar
Ġcol let
Ġtrans fer
Ġtar ro
Ġtar dando
Ġjoder le
Ġsan ds
Ġdra enor
Ġref iriendo
Ġref ilon
Ġtr illado
Ġpan zer
Ġmer c
Ġmer ry
Ġmer chan
ario us
Ġlar garse
Ġponer las
con i
Ġsorp res
Ġmus e
Ġmus iqu
Ġta chan
Ġpapel ito
Ġ12 2
Ġocur ran
Ġsol te
Ġsol tera
Ġinterpre tan
Ġinterpre tara
Ġlen tes
Ġdeb i
Ġdeb atiendo
Ġresul tando
Ġresul tara
Ġbla h
Ġenter arte
ich er
Ġguer r
rim ientos
Ġsalv aria
Ġanim adas
Ġprof pcm
ep s
Ġfu iste
Ġbes son
Ġdocumen tos
onces to
Ġreg rese
Ġthor n
Ġconver tidos
Ġsalir me
Ġdesa ho
Ġmos trada
Ġtir aria
Ġcompar tida
Ġcompar andola
Ġestr icto
Ġja que
Ġja ime
Ġja ws
Ġcen ter
Ġke ith
Ġenf ad
Ġder ru
Ġcritic able
Ġmag n
Ġmag us
Ġvale ur
Ġdisfru ten
Ġdejar los
Ġ11 49
Ġ17 9
Ġ17 47
[...]
