{"[PAD]":0,"[UNK]":1,"[CLS]":2,"[SEP]":3,"[MASK]":4,"!":5,"\"":6,"#":7,"$":8,"%":9,"&":10,"'":11,"(":12,")":13,"*":14,"+":15,",":16,"-":17,".":18,"/":19,"0":20,"1":21,"2":22,"3":23,"4":24,"5":25,"6":26,"7":27,"8":28,"9":29,":":30,";":31,"<":32,"=":33,">":34,"?":35,"@":36,"A":37,"B":38,"C":39,"D":40,"E":41,"F":42,"G":43,"H":44,"I":45,"J":46,"K":47,"L":48,"M":49,"N":50,"O":51,"P":52,"Q":53,"R":54,"S":55,"T":56,"U":57,"V":58,"W":59,"X":60,"Y":61,"Z":62,"[":63,"\\":64,"]":65,"^":66,"_":67,"`":68,"a":69,"b":70,"c":71,"d":72,"e":73,"f":74,"g":75,"h":76,"i":77,"j":78,"k":79,"l":80,"m":81,"n":82,"o":83,"p":84,"q":85,"r":86,"s":87,"t":88,"u":89,"v":90,"w":91,"x":92,"y":93,"z":94,"{":95,"|":96,"}":97,"~":98,"¡":99,"¢":100,"£":101,"¤":102,"¥":103,"¦":104,"§":105,"¨":106,"©":107,"ª":108,"«":109,"¬":110,"®":111,"¯":112,"°":113,"±":114,"²":115,"³":116,"´":117,"µ":118,"¶":119,"·":120,"¸":121,"¹":122,"º":123,"»":124,"¼":125,"½":126,"¾":127,"¿":128,"À":129,"Á":130,"Â":131,"Ã":132,"Ä":133,"Å":134,"Æ":135,"Ç":136,"È":137,"É":138,"Ê":139,"Ë":140,"Ì":141,"Í":142,"Î":143,"Ï":144,"Ð":145,"Ñ":146,"Ò":147,"Ó":148,"Ô":149,"Õ":150,"Ö":151,"×":152,"Ø":153,"Ù":154,"Ú":155,"Û":156,"Ü":157,"Ý":158,"Þ":159,"ß":160,"à":161,"á":162,"â":163,"ã":164,"ä":165,"å":166,"æ":167,"ç":168,"è":169,"é":170,"ê":171,"ë":172,"ì":173,"í":174,"î":175,"ï":176,"ð":177,"ñ":178,"ò":179,"ó":180,"ô":181,"õ":182,"ö":183,"÷":184,"ø":185,"ù":186,"ú":187,"û":188,"ü":189,"ý":190,"þ":191,"ÿ":192,"Ā":193,"ā":194,"Ă":195,"ă":196,"Ą":197,"ą":198,"Ć":199,"ć":200,"Ĉ":201,"ĉ":202,"Ċ":203,"ċ":204,"Č":205,"č":206,"Ď":207,"ď":208,"Đ":209,"đ":210,"Ē":211,"ē":212,"Ĕ":213,"ĕ":214,"Ė":215,"ė":216,"Ę":217,"ę":218,"Ě":219,"ě":220,"Ĝ":221,"ĝ":222,"Ğ":223,"ğ":224,"Ġ":225,"ġ":226,"Ģ":227,"ģ":228,"Ĥ":229,"ĥ":230,"Ħ":231,"ħ":232,"Ĩ":233,"ĩ":234,"Ī":235,"ī":236,"Ĭ":237,"ĭ":238,"Į":239,"į":240,"İ":241,"ı":242,"Ĳ":243,"ĳ":244,"Ĵ":245,"ĵ":246,"Ķ":247,"ķ":248,"ĸ":249,"Ĺ":250,"ĺ":251,"Ļ":252,"ļ":253,"Ľ":254,"ľ":255,"Ŀ":256,"ŀ":257,"Ł":258,"ł":259,"Ń":260,"Ġe":261,"Ġp":262,"Ġd":263,"Ġl":264,"Ġs":265,"ue":266,"Ġa":267,"Ġc":268,"er":269,"Ġde":270,"Ġm":271,"en":272,"que":273,"on":274,"as":275,"os":276,"an":277,"ar":278,"Ġque":279,"Ġt":280,"Ġes":281,"Ġla":282,"or":283,"Ġh":284,"un":285,"do":286,"Ġy":287,"Ġn":288,"in":289,"re":290,"ta":291,"Ġen":292,"Ġel":293,"Ġv":294,"ic":295,"es":296,"al":297,"Ġun":298,"te":299,"ci":300,"da":301,"Ġno":302,"ra":303,"Ġf":304,"Ġb":305,"om":306,"is":307,"to":308,"Ġse":309,"Ġme":310,"la":311,"Ġcon":312,"Ġha":313,"el":314,"ien":315,"ia":316,"il":317,"Ġg":318,"Ġal":319,"Ġlo":320,"Ġpar":321,"ro":322,"Ġo":323,"Ġcom":324,"Ġpor":325,"Ġper":326,"Ġre":327,"Ġpel":328,"Ġlos":329,"Ġsi":330,"Ġsu":331,"le":332,"im":333,"ec":334,"Ġuna":335,"am":336,"lo":337,"de":338,"Ġto":339,"po":340,"Ġin":341,"us":342,"icu":343,"cion":344,"ando":345,"ente":346,"Ġpelicu":347,"Ġmu":348,"Ġpero":349,"ab":350,"Ġdel":351,"ch":352,"Ġcomo":353,"ti":354,"Ġcu":355,"go":356,"ri":357,"Ġpara":358,"Ġesta":359,"Ġmas":360,"Ġle":361,"ier":362,"Ġj":363,"Ġpelicula":364,"Ġlas":365,"ad":366,"Ġ1":367,"Ġso":368,"io":369,"Ġdes":370,"qu":371,"ir":372,"ado":373,"tr":374,"Ġw":375,"Ġan":376,"tan":377,"em":378,"Ġpo":379,"Ġver":380,"iler":381,"Ġac":382,"ter":383,"uen":384,"tar":385,"poiler":386,"tu":387,"ig":388,"ion":389,"ada":390,"tos":391,"dad":392,"Ġspoiler":393,"Ġth":394,"Ġ2":395,"aj":396,"Ġfin":397,"Ġmi":398,"co":399,"ma":400,"ues":401,"Ġesc":402,"tor":403,"ce":404,"mente":405,"Ġdi":406,"gun":407,"tra":408,"Ġser":409,"Ġex":410,"per":411,"di":412,"uer":413,"ten":414,"ol":415,"ul":416,"Ġpr":417,"Ġpro":418,"Ġhab":419,"Ġma":420,"Ġas":421,"Ġcuando":422,"ica":423,"Ġfinal":424,"dos":425,"Ġtien":426,"ran":427,"Ġx":428,"Ġcre":429,"gu":430,"bre":431,"Ġyo":432,"ga":433,"Ġten":434,"Ġtodo":435,"Ġmuy":436,"Ġmuch":437,"Ġsal":438,"Ġte":439,"ib":440,"der":441,"Ġvi":442,"man":443,"Ġya":444,"tas":445,"son":446,"Ġqu":447,"tes":448,"Ġve":449,"Ġsin":450,"Ġescen":451,"tro":452,"ico":453,"Ġthe":454,"Ġr":455,"Ġgus":456,"lan":457,"Ġpas":458,"tado":459,"Ġxd":460,"iendo":461,"Ġtra":462,"ido":463,"Ġhe":464,"ur":465,"cia":466,"za":467,"se":468,"Ġhay":469,"Ġporque":470,"tal":471,"las":472,"Ġbuen":473,"Ġco":474,"Ġti":475,"ca":476,"res":477,"Ġtiene":478,"era":479,"Ġca":480,"ho":481,"par":482,"pe":483,"Ġni":484,"mas":485,"mo":486,"Ġperson":487,"Ġson":488,"Ġvis":489,"Ġim":490,"Ġeso":491,"Ġent":492,"at":493,"ie":494,"Ġ3":495,"Ġk":496,"Ġmal":497,"Ġpeli":498,"Ġbas":499,"Ġpue":500,"ac":501,"Ġch":502,"Ġtan":503,"Ġman":504,"ve":505,"amb":506,"Ġcos":507,"Ġar":508,"Ġres":509,"Ġi":510,"Ġmen":511,"Ġcas":512,"ece":513,"Ġva":514,"Ġaun":515,"Ġdic":516,"Ġlle":517,"Ġhu":518,"jor":519,"Ġmis":520,"Ġcar":521,"Ġmejor":522,"ba":523,"idad":524,"Ġnada":525,"vo":526,"Ġalgo":527,"Ġam":528,"Ġbien":529,"ine":530,"cer":531,"Ġrec":532,"Ġsab":533,"ver":534,"omen":535,"tante":536,"lar":537,"das":538,"pi":539,"tt":540,"Ġsobre":541,"Ġprim":542,"Ġro":543,"Ġsen":544,"Ġpre":545,"Ġah":546,"acion":547,"Ġhan":548,"Ġpe":549,"Ġra":550,"Ġasi":551,"Ġjo":552,"Ġescena":553,"Ġmucho":554,"ora":555,"ero":556,"Ġenc":557,"Ġab":558,"Ġsolo":559,"mp":560,"Ġmo":561,"vi":562,"Ġalgun":563,"Ġmar":564,"Ġda":565,"Ġdej":566,"Ġdis":567,"ing":568,"va":569,"Ġnin":570,"Ġpersonaj":571,"Ġcreo":572,"iz":573,"Ġfor":574,"Ġpa":575,"Ġsus":576,"Ġmomen":577,"aba":578,"um":579,"Ġhace":580,"pa":581,"los":582,"Ġpoco":583,"Ġpu":584,"th":585,"Ġentre":586,"Ġeste":587,"dd":588,"Ġhas":589,"Ġ10":590,"ven":591,"Ġgu":592,"ru":593,"pues":594,"Ġhis":595,"ras":596,"Ġbastante":597,"Ġtamb":598,"ria":599,"Ġparece":600,"Ġtambien":601,"Ġplan":602,"Ġor":603,"Ġpen":604,"Ġese":605,"Ġdeci":606,"Ġexp":607,"Ġpues":608,"Ġpun":609,"Ġreal":610,"emp":611,"Ġdu":612,"Ġpare":613,"ttp":614,"Ġvisto":615,"Ġaunque":616,"les":617,"Ġesto":618,"Ġhttp":619,"Ġlu":620,"Ġpon":621,"Ġhistor":622,"gar":623,"Ġdon":624,"Ġhec":625,"ble":626,"Ġ4":627,"Ġ20":628,"Ġera":629,"Ġesa":630,"den":631,"tras":632,"Ġparte":633,"je":634,"Ġdo":635,"jo":636,"Ġesper":637,"Ġven":638,"Ġos":639,"Ġhacer":640,"Ġinter":641,"Ġimp":642,"uego":643,"Ġ5":644,"ante":645,"Ġof":646,"amente":647,"tim":648,"Ġtodos":649,"Ġpuede":650,"ina":651,"Ġcosas":652,"ista":653,"qui":654,"Ġhistoria":655,"tic":656,"pon":657,"Ġcor":658,"Ġmenos":659,"me":660,"ino":661,"Ġdonde":662,"iera":663,"Ġfue":664,"Ġsuper":665,"Ġhasta":666,"Ġgen":667,"Ġcine":668,"ales":669,"Ġne":670,"ren":671,"Ġfal":672,"fec":673,"Ġvez":674,"uel":675,"ke":676,"Ġter":677,"Ġgran":678,"Ġtu":679,"Ġap":680,"ara":681,"ja":682,"Ġhecho":683,"gra":684,"li":685,"Ġmuer":686,"Ġmomento":687,"cu":688,"lic":689,"Ġtoda":690,"Ġverdad":691,"Ġdos":692,"dio":693,"Ġsa":694,"Ġotra":695,"no":696,"fic":697,"Ġapar":698,"mos":699,"rec":700,"Ġdemas":701,"Ġgustado":702,"Ġpos":703,"Ġww":704,"Ġcomp":705,"Ġpareci":706,"be":707,"Ġprimera":708,"men":709,"Ġhi":710,"ill":711,"amos":712,"Ġwww":713,"ual":714,"dar":715,"Ġpeliculas":716,"Ġnos":717,"Ġul":718,"dia":719,"eces":720,"tido":721,"ian":722,"fer":723,"Ġgra":724,"uc":725,"bo":726,"pec":727,"Ġna":728,"Ġacab":729,"zo":730,"Ġbueno":731,"gan":732,"Ġotro":733,"ios":734,"Ġlib":735,"inci":736,"Ġinc":737,"Ġcier":738,"ores":739,"Ġmin":740,"Ġsea":741,"Ġsegun":742,"ida":743,"Ġcons":744,"Ġir":745,"Ġdar":746,"Ġdecir":747,"Ġob":748,"ag":749,"Ġmismo":750,"Ġmon":751,"Ġfil":752,"Ġescenas":753,"Ġclar":754,"ita":755,"so":756,"adre":757,"Ġluego":758,"Ġdespues":759,"isim":760,"Ġcam":761,"car":762,"Ġcab":763,"Ġdesde":764,"ber":765,"Ġ8":766,"Ġhaber":767,"ces":768,"Ġquier":769,"ias":770,"Ġprinci":771,"cen":772,"Ġdice":773,"emos":774,"Ġdirec":775,"Ġmun":776,"Ġpersonaje":777,"Ġ7":778,"Ġ6":779,"gon":780,"Ġahi":781,"ible":782,"Ġho":783,"empo":784,"Ġhub":785,"til":786,"Ġcuen":787,"Ġtiempo":788,"Ġestan":789,"pio":790,"Ġcual":791,"Ġultim":792,"tamente":793,"vel":794,"sion":795,"Ġvida":796,"Ġvo":797,"Ġem":798,"Ġprota":799,"Ġuno":800,"ones":801,"ne":802,"Ġcan":803,"Ġ0":804,"ciones":805,"Ġsido":806,"jer":807,"guien":808,"utu":809,"Ġand":810,"ck":811,"Ġig":812,"tros":813,"Ġsegu":814,"Ġqueda":815,"Ġbo":816,"Ġpod":817,"Ġanos":818,"Ġ19":819,"Ġnue":820,"it":821,"Ġpens":822,"av":823,"Ġahora":824,"ano":825,"iento":826,"Ġus":827,"Ġpersonajes":828,"ge":829,"ha":830,"Ġri":831,"Ġvol":832,"Ġcosa":833,"Ġella":834,"Ġles":835,"des":836,"Ġbuena":837,"Ġverla":838,"Ġgente":839,"Ġinten":840,"Ġtanto":841,"Ġop":842,"dor":843,"Ġmor":844,"Ġantes":845,"ados":846,"Ġinf":847,"Ġningun":848,"igh":849,"tin":850,"illa":851,"Ġcono":852,"ies":853,"Ġencan":854,"Ġq":855,"dido":856,"che":857,"Ġguion":858,"Ġmundo":859,"Ġ9":860,"Ġcierto":861,"Ġade":862,"Ġhuman":863,"ema":864,"ris":865,"trar":866,"Ġademas":867,"ya":868,"oso":869,"Ġclaro":870,"oo":871,"Ġhabia":872,"Ġu":873,"ana":874,"Ġgusto":875,"ton":876,"Ġaqui":877,"tando":878,"Ġsupon":879,"ff":880,"Ġespe":881,"Ġvuel":882,"Ġcamb":883,"Ġoc":884,"Ġquien":885,"endo":886,"Ġhom":887,"Ġigual":888,"Ġcal":889,"Ġemp":890,"tica":891,"tre":892,"Ġforma":893,"Ġorig":894,"Ġimag":895,"tir":896,"Ġcri":897,"cias":898,"ts":899,"Ġpoder":900,"Ġsec":901,"Ġtal":902,"Ġsale":903,"mple":904,"Ġespeci":905,"Ġestaba":906,"Ġcada":907,"Ġay":908,"orm":909,"Ġpes":910,"Ġsiemp":911,"iado":912,"Ġsiempre":913,"Ġpres":914,"ito":915,"Ġvar":916,"Ġcasi":917,"tion":918,"Ġcuenta":919,"tiv":920,"encia":921,"Ġlibro":922,"Ġllev":923,"Ġval":924,"Ġprotagon":925,"Ġmier":926,"Ġpal":927,"Ġprincipio":928,"Ġfan":929,"Ġcomen":930,"Ġpasa":931,"Ġtodas":932,"uerdo":933,"Ġli":934,"Ġactor":935,"gue":936,"Ġher":937,"Ġba":938,"Ġbe":939,"Ġlla":940,"Ġtam":941,"Ġsentido":942,"Ġdia":943,"Ġfuer":944,"ger":945,"Ġgan":946,"ilo":947,"Ġbus":948,"teri":949,"Ġ201":950,"Ġhar":951,"Ġpunto":952,"jos":953,"ena":954,"able":955,"Ġestar":956,"iente":957,"Ġib":958,"Ġsac":959,"gia":960,"Ġvan":961,"Ġden":962,"Ġbat":963,"icion":964,"Ġtom":965,"via":966,"Ġalguien":967,"Ġdirector":968,"Ġtran":969,"Ġparecido":970,"Ġesp":971,"Ġcontra":972,"ros":973,"Ġminu":974,"adas":975,"Ġtienen":976,"Ġz":977,"Ġaccion":978,"lu":979,"Ġunos":980,"cio":981,"ea":982,"Ġbru":983,"Ġenten":984,"vis":985,"Ġhombre":986,"du":987,"tacion":988,"Ġmierda":989,"Ġrep":990,"Ġtras":991,"js":992,"Ġton":993,"Ġcomic":994,"poco":995,"Ġep":996,"na":997,"Ġterm":998,"Ġej":999,"Ġcuan":1000,"Ġtenia":1001,"Ġtampoco":1002,"Ġpi":1003,"Ġsimple":1004,"Ġprimer":1005,"Ġunico":1006,"Ġtio":1007,"Ġtener":1008,"Ġci":1009,"load":1010,"Ġmuerte":1011,"Ġvamos":1012,"uso":1013,"ves":1014,"ajo":1015,"Ġalien":1016,"Ġon":1017,"Ġgener":1018,"Ġpodria":1019,"Ġad":1020,"Ġsub":1021,"Ġimpor":1022,"tuacion":1023,"ker":1024,"mor":1025,"Ġesperaba":1026,"Ġpuntos":1027,"Ġfa":1028,"Ġbar":1029,"cha":1030,"rio":1031,"eta":1032,"ack":1033,"tico":1034,"Ġtengo":1035,"tru":1036,"Ġide":1037,"Ġjus":1038,"Ġmay":1039,"arse":1040,"Ġban":1041,"Ġgo":1042,"Ġwar":1043,"Ġsabe":1044,"Ġfo":1045,"Ġau":1046,"isimo":1047,"Ġorigin":1048,"Ġstar":1049,"ry":1050,"cep":1051,"tran":1052,"Ġveo":1053,"Ġcasa":1054,"Ġmujer":1055,"Ġis":1056,"Ġhl":1057,"Ġnad":1058,"Ġsh":1059,"ly":1060,"00":1061,"iza":1062,"almente":1063,"Ġhljs":1064,"Ġdan":1065,"aa":1066,"mi":1067,"lacion":1068,"Ġtrama":1069,"Ġbatman":1070,"Ġveces":1071,"Ġfun":1072,"gen":1073,"Ġnadie":1074,"Ġellos":1075,"Ġins":1076,"umen":1077,"Ġju":1078,"Ġmomentos":1079,"sacion":1080,"tc":1081,"tri":1082,"pre":1083,"Ġtema":1084,"Ġabs":1085,"Ġhubiera":1086,"Ġsor":1087,"Ġestu":1088,"Ġtotal":1089,"Ġpadre":1090,"Ġamb":1091,"Ġhor":1092,"dose":1093,"lla":1094,"Ġdemasiado":1095,"Ġfilm":1096,"Ġinteres":1097,"aja":1098,"tad":1099,"Ġsino":1100,"Ġfuera":1101,"Ġmalo":1102,"Ġyoutu":1103,"zar":1104,"Ġsuen":1105,"Ġacabo":1106,"Ġcol":1107,"tivo":1108,"ome":1109,"atch":1110,"Ġmega":1111,"Ġtrans":1112,"Ġmadre":1113,"Ġtar":1114,"Ġpasado":1115,"eno":1116,"ador":1117,"Ġputa":1118,"rante":1119,"Ġminutos":1120,"Ġgusta":1121,"pen":1122,"Ġcapi":1123,"Ġiba":1124,"dan":1125,"gas":1126,"don":1127,"Ġtipo":1128,"Ġejemp":1129,"Ġdoc":1130,"ight":1131,"pel":1132,"Ġespec":1133,"tura":1134,"Ġjoder":1135,"Ġdeja":1136,"van":1137,"Ġfi":1138,"Ġje":1139,"Ġseria":1140,"Ġneces":1141,"Ġmue":1142,"Ġyoutube":1143,"ial":1144,"omb":1145,"ds":1146,"Ġexplic":1147,"Ġtrailer":1148,"dddd":1149,"anos":1150,"Ġentreten":1151,"tel":1152,"Ġsegunda":1153,"up":1154,"Ġalguna":1155,"Ġagu":1156,"osa":1157,"Ġefec":1158,"duc":1159,"Ġoriginal":1160,"Ġsan":1161,"Ġcabe":1162,"Ġrecor":1163,"Ġconf":1164,"Ġestoy":1165,"Ġdra":1166,"sa":1167,"Ġcara":1168,"Ġnun":1169,"Ġcer":1170,"Ġperfec":1171,"Ġnunca":1172,"ut":1173,"Ġref":1174,"Ġdicho":1175,"Ġwatch":1176,"Ġhaya":1177,"talla":1178,"Ġalgunos":1179,"Ġetc":1180,"Ġtr":1181,"Ġrealmente":1182,"Ġpan":1183,"Ġhacia":1184,"Ġmer":1185,"Ġopin":1186,"uda":1187,"Ġdurante":1188,"lica":1189,"Ġdifer":1190,"Ġmatar":1191,"ario":1192,"Ġcualqu":1193,"Ġlar":1194,"Ġotras":1195,"lon":1196,"Ġll":1197,"Ġmanera":1198,"Ġfalta":1199,"Ġestas":1200,"Ġejemplo":1201,"gos":1202,"Ġuni":1203,"can":1204,"gumen":1205,"Ġmien":1206,"Ġponer":1207,"con":1208,"Ġprotagonista":1209,"Ġsorp":1210,"graf":1211,"gro":1212,"olu":1213,"iene":1214,"Ġvista":1215,"Ġargumen":1216,"Ġgeneral":1217,"Ġmus":1218,"Ġnom":1219,"gado":1220,"aria":1221,"Ġencon":1222,"Ġsoy":1223,"Ġmientras":1224,"izo":1225,"Ġsaga":1226,"ciendo":1227,"Ġhacen":1228,"llo":1229,"Ġpregun":1230,"Ġcin":1231,"Ġmuchas":1232,"Ġincl":1233,"ner":1234,"Ġdentro":1235,"Ġta":1236,"Ġdetal":1237,"Ġwh":1238,"ismo":1239,"rian":1240,"Ġlado":1241,"Ġamer":1242,"Ġmil":1243,"bra":1244,"Ġdeber":1245,"Ġnuevo":1246,"Ġcaso":1247,"tia":1248,"Ġol":1249,"Ġpapel":1250,"Ġ12":1251,"Ġocur":1252,"ban":1253,"Ġsol":1254,"Ġinterpre":1255,"Ġdig":1256,"cido":1257,"Ġsaber":1258,"ieron":1259,"bar":1260,"Ġtor":1261,"Ġidea":1262,"Ġesos":1263,"Ġjun":1264,"Ġotros":1265,"Ġnave":1266,"Ġopinion":1267,"Ġspi":1268,"oria":1269,"tada":1270,"lado":1271,"upload":1272,"Ġrey":1273,"Ġlen":1274,"ed":1275,"Ġincluso":1276,"Ġdeb":1277,"Ġmegaupload":1278,"ni":1279,"vil":1280,"Ġentiendo":1281,"Ġvaya":1282,"Ġsim":1283,"Ġproble":1284,"Ġcomple":1285,"elo":1286,"Ġcoj":1287,"ki":1288,"ecer":1289,"Ġespecta":1290,"Ġdef":1291,"Ġdios":1292,"Ġ200":1293,"Ġhijo":1294,"Ġsiendo":1295,"aje":1296,"ron":1297,"cho":1298,"Ġmuchos":1299,"all":1300,"Ġresul":1301,"Ġtrab":1302,"ip":1303,"Ġmala":1304,"Ġanteri":1305,"alo":1306,"Ġmarvel":1307,"Ġbla":1308,"Ġano":1309,"Ġencuen":1310,"Ġrealidad":1311,"Ġcabeza":1312,"Ġenci":1313,"Ġempie":1314,"Ġtier":1315,"cos":1316,"Ġalgunas":1317,"Ġparecio":1318,"ay":1319,"aron":1320,"Ġenter":1321,"ee":1322,"Ġfam":1323,"Ġ15":1324,"Ġsera":1325,"Ġpeor":1326,"Ġquiere":1327,"Ġcuanto":1328,"Ġmedio":1329,"Ġsimplemente":1330,"Ġviendo":1331,"Ġnota":1332,"Ġnino":1333,"Ġresto":1334,"cas":1335,"dida":1336,"ich":1337,"Ġpelis":1338,"Ġguer":1339,"illan":1340,"rim":1341,"iso":1342,"vid":1343,"Ġfutu":1344,"ura":1345,"zon":1346,"Ġdigo":1347,"Ġduda":1348,"Ġsalv":1349,"Ġmisma":1350,"Ġplaneta":1351,"Ġpin":1352,"tiva":1353,"Ġrecuerdo":1354,"Ġsensacion":1355,"icos":1356,"Ġtierra":1357,"Ġpasar":1358,"igo":1359,"Ġaparece":1360,"tur":1361,"nos":1362,"Ġanim":1363,"Ġuniver":1364,"iste":1365,"Ġcap":1366,"Ġprof":1367,"Ġnivel":1368,"Ġdisf":1369,"pecto":1370,"ep":1371,"Ġultima":1372,"Ġfamil":1373,"Ġada":1374,"uestra":1375,"ror":1376,"Ġpena":1377,"Ġdado":1378,"Ġhizo":1379,"Ġencima":1380,"Ġpla":1381,"Ġvoy":1382,"mar":1383,"yo":1384,"Ġvolver":1385,"Ġtend":1386,"eo":1387,"adores":1388,"Ġases":1389,"Ġllega":1390,"ala":1391,"her":1392,"Ġcien":1393,"eis":1394,"Ġexplica":1395,"istas":1396,"Ġnegro":1397,"Ġherman":1398,"bb":1399,"Ġllegar":1400,"Ġesas":1401,"ard":1402,"Ġfu":1403,"Ġbes":1404,"izas":1405,"Ġpuesto":1406,"Ġdocumen":1407,"Ġsupongo":1408,"Ġtotalmente":1409,"arro":1410,"Ġvia":1411,"iones":1412,"Ġcualquier":1413,"onces":1414,"Ġdicen":1415,"dado":1416,"Ġserie":1417,"Ġpeque":1418,"Ġleido":1419,"Ġfantas":1420,"Ġreg":1421,"Ġthor":1422,"Ġit":1423,"Ġempe":1424,"Ġentonces":1425,"Ġhora":1426,"Ġrar":1427,"itar":1428,"Ġnorm":1429,"Ġconver":1430,"Ġencantado":1431,"cial":1432,"Ġestado":1433,"Ġsupone":1434,"Ġmuere":1435,"Ġentretenida":1436,"rado":1437,"Ġsalir":1438,"bla":1439,"hn":1440,"Ġlim":1441,"Ġdesa":1442,"Ġfoto":1443,"ular":1444,"Ġluke":1445,"id":1446,"Ġmos":1447,"Ġtir":1448,"Ġhaciendo":1449,"Ġrom":1450,"inar":1451,"rar":1452,"Ġespa":1453,"ick":1454,"cil":1455,"Ġ13":1456,"Ġlugar":1457,"Ġentender":1458,"Ġaven":1459,"Ġvie":1460,"Ġultimo":1461,"isima":1462,"ty":1463,"Ġrelacion":1464,"Ġcompar":1465,"Ġsigue":1466,"Ġsuperman":1467,"ecen":1468,"Ġestr":1469,"Ġactu":1470,"Ġpensar":1471,"cepcion":1472,"Ġja":1473,"Ġmira":1474,"dy":1475,"Ġat":1476,"Ġayer":1477,"Ġguerra":1478,"pos":1479,"Ġpueden":1480,"ity":1481,"ype":1482,"Ġedi":1483,"iar":1484,"Ġcen":1485,"illo":1486,"Ġemo":1487,"Ġcul":1488,"Ġpaso":1489,"Ġke":1490,"Ġunas":1491,"Ġimagen":1492,"Ġenf":1493,"Ġmedia":1494,"Ġcome":1495,"ub":1496,"Ġvide":1497,"Ġiron":1498,"Ġder":1499,"imen":1500,"Ġcritic":1501,"Ġsig":1502,"Ġwi":1503,"Ġquizas":1504,"Ġmag":1505,"Ġvale":1506,"Ġmucha":1507,"Ġdisfru":1508,"zos":1509,"fica":1510,"Ġdejar":1511,"Ġvio":1512,"Ġdesarro":1513,"Ġposible":1514,"Ġsueno":1515,"vos":1516,"Ġgor":1517,"Ġmeter":1518,"Ġchica":1519,"icas":1520,"grafia":1521,"Ġale":1522,"Ġ11":1523,"Ġsituacion":1524,"Ġargumento":1525,"ech":1526,"vir":1527,"Ġpien":1528,"Ġ17":1529,"Ġescri":1530,"Ġclas":1531,"Ġversion":1532,"Ġlleva":1533,"Ġputo":1534,"ug":1535,"Ġfuerza":1536,"segu":1537,"Ġjohn":1538,"Ġactores":1539,"udad":1540,"for":1541,"Ġcuer":1542,"Ġefectos":1543,"Ġatra":1544,"Ġpone":1545,"Ġconsig":1546,"ele":1547,"dian":1548,"puesto":1549,"resion":1550,"Ġdin":1551,"Ġnina":1552,"Ġhubies":1553,"fe":1554,"Ġfran":1555,"Ġciudad":1556,"Ġxdd":1557,"udo":1558,"pia":1559,"Ġlan":1560,"Ġsorpren":1561,"Ġpier":1562,"Ġentra":1563,"ajaj":1564,"Ġgracias":1565,"rom":1566,"emen":1567,"Ġky":1568,"Ġcuri":1569,"Ġxddd":1570,"Ġacaba":1571,"uela":1572,"Ġestil":1573,"Ġdescu":1574,"avor":1575,"Ġ14":1576,"Ġgi":1577,"Ġbra":1578,"Ġcomentar":1579,"ye":1580,"Ġtres":1581,"Ġvillan":1582,"ame":1583,"Ġamor":1584,"cre":1585,"Ġdeberia":1586,"ilidad":1587,"Ġlog":1588,"aban":1589,"Ġ30":1590,"Ġmorir":1591,"rip":1592,"Ġsabia":1593,"Ġhabria":1594,"ll":1595,"Ġmuerto":1596,"Ġfuturo":1597,"Ġempieza":1598,"tm":1599,"Ġpart":1600,"Ġmie":1601,"Ġhija":1602,"Ġcojones":1603,"gre":1604,"Ġwe":1605,"Ġthat":1606,"Ġguar":1607,"Ġvuelve":1608,"Ġspider":1609,"ky":1610,"Ġhos":1611,"Ġhero":1612,"Ġves":1613,"Ġfavor":1614,"Ġuniverso":1615,"Ġgustar":1616,"antes":1617,"are":1618,"Ġestos":1619,"Ġacuerdo":1620,"Ġtec":1621,"Ġtemp":1622,"Ġmitad":1623,"Ġproblema":1624,"por":1625,"Ġnueva":1626,"Ġninguna":1627,"Ġmov":1628,"Ġnombre":1629,"Ġepiso":1630,"Ġestilo":1631,"icamente":1632,"Ġwill":1633,"Ġquiero":1634,"Ġhoy":1635,"Ġvision":1636,"uelo":1637,"Ġhoras":1638,"Ġsiguien":1639,"Ġganas":1640,"Ġfamilia":1641,"Ġnormal":1642,"cado":1643,"ditos":1644,"Ġmata":1645,"Ġdispar":1646,"ese":1647,"Ġtip":1648,"Ġcapa":1649,"zas":1650,"Ġps":1651,"lash":1652,"Ġbon":1653,"Ġhabla":1654,"Ġmuchisimo":1655,"dic":1656,"ono":1657,"Ġrecuer":1658,"ak":1659,"Ġmill":1660,"Ġrato":1661,"uu":1662,"ell":1663,"Ġdejo":1664,"Ġcamara":1665,"et":1666,"Ġgenial":1667,"Ġcomics":1668,"Ġdec":1669,"Ġjoker":1670,"Ġgrande":1671,"Ġpreci":1672,"ted":1673,"ieran":1674,"Ġjam":1675,"Ġpersonas":1676,"Ġfis":1677,"Ġpersona":1678,"Ġarri":1679,"Ġata":1680,"imo":1681,"Ġabur":1682,"Ġbatalla":1683,"Ġequi":1684,"Ġproduc":1685,"Ġtienes":1686,"Ġninos":1687,"ale":1688,"Ġoscu":1689,"titu":1690,"Ġacer":1691,"Ġmejores":1692,"Ġvideo":1693,"Ġmiedo":1694,"Ġconven":1695,"Ġcla":1696,"Ġjack":1697,"igos":1698,"Ġdrama":1699,"sen":1700,"ys":1701,"tantes":1702,"Ġhumanos":1703,"Ġmayor":1704,"Ġameric":1705,"Ġben":1706,"Ġrobo":1707,"ins":1708,"Ġabsur":1709,"Ġanterior":1710,"one":1711,"Ġtia":1712,"rir":1713,"Ġris":1714,"gi":1715,"Ġido":1716,"Ġfuncion":1717,"Ġ16":1718,"Ġpresen":1719,"Ġbrutal":1720,"lando":1721,"Ġcrea":1722,"Ġorden":1723,"Ġmusica":1724,"Ġkylo":1725,"vio":1726,"Ġolvi":1727,"Ġadap":1728,"Ġcritica":1729,"eros":1730,"Ġmir":1731,"Ġmol":1732,"inos":1733,"Ġello":1734,"Ġbu":1735,"Ġdesp":1736,"Ġesca":1737,"Ġcontro":1738,"Ġpeliculon":1739,"Ġ18":1740,"ps":1741,"Ġline":1742,"Ġhubiese":1743,"Ġflo":1744,"Ġpuedo":1745,"Ġeran":1746,"Ġdecepcion":1747,"Ġsobra":1748,"tulo":1749,"Ġserio":1750,"Ġrapi":1751,"Ġdistin":1752,"Ġste":1753,"Ġfli":1754,"Ġnar":1755,"char":1756,"Ġtre":1757,"Ġconsegu":1758,"Ġtermina":1759,"dicion":1760,"Ġmano":1761,"Ġprincip":1762,"Ġsho":1763,"Ġimpresion":1764,"Ġincre":1765,"Ġmad":1766,"Ġrecomen":1767,"bu":1768,"ant":1769,"Ġtenga":1770,"Ġrespecto":1771,"Ġespero":1772,"Ġinteresante":1773,"entes":1774,"Ġcontin":1775,"Ġpie":1776,"log":1777,"Ġpolic":1778,"ulk":1779,"Ġhablar":1780,"Ġpelea":1781,"tific":1782,"Ġcoche":1783,"Ġwars":1784,"Ġpartes":1785,"Ġdialo":1786,"miento":1787,"Ġpd":1788,"Ġfic":1789,"ientos":1790,"tron":1791,"Ġdetalles":1792,"ii":1793,"Ġhulk":1794,"Ġseguro":1795,"Ġgol":1796,"rido":1797,"Ġpub":1798,"zado":1799,"Ġtension":1800,"ney":1801,"Ġdestru":1802,"Ġdias":1803,"mon":1804,"Ġepisodio":1805,"ima":1806,"Ġquedado":1807,"Ġcapitan":1808,"Ġviene":1809,"ood":1810,"Ġfacil":1811,"Ġdir":1812,"Ġjusto":1813,"Ġtrilo":1814,"tio":1815,"ther":1816,"Ġveng":1817,"Ġpersonal":1818,"Ġcru":1819,"Ġnoche":1820,"Ġbor":1821,"Ġdura":1822,"jas":1823,"Ġplano":1824,"Ġhic":1825,"Ġprimero":1826,"Ġgru":1827,"Ġexper":1828,"Ġyou":1829,"Ġcole":1830,"Ġactuacion":1831,"inas":1832,"Ġhumor":1833,"Ġtrata":1834,"Ġbuenas":1835,"Ġmic":1836,"inacion":1837,"Ġfras":1838,"Ġcambio":1839,"Ġalli":1840,"Ġbase":1841,"Ġdavid":1842,"ok":1843,"Ġtro":1844,"Ġga":1845,"Ġleer":1846,"yec":1847,"Ġhue":1848,"Ġfe":1849,"yendo":1850,"Ġtrilogia":1851,"Ġflash":1852,"izar":1853,"Ġabsolu":1854,"illos":1855,"Ġdarle":1856,"ase":1857,"ondo":1858,"Ġunica":1859,"Ġmencion":1860,"Ġrazon":1861,"Ġdejado":1862,"Ġterror":1863,"Ġharry":1864,"ere":1865,"Ġthanos":1866,"Ġ21":1867,"Ġbuenos":1868,"blo":1869,"ud":1870,"Ġrefer":1871,"Ġinic":1872,"Ġllam":1873,"Ġimportante":1874,"riendo":1875,"Ġquedar":1876,"Ġpost":1877,"Ġprome":1878,"Ġtop":1879,"Ġrid":1880,"Ġsiguiente":1881,"Ġsalen":1882,"Ġanti":1883,"Ġpodia":1884,"Ġaque":1885,"Ġobra":1886,"Ġmons":1887,"Ġcues":1888,"Ġtem":1889,"Ġmaqu":1890,"Ġinfin":1891,"cur":1892,"Ġtype":1893,"Ġtele":1894,"ild":1895,"Ġencontrar":1896,"Ġcontinu":1897,"Ġer":1898,"Ġjuego":1899,"Ġresulta":1900,"ider":1901,"Ġmaes":1902,"Ġtrabajo":1903,"Ġsegundo":1904,"Ġsangre":1905,"zan":1906,"Ġacabar":1907,"len":1908,"Ġexis":1909,"Ġren":1910,"tml":1911,"rig":1912,"Ġ22":1913,"eron":1914,"ientes":1915,"Ġembar":1916,"Ġhumano":1917,"ula":1918,"vier":1919,"cito":1920,"itas":1921,"Ġbel":1922,"ilar":1923,"Ġtenido":1924,"Ġsenor":1925,"Ġplanos":1926,"Ġemocion":1927,"Ġrela":1928,"Ġtempor":1929,"hero":1930,"iero":1931,"turas":1932,"Ġpuedes":1933,"Ġdiciendo":1934,"Ġmes":1935,"table":1936,"Ġreci":1937,"Ġexc":1938,"Ġqueria":1939,"Ġpad":1940,"Ġspoilers":1941,"ley":1942,"ime":1943,"Ġescu":1944,"Ġquiza":1945,"Ġpongo":1946,"Ġseguir":1947,"Ġvengadores":1948,"iel":1949,"Ġpuer":1950,"Ġdando":1951,"Ġojo":1952,"Ġinven":1953,"Ġsala":1954,"Ġamigo":1955,"Ġcuerpo":1956,"Ġvillano":1957,"Ġspiderman":1958,"gando":1959,"Ġaten":1960,"Ġmedi":1961,"Ġrollo":1962,"tf":1963,"Ġvas":1964,"Ġpropio":1965,"Ġdocument":1966,"Ġbruce":1967,"Ġvarias":1968,"Ġespacio":1969,"cal":1970,"resa":1971,"Ġgracia":1972,"iga":1973,"Ġdijo":1974,"Ġjoven":1975,"usion":1976,"Ġbanda":1977,"cie":1978,"tiene":1979,"Ġ24":1980,"gers":1981,"Ġparecer":1982,"Ġhol":1983,"Ġcompan":1984,"Ġusa":1985,"Ġprofun":1986,"ph":1987,"Ġfel":1988,"Ġcreditos":1989,"usa":1990,"Ġ100":1991,"Ġapo":1992,"ss":1993,"Ġang":1994,"Ġaf":1995,"Ġengan":1996,"Ġreb":1997,"trado":1998,"Ġpueda":1999,"Ġembargo":2000,"tancia":2001,"Ġdoy":2002,"dra":2003,"he":2004,"Ġcontar":2005,"Ġge":2006,"Ġdices":2007,"Ġespecial":2008,"Ġtony":2009,"Ġutil":2010,"Ġejer":2011,"Ġconsider":2012,"aaaa":2013,"Ġexplicar":2014,"Ġcobb":2015,"bol":2016,"cando":2017,"Ġgri":2018,"Ġfotografia":2019,"Ġproyec":2020,"Ġmens":2021,"fo":2022,"vas":2023,"volu":2024,"Ġag":2025,"Ġpregunta":2026,"ire":2027,"Ġfir":2028,"Ġamigos":2029,"Ġgrandes":2030,"Ġencanta":2031,"min":2032,"arla":2033,"Ġcl":2034,"Ġteoria":2035,"lico":2036,"Ġ25":2037,"Ġsuperhero":2038,"Ġrit":2039,"idos":2040,"Ġdebe":2041,"Ġpartir":2042,"Ġpers":2043,"Ġpeter":2044,"Ġaparte":2045,"ny":2046,"Ġdobla":2047,"Ġimpos":2048,"Ġpantalla":2049,"cera":2050,"Ġsuel":2051,"Ġmente":2052,"Ġdesta":2053,"Ġespectador":2054,"cular":2055,"ona":2056,"Ġojos":2057,"Ġrepar":2058,"Ġexac":2059,"Ġsalido":2060,"Ġzomb":2061,"Ġby":2062,"Ġbaj":2063,"imos":2064,"ecu":2065,"logia":2066,"Ġpodrian":2067,"Ġdescub":2068,"dente":2069,"Ġmete":2070,"Ġcomun":2071,"Ġblack":2072,"ore":2073,"Ġante":2074,"tarse":2075,"Ġmonstru":2076,"ers":2077,"enas":2078,"Ġmodo":2079,"Ġsex":2080,"tivos":2081,"wn":2082,"Ġlin":2083,"Ġav":2084,"Ġinclu":2085,"Ġstark":2086,"Ġbr":2087,"Ġrespon":2088,"Ġrecom":2089,"Ġrap":2090,"Ġespecie":2091,"Ġsacar":2092,"Ġwith":2093,"pan":2094,"Ġocurre":2095,"Ġentr":2096,"Ġele":2097,"Ġingen":2098,"Ġdefin":2099,"Ġentrar":2100,"Ġsuic":2101,"Ġing":2102,"Ġsob":2103,"Ġdiver":2104,"tero":2105,"Ġcriticas":2106,"Ġsean":2107,"Ġconten":2108,"puesta":2109,"gada":2110,"Ġpra":2111,"Ġseman":2112,"Ġambien":2113,"Ġdetalle":2114,"fa":2115,"Ġpais":2116,"Ġbuscar":2117,"Ġtarde":2118,"Ġfui":2119,"tec":2120,"Ġblan":2121,"Ġcur":2122,"Ġjue":2123,"Ġextra":2124,"Ġincreible":2125,"Ġhilo":2126,"und":2127,"Ġmax":2128,"izado":2129,"Ġorigen":2130,"Ġgrupo":2131,"Ġpropia":2132,"tales":2133,"rer":2134,"tida":2135,"Ġobs":2136,"taba":2137,"Ġhablando":2138,"Ġtenemos":2139,"Ġamerica":2140,"Ġacep":2141,"Ġpreten":2142,"Ġdejan":2143,"Ġluz":2144,"ticos":2145,"Ġcivil":2146,"Ġday":2147,"Ġtercera":2148,"Ġpolicia":2149,"itos":2150,"Ġgir":2151,"Ġgenero":2152,"Ġmonta":2153,"Ġconsigue":2154,"Ġhigh":2155,"truc":2156,"Ġcae":2157,"Ġpesar":2158,"Ġllevar":2159,"Ġpele":2160,"Ġdol":2161,"Ġif":2162,"Ġmola":2163,"Ġboca":2164,"Ġritmo":2165,"inado":2166,"Ġnolan":2167,"Ġhabra":2168,"Ġdark":2169,"Ġquedo":2170,"Ġbajo":2171,"Ġgar":2172,"use":2173,"Ġmalos":2174,"Ġmarav":2175,"Ġlibros":2176,"amiento":2177,"hael":2178,"Ġespan":2179,"Ġdiferente":2180,"Ġsalvar":2181,"Ġvarios":2182,"zc":2183,"ierto":2184,"Ġobje":2185,"Ġjunto":2186,"light":2187,"illas":2188,"Ġdinero":2189,"encias":2190,"Ġwas":2191,"tera":2192,"vela":2193,"Ġmichael":2194,"ting":2195,"Ġcris":2196,"Ġdescon":2197,"the":2198,"Ġpalab":2199,"Ġciencia":2200,"ws":2201,"Ġpode":2202,"Ġ199":2203,"Ġllor":2204,"Ġficcion":2205,"Ġsufic":2206,"Ġhech":2207,"Ġridicu":2208,"tencia":2209,"Ġtitulo":2210,"Ġvisual":2211,"tias":2212,"Ġ23":2213,"Ġsonora":2214,"Ġayuda":2215,"Ġcrear":2216,"Ġsobrevi":2217,"Ġvoz":2218,"ior":2219,"Ġsil":2220,"Ġarriba":2221,"Ġhemos":2222,"tados":2223,"Ġvir":2224,"Ġfues":2225,"tidad":2226,"Ġwtf":2227,"Ġsabes":2228,"volucion":2229,"Ġloco":2230,"Ġsuce":2231,"ticamente":2232,"diendo":2233,"ez":2234,"Ġespeciales":2235,"samente":2236,"Ġstor":2237,"Ġmuestra":2238,"Ġnor":2239,"Ġchav":2240,"Ġpega":2241,"Ġactual":2242,"Ġbro":2243,"Ġapro":2244,"Ġfiles":2245,"Ġlargo":2246,"idas":2247,"todo":2248,"ibles":2249,"Ġintentar":2250,"Ġllama":2251,"Ġmerece":2252,"Ġdesapar":2253,"esion":2254,"Ġru":2255,"Ġponen":2256,"Ġflip":2257,"Ġtes":2258,"ath":2259,"Ġpensando":2260,"tivas":2261,"Ġestaban":2262,"Ġchris":2263,"Ġplante":2264,"dsh":2265,"mm":2266,"tun":2267,"dios":2268,"Ġprincipal":2269,"Ġtira":2270,"Ġoscuro":2271,"ide":2272,"Ġnues":2273,"Ġenem":2274,"Ġmur":2275,"Ġintenta":2276,"Ġencanto":2277,"Ġsecuen":2278,"Ġlarga":2279,"Ġrecomenda":2280,"dshare":2281,"Ġvemos":2282,"cidad":2283,"Ġsuf":2284,"Ġespectacular":2285,"Ġdific":2286,"Ġhijos":2287,"ice":2288,"Ġ28":2289,"Ġtex":2290,"Ġrefle":2291,"Ġrapidshare":2292,"Ġbic":2293,"Ġteniendo":2294,"Ġdificil":2295,"jon":2296,"Ġsur":2297,"Ġmanos":2298,"Ġprecisamente":2299,"Ġdialogos":2300,"unto":2301,"Ġwal":2302,"Ġone":2303,"Ġhaga":2304,"ili":2305,"Ġparecen":2306,"Ġpinta":2307,"Ġtri":2308,"Ġconta":2309,"macion":2310,"20":2311,"ka":2312,"Ġsam":2313,"Ġenfer":2314,"Ġwor":2315,"Ġpase":2316,"Ġlucha":2317,"Ġimposible":2318,"oper":2319,"Ġsola":2320,"Ġjedi":2321,"bles":2322,"ler":2323,"aso":2324,"traje":2325,"triz":2326,"Ġlenta":2327,"Ġtrabaj":2328,"Ġempezar":2329,"Ġarm":2330,"Ġconversacion":2331,"Ġevi":2332,"Ġnovia":2333,"Ġtoque":2334,"Ġextr":2335,"Ġtodavia":2336,"Ġauto":2337,"Ġrecordar":2338,"Ġart":2339,"Ġrob":2340,"Ġpensaba":2341,"Ġjames":2342,"Ġprac":2343,"Ġfol":2344,"Ġxddddd":2345,"Ġtraje":2346,"Ġperfectamente":2347,"Ġdirig":2348,"ite":2349,"ks":2350,"Ġavan":2351,"acter":2352,"Ġinfor":2353,"Ġaliens":2354,"Ġencuentra":2355,"Ġrecomiendo":2356,"jero":2357,"Ġintro":2358,"Ġaco":2359,"Ġmensaje":2360,"ong":2361,"pol":2362,"Ġculo":2363,"bert":2364,"Ġquede":2365,"Ġalla":2366,"ridad":2367,"Ġway":2368,"Ġpobre":2369,"Ġsalvo":2370,"Ġmayoria":2371,"Ġcompletamente":2372,"Ġanteriores":2373,"Ġcapaz":2374,"Ġantigu":2375,"60":2376,"Ġsno":2377,"Ġquedan":2378,"Ġhel":2379,"Ġmezc":2380,"Ġ27":2381,"ction":2382,"st":2383,"Ġepo":2384,"Ġatras":2385,"Ġcgi":2386,"Ġgre":2387,"Ġsocie":2388,"Ġapor":2389,"Ġsecre":2390,"crip":2391,"Ġcomien":2392,"Ġveia":2393,"Ġpoderes":2394,"Ġviaje":2395,"lor":2396,"Ġsupuesto":2397,"imiento":2398,"Ġpoli":2399,"Ġoscar":2400,"Ġhacerlo":2401,"back":2402,"fico":2403,"Ġka":2404,"Ġcarga":2405,"iller":2406,"Ġsegura":2407,"Ġrepres":2408,"Ġraro":2409,"Ġmemor":2410,"deci":2411,"Ġtenian":2412,"Ġsalva":2413,"bor":2414,"Ġdetras":2415,"pend":2416,"Ġpequeno":2417,"Ġpsico":2418,"bro":2419,"lig":2420,"Ġvs":2421,"Ġcha":2422,"Ġagua":2423,"Ġpienso":2424,"wood":2425,"Ġdestro":2426,"duci":2427,"Ġenfren":2428,"Ġatencion":2429,"ex":2430,"Ġindi":2431,"Ġquieren":2432,"Ġhermano":2433,"Ġingles":2434,"jar":2435,"Ġestamos":2436,"Ġpense":2437,"Ġfallos":2438,"of":2439,"orme":2440,"Ġfas":2441,"Ġfondo":2442,"Ġprob":2443,"Ġavengers":2444,"Ġarre":2445,"Ġup":2446,"Ġtur":2447,"Ġchar":2448,"Ġtendria":2449,"Ġimagenes":2450,"Ġsuficiente":2451,"Ġcuad":2452,"Ġhabeis":2453,"Ġdisney":2454,"berg":2455,"vision":2456,"Ġprimeros":2457,"Ġexplicacion":2458,"Ġinterpretacion":2459,"Ġcurios":2460,"Ġespanol":2461,"Ġfuese":2462,"nor":2463,"viera":2464,"Ġfrom":2465,"Ġbal":2466,"land":2467,"Ġ2014":2468,"Ġpis":2469,"Ġfre":2470,"lada":2471,"tral":2472,"Ġvenir":2473,"Ġconfir":2474,"Ġfrase":2475,"Ġensen":2476,"Ġfr":2477,"Ġmetido":2478,"Ġcir":2479,"Ġjs":2480,"Ġthey":2481,"Ġsigni":2482,"Ġpuerta":2483,"Ġhighlight":2484,"Ġmanten":2485,"Ġultron":2486,"Ġdirectamente":2487,"Ġbusca":2488,"Ġbest":2489,"Ġbicho":2490,"Ġagra":2491,"Ġgig":2492,"child":2493,"Ġactriz":2494,"Ġgod":2495,"Ġexactamente":2496,"Ġinner":2497,"Ġtiro":2498,"Ġrecono":2499,"Ġfunction":2500,"Ġepoca":2501,"Ġrepresen":2502,"html":2503,"Ġdio":2504,"tem":2505,"Ġ40":2506,"Ġhumanidad":2507,"Ġinnerhtml":2508,"Ġestre":2509,"Ġfinn":2510,"Ġparecia":2511,"Ġ198":2512,"Ġpadres":2513,"yn":2514,"Ġil":2515,"taciones":2516,"ciente":2517,"Ġbur":2518,"ables":2519,"Ġtransmi":2520,"bus":2521,"Ġclo":2522,"Ġarma":2523,"Ġdom":2524,"Ġcho":2525,"Ġpasan":2526,"Ġsabemos":2527,"Ġnegra":2528,"Ġayu":2529,"Ġviejo":2530,"gido":2531,"pas":2532,"tres":2533,"ward":2534,"Ġsos":2535,"Ġare":2536,"Ġnight":2537,"Ġsobretodo":2538,"Ġray":2539,"Ġ50":2540,"jan":2541,"ent":2542,"Ġconvier":2543,"Ġred":2544,"uente":2545,"Ġroda":2546,"arios":2547,"Ġnum":2548,"Ġgala":2549,"Ġlinea":2550,"Ġros":2551,"Ġformas":2552,"viamente":2553,"mado":2554,"ches":2555,"Ġdesen":2556,"quiera":2557,"Ġcorta":2558,"Ġdemasia":2559,"net":2560,"Ġagujero":2561,"Ġproblemas":2562,"Ġcomedia":2563,"Ġrus":2564,"Ġocas":2565,"Ġestreno":2566,"Ġbre":2567,"Ġley":2568,"Ġleia":2569,"Ġvivo":2570,"Ġiden":2571,"Ġpunta":2572,"Ġmovie":2573,"Ġsuperheroes":2574,"Ġsociedad":2575,"val":2576,"rada":2577,"Ġhttps":2578,"Ġquieres":2579,"Ġdoctor":2580,"Ġpelo":2581,"ader":2582,"Ġ26":2583,"dir":2584,"ko":2585,"Ġdro":2586,"Ġcamino":2587,"Ġprotagonistas":2588,"Ġasesino":2589,"Ġejercito":2590,"mer":2591,"sos":2592,"Ġpic":2593,"Ġtris":2594,"Ġenam":2595,"ture":2596,"Ġsincer":2597,"telig":2598,"Ġed":2599,"omo":2600,"Ġras":2601,"Ġcinema":2602,"Ġguardian":2603,"def":2604,"Ġimper":2605,"Ġentien":2606,"Ġesperando":2607,"Ġdragon":2608,"Ġrapido":2609,"gn":2610,"Ġsuelo":2611,"Ġbos":2612,"Ġlejos":2613,"Ġthis":2614,"uras":2615,"ticia":2616,"Ġnecesita":2617,"bir":2618,"war":2619,"icio":2620,"iendose":2621,"Ġanad":2622,"Ġcorrec":2623,"Ġnew":2624,"Ġhombres":2625,"Ġsta":2626,"Ġmc":2627,"Ġmatan":2628,"Ġusar":2629,"atro":2630,"Ġeres":2631,"Ġcontrar":2632,"Ġhayan":2633,"Ġalguno":2634,"Ġexplos":2635,"ticas":2636,"Ġfallo":2637,"Ġpierde":2638,"vech":2639,"Ġlis":2640,"Ġdead":2641,"Ġcomer":2642,"Ġperdido":2643,"Ġreac":2644,"Ġnoso":2645,"Ġsorpresa":2646,"yan":2647,"Ġlista":2648,"Ġsky":2649,"Ġmia":2650,"Ġintelig":2651,"Ġprepar":2652,"Ġtoma":2653,"Ġrecuerda":2654,"Ġentren":2655,"tter":2656,"Ġech":2657,"Ġsir":2658,"teria":2659,"Ġ80":2660,"Ġultimos":2661,"ms":2662,"uri":2663,"uper":2664,"Ġpul":2665,"est":2666,"Ġbut":2667,"Ġhabian":2668,"Ġaquel":2669,"theus":2670,"Ġevolucion":2671,"Ġgas":2672,"idades":2673,"Ġgua":2674,"Ġfirst":2675,"Ġfur":2676,"ibilidad":2677,"Ġrobert":2678,"Ġsentim":2679,"Ġsegundos":2680,"Ġsimilar":2681,"king":2682,"Ġeh":2683,"Ġpersonalmente":2684,"ined":2685,"culo":2686,"Ġhal":2687,"Ġconc":2688,"Ġconoci":2689,"Ġcalidad":2690,"Ġrisa":2691,"Ġadaptacion":2692,"Ġflashback":2693,"Ġprometheus":2694,"sas":2695,"Ġsw":2696,"Ġcuar":2697,"Ġnatur":2698,"Ġcambiar":2699,"Ġentendido":2700,"Ġprobable":2701,"spoiler":2702,"tiendo":2703,"Ġado":2704,"eras":2705,"Ġfra":2706,"Ġmul":2707,"Ġprem":2708,"Ġapren":2709,"ield":2710,"Ġcomba":2711,"Ġrev":2712,"Ġviv":2713,"Ġmister":2714,"aciones":2715,"Ġmonton":2716,"Ġpese":2717,"Ġambos":2718,"Ġnosotros":2719,"guen":2720,"Ġbill":2721,"Ġdesper":2722,"Ġvivir":2723,"Ġespecialmente":2724,"Ġlimbo":2725,"Ġrebel":2726,"Ġdr":2727,"iere":2728,"Ġaspecto":2729,"Ġhistorias":2730,"Ġmostrar":2731,"Ġseguramente":2732,"jes":2733,"ind":2734,"Ġsimp":2735,"tima":2736,"Ġapun":2737,"Ġclaramente":2738,"izacion":2739,"tle":2740,"Ġsiquiera":2741,"tern":2742,"Ġarmas":2743,"Ġllevan":2744,"Ġperfecto":2745,"Ġroman":2746,"Ġgalax":2747,"by":2748,"Ġinfec":2749,"Ġcumple":2750,"ierta":2751,"Ġpodido":2752,"Ġpublico":2753,"iv":2754,"Ġph":2755,"Ġperdon":2756,"Ġking":2757,"oooo":2758,"Ġaburri":2759,"Ġamerican":2760,"Ġmontaje":2761,"od":2762,"Ġrepe":2763,"Ġexplo":2764,"Ġmuertos":2765,"Ġtremen":2766,"nes":2767,"Ġall":2768,"Ġcreer":2769,"Ġrecur":2770,"Ġsenci":2771,"Ġpag":2772,"Ġlee":2773,"eman":2774,"Ġfuerte":2775,"Ġprimeras":2776,"Ġwhat":2777,"imension":2778,"Ġmoles":2779,"dal":2780,"pro":2781,"Ġtw":2782,"Ġlevan":2783,"Ġquita":2784,"Ġterminar":2785,"Ġterminator":2786,"Ġsemana":2787,"Ġaire":2788,"dados":2789,"Ġimpac":2790,"ffin":2791,"Ġculpa":2792,"Ġsituaciones":2793,"Ġtecn":2794,"Ġpec":2795,"Ġpelig":2796,"Ġhabita":2797,"Ġqui":2798,"Ġvea":2799,"Ġ197":2800,"Ġrobot":2801,"Ġdoblaje":2802,"ah":2803,"zada":2804,"ile":2805,"tana":2806,"Ġtraves":2807,"Ġ31":2808,"Ġinfan":2809,"Ġsecun":2810,"Ġedit":2811,"cul":2812,"zando":2813,"cher":2814,"Ġbane":2815,"cepto":2816,"Ġtecno":2817,"Ġsomb":2818,"Ġmetraje":2819,"Ġtipico":2820,"Ġavis":2821,"Ġbich":2822,"Ġsitio":2823,"tual":2824,"Ġmision":2825,"Ġ90":2826,"Ġdiferencia":2827,"Ġpracticamente":2828,"Ġsnoke":2829,"dis":2830,"gs":2831,"una":2832,"Ġdescar":2833,"Ġtanta":2834,"Ġpredeci":2835,"Ġgraci":2836,"ement":2837,"Ġabsurdo":2838,"Ġsty":2839,"Ġdisfrutar":2840,"Ġsinceramente":2841,"Ġtren":2842,"Ġjes":2843,"ajes":2844,"Ġreparto":2845,"arlo":2846,"tain":2847,"Ġperder":2848,"Ġdelante":2849,"Ġjajaj":2850,"tores":2851,"Ġcaer":2852,"Ġnie":2853,"Ġcarc":2854,"Ġapenas":2855,"Ġgolpe":2856,"bas":2857,"Ġsiste":2858,"terior":2859,"Ġcualquiera":2860,"Ġabsolutamente":2861,"51":2862,"ld":2863,"Ġvic":2864,"Ġfar":2865,"Ġmeten":2866,"Ġperro":2867,"Ġextre":2868,"Ġdiferentes":2869,"Ġavion":2870,"Ġchaval":2871,"Ġaj":2872,"Ġconcre":2873,"ienta":2874,"ters":2875,"Ġ29":2876,"Ġcoinci":2877,"Ġcasual":2878,"Ġsecuela":2879,"Ġcojon":2880,"Ġmaestra":2881,"Ġangel":2882,"Ġsecundar":2883,"ivo":2884,"Ġdam":2885,"int":2886,"ajaja":2887,"Ġdudas":2888,"Ġhumana":2889,"Ġequipo":2890,"isma":2891,"Ġalter":2892,"Ġsalga":2893,"Ġamena":2894,"Ġobviamente":2895,"Ġsha":2896,"Ġexten":2897,"Ġcoger":2898,"ceso":2899,"Ġcancion":2900,"Ġcontrario":2901,"andon":2902,"tadas":2903,"Ġelec":2904,"Ġdese":2905,"Ġcree":2906,"Ġcaracter":2907,"Ġencar":2908,"Ġvuelta":2909,"Ġadel":2910,"Ġvader":2911,"Ġundef":2912,"top":2913,"Ġquitar":2914,"Ġfueron":2915,"loading":2916,"Ġhljsloading":2917,"antino":2918,"Ġtypeof":2919,"Ġundefined":2920,"echa":2921,"Ġpueblo":2922,"Ġdejando":2923,"Ġhubieran":2924,"Ġtomar":2925,"Ġtarantino":2926,"Ġdiga":2927,"Ġcurioso":2928,"Ġgustaria":2929,"Ġcuestion":2930,"21":2931,"Ġsp":2932,"Ġelemen":2933,"icia":2934,"Ġfuego":2935,"Ġbso":2936,"oman":2937,"Ġcona":2938,"Ġoper":2939,"Ġjones":2940,"Ġprue":2941,"Ġperfecta":2942,"dando":2943,"Ġsiento":2944,"Ġnovela":2945,"Ġmeta":2946,"logo":2947,"Ġiban":2948,"Ġellas":2949,"Ġgal":2950,"Ġgem":2951,"Ġloki":2952,"Ġfilma":2953,"Ġpocos":2954,"Ġchu":2955,"Ġresis":2956,"Ġabo":2957,"Ġesperar":2958,"Ġjapon":2959,"Ġdesarrollo":2960,"Ġheroe":2961,"Ġexperimen":2962,"Ġinformacion":2963,"pp":2964,"Ġpilla":2965,"ienen":2966,"Ġout":2967,"Ġleon":2968,"Ġacor":2969,"tum":2970,"Ġasesina":2971,"Ġequivo":2972,"Ġdefini":2973,"pir":2974,"Ġsue":2975,"ices":2976,"esper":2977,"Ġrun":2978,"Ġpud":2979,"Ġsubl":2980,"Ġefecto":2981,"Ġdefen":2982,"Ġlogica":2983,"Ġnarra":2984,"Ġblo":2985,"Ġconte":2986,"Ġcabo":2987,"Ġrepente":2988,"bia":2989,"iva":2990,"zz":2991,"Ġsco":2992,"Ġesco":2993,"Ġlogra":2994,"Ġrema":2995,"tira":2996,"ull":2997,"Ġcreate":2998,"Ġpalabras":2999,"Ġstran":3000,"osos":3001,"Ġsigo":3002,"tidos":3003,"Ġquiera":3004,"Ġvin":3005,"Ġint":3006,"taria":3007,"Ġexiste":3008,"Ġprox":3009,"Ġllegan":3010,"Ġentera":3011,"Ġhicieron":3012,"Ġstory":3013,"fera":3014,"iales":3015,"andose":3016,"Ġvam":3017,"Ġfinales":3018,"Ġrub":3019,"Ġcuento":3020,"Ġvotos":3021,"Ġcria":3022,"reis":3023,"Ġwa":3024,"Ġpocas":3025,"uld":3026,"Ġdireccion":3027,"Ġsacado":3028,"Ġpira":3029,"Ġcere":3030,"Ġdeberian":3031,"Ġconseguido":3032,"hh":3033,"pg":3034,"Ġspo":3035,"Ġinves":3036,"Ġllegado":3037,"garse":3038,"Ġcompren":3039,"Ġimagino":3040,"Ġmaquina":3041,"Ġcinemato":3042,"33":3043,"form":3044,"tino":3045,"Ġenorme":3046,"entemente":3047,"Ġpol":3048,"Ġsaca":3049,"Ġbuscando":3050,"cript":3051,"Ġtriste":3052,"Ġfilmaffin":3053,"Ġcrim":3054,"red":3055,"Ġgana":3056,"Ġjul":3057,"Ġthere":3058,"Ġescon":3059,"torio":3060,"Ġdije":3061,"Ġrum":3062,"Ġresca":3063,"Ġsaben":3064,"Ġsentir":3065,"Ġminimo":3066,"Ġfans":3067,"duce":3068,"Ġimporta":3069,"Ġdiria":3070,"Ġprofundi":3071,"Ġevitar":3072,"Ġstyles":3073,"zilla":3074,"Ġever":3075,"Ġtru":3076,"Ġbol":3077,"Ġrepi":3078,"rible":3079,"Ġpris":3080,"Ġrecuper":3081,"Ġjodida":3082,"ficio":3083,"tillo":3084,"Ġcambia":3085,"50":3086,"cara":3087,"Ġcss":3088,"Ġbom":3089,"ise":3090,"Ġpasada":3091,"Ġarte":3092,"Ġconoce":3093,"ugh":3094,"Ġimpresionante":3095,"Ġtext":3096,"Ġinvesti":3097,"59":3098,"ix":3099,"Ġdur":3100,"Ġdaba":3101,"ciales":3102,"Ġsup":3103,"Ġdesc":3104,"Ġpodian":3105,"Ġacci":3106,"torno":3107,"Ġpasando":3108,"Ġchan":3109,"Ġaparicion":3110,"Ġestren":3111,"Ġviol":3112,"Ġgiro":3113,"Ġataque":3114,"Ġhuevos":3115,"Ġsome":3116,"Ġaman":3117,"element":3118,"Ġextran":3119,"Ġapare":3120,"visible":3121,"Ġdocumental":3122,"Ġlink":3123,"Ġcreateelement":3124,"10":3125,"sel":3126,"Ġevid":3127,"Ġdimension":3128,"ord":3129,"Ġbl":3130,"Ġchico":3131,"Ġresumen":3132,"Ġimportancia":3133,"Ġdesarrolla":3134,"Ġfilmaffinity":3135,"nas":3136,"vin":3137,"Ġstre":3138,"Ġmy":3139,"Ġhecha":3140,"Ġpersonalidad":3141,"Ġhype":3142,"Ġend":3143,"Ġbomb":3144,"Ġant":3145,"tara":3146,"Ġpron":3147,"Ġsonido":3148,"Ġrespe":3149,"Ġllamar":3150,"Ġllena":3151,"Ġactuaciones":3152,"Ġmeses":3153,"Ġwayne":3154,"30":3155,"Ġsk":3156,"Ġava":3157,"Ġexpec":3158,"Ġcorto":3159,"Ġminuto":3160,"Ġisla":3161,"Ġfiel":3162,"psis":3163,"Ġafec":3164,"Ġvoso":3165,"Ġwho":3166,"tulos":3167,"Ġchor":3168,"Ġcarisma":3169,"Ġabandon":3170,"Ġespera":3171,"Ġaparecen":3172,"Ġuso":3173,"Ġtono":3174,"Ġexplican":3175,"Ġcinta":3176,"Ġresultado":3177,"Ġcomentarios":3178,"Ġdestruir":3179,"Ġsecuencia":3180,"Ġconvierte":3181,"Ġfac":3182,"Ġdata":3183,"Ġesperan":3184,"Ġposibilidad":3185,"tivamente":3186,"Ġayudar":3187,"tom":3188,"way":3189,"Ġens":3190,"daba":3191,"Ġbir":3192,"Ġvenga":3193,"Ġtuvo":3194,"Ġencuentran":3195,"Ġconseguir":3196,"Ġholly":3197,"Ġvosotros":3198,"cin":3199,"rera":3200,"ist":3201,"Ġreir":3202,"rid":3203,"Ġexag":3204,"Ġmismos":3205,"Ġdecide":3206,"ioso":3207,"Ġentendi":3208,"Ġauten":3209,"Ġgodzilla":3210,"Ġpredecible":3211,"Ġviolencia":3212,"illar":3213,"Ġprovo":3214,"Ġluch":3215,"Ġnecesario":3216,"Ġsoldado":3217,"79":3218,"uales":3219,"ane":3220,"Ġrespuesta":3221,"Ġhermana":3222,"Ġtipica":3223,"Ġpodemos":3224,"Ġenamor":3225,"Ġtecnologia":3226,"Ġsistema":3227,"22":3228,"40":3229,"ento":3230,"enni":3231,"Ġlamen":3232,"Ġfri":3233,"Ġreco":3234,"tigo":3235,"Ġcoher":3236,"Ġdecis":3237,"Ġduro":3238,"Ġofic":3239,"Ġmono":3240,"Ġcaball":3241,"Ġbichos":3242,"ccion":3243,"fia":3244,"Ġhb":3245,"Ġhim":3246,"iencia":3247,"Ġalma":3248,"Ġcutre":3249,"uerte":3250,"Ġjodido":3251,"Ġpareja":3252,"Ġmilitar":3253,"Ġclase":3254,"cente":3255,"jado":3256,"pu":3257,"tw":3258,"zador":3259,"Ġaltura":3260,"demor":3261,"Ġcuatro":3262,"Ġacaso":3263,"taron":3264,"Ġvengan":3265,"Ġsoldados":3266,"46":3267,"db":3268,"Ġcora":3269,"Ġtim":3270,"cier":3271,"Ġbec":3272,"Ġdestruc":3273,"Ġpuro":3274,"ucle":3275,"Ġllevado":3276,"Ġsuici":3277,"Ġmezcla":3278,"48":3279,"cto":3280,"Ġpl":3281,"Ġtramp":3282,"Ġcooper":3283,"Ġpref":3284,"Ġentrega":3285,"Ġconstru":3286,"itando":3287,"Ġvueltas":3288,"Ġcomentado":3289,"Ġcolor":3290,"Ġjefe":3291,"Ġxdddd":3292,"ple":3293,"zca":3294,"Ġaz":3295,"ens":3296,"tian":3297,"Ġseres":3298,"Ġgustan":3299,"Ġvoldemor":3300,"Ġsacri":3301,"Ġingenier":3302,"zco":3303,"Ġbio":3304,"Ġcantidad":3305,"Ġcalle":3306,"Ġvalor":3307,"Ġlider":3308,"Ġrefiero":3309,"Ġfeliz":3310,"Ġworld":3311,"Ġacojon":3312,"grim":3313,"ical":3314,"tele":3315,"damente":3316,"Ġcontrol":3317,"ft":3318,"Ġsom":3319,"Ġbig":3320,"lace":3321,"dem":3322,"Ġcuida":3323,"Ġhead":3324,"Ġtantas":3325,"Ġboy":3326,"Ġmillones":3327,"Ġjackson":3328,"58":3329,"Ġext":3330,"Ġplane":3331,"Ġdecision":3332,"Ġappend":3333,"Ġalienig":3334,"mith":3335,"Ġsuena":3336,"Ġsuenos":3337,"ducir":3338,"Ġhabitacion":3339,"Ġappendchild":3340,"vd":3341,"Ġran":3342,"Ġspa":3343,"Ġchir":3344,"Ġllego":3345,"Ġabra":3346,"Ġliber":3347,"Ġestaria":3348,"posito":3349,"Ġpeleas":3350,"Ġsuerte":3351,"Ġnot":3352,"Ġanal":3353,"Ġmandar":3354,"Ġmotivo":3355,"Ġostia":3356,"Ġpesada":3357,"Ġgirl":3358,"dn":3359,"wal":3360,"yas":3361,"Ġdorm":3362,"Ġodio":3363,"Ġwoo":3364,"Ġpolla":3365,"Ġ38":3366,"Ġmonstruo":3367,"11":3368,"Ġtus":3369,"Ġtrip":3370,"Ġnaz":3371,"Ġintentando":3372,"Ġproduccion":3373,"Ġsilen":3374,"Ġbosque":3375,"Ġstrange":3376,"han":3377,"Ġdemon":3378,"Ġalto":3379,"Ġcump":3380,"Ġacom":3381,"Ġquin":3382,"Ġron":3383,"Ġbasicamente":3384,"trix":3385,"duccion":3386,"Ġanimacion":3387,"Ġderro":3388,"Ġhostia":3389,"Ġambientacion":3390,"Ġvenganza":3391,"Ġmeh":3392,"Ġsocial":3393,"Ġanillo":3394,"Ġpoca":3395,"Ġmental":3396,"Ġvengo":3397,"lub":3398,"cke":3399,"dman":3400,"Ġpilo":3401,"erv":3402,"cis":3403,"Ġok":3404,"Ġacabado":3405,"Ġpequena":3406,"Ġgordo":3407,"Ġinicio":3408,"Ġcorazon":3409,"Ġvoldemort":3410,"29":3411,"pado":3412,"Ġagen":3413,"Ġvelo":3414,"Ġlei":3415,"Ġverlo":3416,"Ġescal":3417,"Ġseguridad":3418,"Ġpresu":3419,"Ġatmos":3420,"Ġenfo":3421,"Ġmirando":3422,"Ġconcl":3423,"Ġhollywood":3424,"ira":3425,"Ġsmith":3426,"Ġnaves":3427,"Ġhotel":3428,"Ġempiezan":3429,"Ġnuestro":3430,"Ġingenieros":3431,"77":3432,"gh":3433,"Ġama":3434,"Ġgili":3435,"tham":3436,"Ġpensado":3437,"Ġlogico":3438,"Ġdc":3439,"Ġlec":3440,"quen":3441,"Ġfinalmente":3442,"Ġguste":3443,"Ġbasura":3444,"Ġchina":3445,"Ġorgan":3446,"Ġoff":3447,"Ġsaco":3448,"Ġnose":3449,"Ġespana":3450,"Ġtrailers":3451,"Ġencuentro":3452,"Ġacerca":3453,"Ġrobin":3454,"Ġdirigida":3455,"26":3456,"if":3457,"ortun":3458,"Ġlove":3459,"Ġdiscur":3460,"Ġgrave":3461,"Ġoportun":3462,"Ġheroes":3463,"Ġblanco":3464,"Ġdescono":3465,"Ġhechos":3466,"iden":3467,"Ġesque":3468,"Ġfies":3469,"Ġreven":3470,"Ġsupues":3471,"Ġwan":3472,"adamente":3473,"Ġ39":3474,"Ġcerca":3475,"38":3476,"Ġdemos":3477,"Ġbil":3478,"Ġwo":3479,"Ġmenudo":3480,"Ġabierto":3481,"Ġfunciona":3482,"Ġextrano":3483,"Ġcombate":3484,"fos":3485,"Ġhun":3486,"Ġpelos":3487,"Ġtoca":3488,"Ġlego":3489,"Ġjpg":3490,"adora":3491,"quil":3492,"Ġwin":3493,"Ġaclar":3494,"Ġprote":3495,"Ġcreible":3496,"Ġhobb":3497,"Ġsobran":3498,"Ġsublime":3499,"Ġcra":3500,"onte":3501,"Ġalf":3502,"Ġbastantes":3503,"pira":3504,"Ġcierta":3505,"Ġaguan":3506,"Ġpreguntas":3507,"Ġmiles":3508,"Ġanoche":3509,"Ġprofes":3510,"Ġjamas":3511,"Ġprobablemente":3512,"uro":3513,"Ġdum":3514,"Ġdetec":3515,"ors":3516,"cien":3517,"Ġconec":3518,"Ġpermi":3519,"Ġteor":3520,"Ġsaw":3521,"Ġencontrado":3522,"Ġtirar":3523,"Ġenemigo":3524,"Ġsencilla":3525,"Ġscott":3526,"34":3527,"gio":3528,"mientos":3529,"Ġstan":3530,"Ġquerer":3531,"ork":3532,"igu":3533,"Ġprogra":3534,"Ġhabi":3535,"Ġcoge":3536,"Ġ300":3537,"Ġchis":3538,"Ġrock":3539,"Ġtendra":3540,"Ġguardianes":3541,"Ġreaccion":3542,"Ġaburrida":3543,"31":3544,"ot":3545,"Ġsc":3546,"ons":3547,"Ġbrom":3548,"Ġinde":3549,"ierno":3550,"Ġjajaja":3551,"Ġmagia":3552,"Ġche":3553,"Ġguino":3554,"bez":3555,"Ġnuevos":3556,"Ġvolv":3557,"Ġcomenta":3558,"Ġpublic":3559,"Ġapocal":3560,"Ġrecomendable":3561,"Ġcerebro":3562,"Ġsomos":3563,"39":3564,"Ġdecia":3565,"Ġquerido":3566,"Ġdesco":3567,"icap":3568,"Ġcreado":3569,"icop":3570,"Ġmolado":3571,"Ġapre":3572,"Ġninguno":3573,"Ġaventuras":3574,"Ġrisas":3575,"Ġzo":3576,"orn":3577,"Ġsepa":3578,"Ġhave":3579,"Ġalcan":3580,"Ġkill":3581,"Ġsabiendo":3582,"Ġintento":3583,"Ġliter":3584,"Ġambas":3585,"Ġdebido":3586,"Ġentrada":3587,"Ġobjetivo":3588,"gg":3589,"Ġabajo":3590,"Ġdoble":3591,"Ġsuperior":3592,"Ġconvertir":3593,"Ġadelante":3594,"Ġclic":3595,"Ġinto":3596,"Ġconocer":3597,"Ġface":3598,"Ġescapar":3599,"Ġhelicop":3600,"Ġadoles":3601,"Ġbomba":3602,"tis":3603,"Ġpat":3604,"Ġseries":3605,"Ġsalio":3606,"Ġobvio":3607,"Ġexcel":3608,"Ġaccidente":3609,"Ġavatar":3610,"dico":3611,"dora":3612,"Ġcie":3613,"row":3614,"Ġmatrix":3615,"Ġlike":3616,"Ġsinopsis":3617,"Ġtransform":3618,"Ġsorprendido":3619,"Ġinfinity":3620,"Ġmaravillos":3621,"Ġarreg":3622,"Ġrodaje":3623,"guenza":3624,"Ġgalaxia":3625,"Ġgilipol":3626,"Ġdvd":3627,"Ġdicap":3628,"Ġback":3629,"Ġparar":3630,"tud":3631,"Ġcorriendo":3632,"Ġimagin":3633,"Ġlibre":3634,"Ġ2015":3635,"Ġtemporada":3636,"Ġpersecu":3637,"Ġpronto":3638,"Ġdicaprio":3639,"Ġeven":3640,"Ġpri":3641,"ose":3642,"Ġlagrim":3643,"Ġmanana":3644,"Ġmantiene":3645,"Ġsable":3646,"Ġgrand":3647,"Ġcans":3648,"tribu":3649,"eet":3650,"Ġbrad":3651,"Ġdecepcionado":3652,"Ġmemoria":3653,"Ġexpecta":3654,"36":3655,"ij":3656,"ila":3657,"lin":3658,"Ġpus":3659,"Ġverde":3660,"terres":3661,"olver":3662,"Ġmalas":3663,"Ġcuantos":3664,"Ġfox":3665,"Ġocasiones":3666,"27":3667,"vado":3668,"Ġcura":3669,"Ġpotter":3670,"Ġverguenza":3671,"Ġprefer":3672,"Ġcienti":3673,"Ġdesarrol":3674,"Ġtemporal":3675,"Ġnumero":3676,"bos":3677,"ocu":3678,"Ġce":3679,"Ġmues":3680,"Ġnuestra":3681,"Ġaleman":3682,"dito":3683,"Ġaparecer":3684,"Ġposterior":3685,"isimas":3686,"Ġfrente":3687,"49":3688,"dr":3689,"Ġdem":3690,"Ġespi":3691,"omi":3692,"Ġcreia":3693,"isimos":3694,"Ġepica":3695,"Ġadul":3696,"dddddddd":3697,"Ġjuntos":3698,"Ġ2001":3699,"Ġcomentario":3700,"Ġfrases":3701,"Ġtemas":3702,"Ġextraterres":3703,"Ġhobbit":3704,"35":3705,"fas":3706,"Ġenanos":3707,"Ġperdida":3708,"Ġmatt":3709,"Ġmenuda":3710,"Ġllevo":3711,"thing":3712,"Ġguinos":3713,"Ġreales":3714,"Ġconstante":3715,"Ġ00":3716,"Ġvuelto":3717,"Ġinterpretaciones":3718,"Ġblade":3719,"Ġmagni":3720,"Ġdecente":3721,"Ġridiculo":3722,"br":3723,"sal":3724,"Ġza":3725,"Ġlig":3726,"Ġsr":3727,"Ġencer":3728,"ciar":3729,"Ġfle":3730,"Ġfab":3731,"Ġjar":3732,"Ġimdb":3733,"Ġmarido":3734,"Ġpura":3735,"Ġacaban":3736,"Ġlife":3737,"Ġrobots":3738,"Ġzombies":3739,"Ġestrella":3740,"dria":3741,"ling":3742,"iles":3743,"Ġmato":3744,"uron":3745,"Ġcola":3746,"Ġresum":3747,"Ġllegue":3748,"Ġirre":3749,"Ġpiel":3750,"Ġcompleta":3751,"Ġgeor":3752,"Ġsexo":3753,"Ġcuriosidad":3754,"Ġsirve":3755,"16":3756,"pat":3757,"uelas":3758,"Ġara":3759,"cimiento":3760,"Ġbaja":3761,"Ġoye":3762,"Ġind":3763,"rie":3764,"ajar":3765,"Ġmatado":3766,"Ġarbol":3767,"Ġmoder":3768,"cura":3769,"Ġcomplic":3770,"uck":3771,"Ġreferencia":3772,"Ġarmad":3773,"Ġjapones":3774,"Ġexager":3775,"Ġatmosfera":3776,"19":3777,"au":3778,"cy":3779,"Ġelim":3780,"cian":3781,"Ġfamos":3782,"Ġconj":3783,"Ġparal":3784,"Ġcuyo":3785,"Ġjaja":3786,"Ġwon":3787,"Ġthr":3788,"Ġneg":3789,"Ġ70":3790,"Ġpresente":3791,"Ġcapitulo":3792,"Ġbestia":3793,"Ġdinosa":3794,"Ġabsoluto":3795,"Ġimperio":3796,"Ġlobez":3797,"aces":3798,"Ġmanga":3799,"Ġcarrera":3800,"Ġsupervi":3801,"Ġciertos":3802,"Ġcambios":3803,"Ġtermin":3804,"Ġsignifica":3805,"cus":3806,"pes":3807,"Ġsepar":3808,"toria":3809,"Ġase":3810,"Ġchino":3811,"Ġira":3812,"Ġpreocu":3813,"Ġrealista":3814,"Ġpeso":3815,"Ġspiel":3816,"Ġcuesta":3817,"37":3818,"52":3819,"rr":3820,"Ġplas":3821,"Ġamo":3822,"Ġcaja":3823,"Ġber":3824,"Ġmetro":3825,"Ġrevision":3826,"Ġacto":3827,"izada":3828,"Ġpate":3829,"Ġpaul":3830,"Ġostias":3831,"Ġhit":3832,"Ġcuentan":3833,"dore":3834,"Ġpitt":3835,"Ġestupi":3836,"Ġbond":3837,"Ġcristal":3838,"Ġcomienzo":3839,"Ġmantener":3840,"Ġgigante":3841,"Ġsupuestamente":3842,"47":3843,"ques":3844,"Ġsep":3845,"Ġleyendo":3846,"Ġsolu":3847,"Ġdespe":3848,"Ġpropi":3849,"Ġtantos":3850,"Ġprevisible":3851,"Ġmotiv":3852,"Ġform":3853,"Ġciertas":3854,"Ġcambi":3855,"Ġmirar":3856,"Ġmonstruos":3857,"Ġvisualmente":3858,"Ġaprovech":3859,"80":3860,"fw":3861,"Ġclub":3862,"Ġhtml":3863,"Ġalar":3864,"Ġoj":3865,"dedor":3866,"Ġabrir":3867,"iano":3868,"Ġdarth":3869,"Ġintencion":3870,"Ġcuantas":3871,"Ġnecesidad":3872,"Ġgore":3873,"Ġproyecto":3874,"Ġexpectativas":3875,"Ġlobezno":3876,"Ġabre":3877,"Ġbab":3878,"Ġconnor":3879,"quito":3880,"Ġespada":3881,"Ġhospi":3882,"Ġsospec":3883,"Ġedad":3884,"Ġsar":3885,"Ġatre":3886,"Ġentran":3887,"Ġgr":3888,"Ġreun":3889,"tive":3890,"trando":3891,"Ġquitando":3892,"Ġresu":3893,"ficado":3894,"Ġfilmo":3895,"Ġ196":3896,"Ġbebe":3897,"Ġdescubre":3898,"Ġerror":3899,"Ġrunner":3900,"Ġcontex":3901,"Ġspielberg":3902,"gir":3903,"Ġeas":3904,"remos":3905,"Ġsee":3906,"Ġvive":3907,"Ġchas":3908,"Ġmark":3909,"Ġespacial":3910,"Ġpiensa":3911,"Ġpresupuesto":3912,"kes":3913,"vido":3914,"Ġrele":3915,"Ġmascara":3916,"Ġprin":3917,"Ġ36":3918,"empos":3919,"Ġluchar":3920,"Ġnega":3921,"Ġllevaba":3922,"Ġ2010":3923,"Ġjusticia":3924,"Ġlleno":3925,"eeee":3926,"Ġwiki":3927,"Ġdestacar":3928,"Ġpodeis":3929,"Ġinfantil":3930,"Ġcasualidad":3931,"57":3932,"uf":3933,"Ġhaw":3934,"tible":3935,"Ġsoli":3936,"Ġexces":3937,"Ġtiempos":3938,"Ġahor":3939,"Ġ47":3940,"mento":3941,"ments":3942,"Ġoblig":3943,"Ġbarco":3944,"Ġhermanos":3945,"Ġtiros":3946,"Ġbrazo":3947,"inaciones":3948,"Ġescuch":3949,"18":3950,"56":3951,"ulacion":3952,"Ġecho":3953,"Ġdri":3954,"Ġtime":3955,"uno":3956,"Ġfig":3957,"Ġcondicion":3958,"Ġlex":3959,"Ġcargan":3960,"Ġmovil":3961,"umb":3962,"Ġdudo":3963,"Ġmoral":3964,"Ġqq":3965,"Ġgandal":3966,"Ġ2013":3967,"Ġespal":3968,"Ġsubtitu":3969,"Ġsiguen":3970,"Ġcapacidad":3971,"Ġevery":3972,"Ġspace":3973,"Ġoportunidad":3974,"cada":3975,"ken":3976,"Ġfrio":3977,"elos":3978,"Ġpartic":3979,"Ġlastima":3980,"Ġwes":3981,"Ġhablan":3982,"Ġhabido":3983,"Ġcoches":3984,"Ġocul":3985,"titud":3986,"Ġduracion":3987,"Ġgandalf":3988,"ish":3989,"Ġgema":3990,"Ġmanip":3991,"Ġdiseno":3992,"Ġofre":3993,"Ġcabal":3994,"Ġultimas":3995,"Ġintentan":3996,"Ġcompleto":3997,"Ġtelef":3998,"Ġmaestro":3999,"Ġsuelta":4000,"Ġpisto":4001,"Ġpaginas":4002,"Ġdefinitiva":4003,"Ġstreet":4004,"Ġconclusion":4005,"Ġscar":4006,"aran":4007,"tamiento":4008,"Ġlocura":4009,"Ġoh":4010,"Ġexcepto":4011,"Ġmach":4012,"Ġsalia":4013,"lano":4014,"Ġtios":4015,"Ġraza":4016,"Ġmueren":4017,"Ġcambiado":4018,"Ġzona":4019,"Ġjustific":4020,"Ġdebajo":4021,"Ġmaravilla":4022,"Ġreflex":4023,"Ġcarcel":4024,"Ġfiesta":4025,"42":4026,"Ġala":4027,"Ġanak":4028,"dias":4029,"Ġmanda":4030,"Ġarran":4031,"Ġsabor":4032,"Ġpudo":4033,"Ġdaria":4034,"Ġideas":4035,"Ġrecuerdos":4036,"Ġdistinto":4037,"Ġcuidado":4038,"Ġdumble":4039,"Ġhospital":4040,"nie":4041,"vs":4042,"ason":4043,"and":4044,"Ġns":4045,"Ġgh":4046,"Ġgood":4047,"Ġperio":4048,"ded":4049,"Ġvii":4050,"Ġkno":4051,"Ġarth":4052,"ings":4053,"Ġtuviera":4054,"Ġcamar":4055,"ffff":4056,"Ġjugar":4057,"Ġdialogo":4058,"lio":4059,"Ġom":4060,"Ġst":4061,"Ġstu":4062,"Ġenvi":4063,"icidad":4064,"Ġgame":4065,"Ġremo":4066,"Ġsigu":4067,"Ġmatando":4068,"Ġpoderoso":4069,"Ġreplic":4070,"Ġestuvo":4071,"Ġolvidar":4072,"Ġllorar":4073,"Ġvirus":4074,"ezca":4075,"Ġabout":4076,"sh":4077,"Ġsch":4078,"Ġsiente":4079,"Ġdev":4080,"Ġalre":4081,"Ġrelig":4082,"Ġthre":4083,"Ġgenera":4084,"Ġvieja":4085,"Ġdivertida":4086,"Ġcinematograf":4087,"Ġlamentable":4088,"Ġacompan":4089,"ines":4090,"Ġvig":4091,"Ġmetros":4092,"Ġaluc":4093,"ama":4094,"Ġdibu":4095,"Ġ37":4096,"Ġorcos":4097,"Ġgrab":4098,"Ġvolando":4099,"Ġshe":4100,"Ġfantasma":4101,"Ġconvencer":4102,"Ġsolucion":4103,"32":4104,"cemos":4105,"Ġcron":4106,"Ġino":4107,"maug":4108,"Ġmateri":4109,"Ġyoda":4110,"Ġryan":4111,"Ġrode":4112,"Ġjode":4113,"Ġfalcon":4114,"Ġcabron":4115,"Ġlengu":4116,"Ġsobrevivir":4117,"Ġextrana":4118,"Ġrubia":4119,"Ġanakin":4120,"Ġsmaug":4121,"Ġner":4122,"Ġvec":4123,"Ġsith":4124,"Ġdif":4125,"Ġsali":4126,"dencia":4127,"Ġacabe":4128,"Ġguionista":4129,"Ġvuelven":4130,"Ġmujeres":4131,"Ġargumental":4132,"Ġhostias":4133,"Ġsteve":4134,"Ġbirdman":4135,"ear":4136,"yen":4137,"Ġechar":4138,"Ġpq":4139,"Ġpuente":4140,"dable":4141,"Ġhagan":4142,"Ġanda":4143,"Ġaspec":4144,"Ġtengan":4145,"Ġponiendo":4146,"Ġcameo":4147,"Ġhola":4148,"Ġrespons":4149,"Ġasesinato":4150,"Ġremake":4151,"Ġgeorge":4152,"45":4153,"mes":4154,"Ġsun":4155,"Ġscen":4156,"Ġscre":4157,"Ġaus":4158,"Ġcr":4159,"Ġmedida":4160,"Ġham":4161,"quis":4162,"Ġcop":4163,"atis":4164,"Ġconsec":4165,"Ġsacan":4166,"tellar":4167,"Ġvillanos":4168,"Ġclave":4169,"Ġbrillan":4170,"Ġentiende":4171,"Ġconcreto":4172,"Ġpersecucion":4173,"Ġdumbledore":4174,"dri":4175,"fi":4176,"vista":4177,"Ġur":4178,"Ġlech":4179,"Ġdep":4180,"Ġmr":4181,"cios":4182,"Ġinn":4183,"Ġthem":4184,"Ġpasara":4185,"Ġcach":4186,"Ġii":4187,"Ġcaras":4188,"Ġamar":4189,"medad":4190,"Ġtercer":4191,"Ġhaberse":4192,"Ġhow":4193,"Ġinsul":4194,"Ġfamiliar":4195,"Ġmovimiento":4196,"Ġlineas":4197,"Ġshoah":4198,"Ġmulti":4199,"55":4200,"bi":4201,"Ġyork":4202,"Ġvienen":4203,"Ġdestino":4204,"Ġwall":4205,"tano":4206,"Ġpoe":4207,"Ġteneis":4208,"Ġrich":4209,"Ġbasada":4210,"Ġcasco":4211,"Ġexpres":4212,"Ġhacerse":4213,"Ġtonto":4214,"Ġfotos":4215,"Ġrecordado":4216,"Ġescrito":4217,"Ġdolor":4218,"ati":4219,"Ġcad":4220,"Ġdeba":4221,"Ġelse":4222,"Ġsuyo":4223,"Ġmate":4224,"Ġpuedan":4225,"Ġresuel":4226,"Ġhubo":4227,"Ġdatos":4228,"Ġforo":4229,"Ġcadaver":4230,"Ġgotham":4231,"logico":4232,"Ġteorias":4233,"ben":4234,"Ġperdi":4235,"Ġinv":4236,"Ġanillos":4237,"Ġprec":4238,"Ġquienes":4239,"Ġcalzador":4240,"Ġprotagonismo":4241,"Ġanimales":4242,"Ġaventura":4243,"Ġclasico":4244,"uuuu":4245,"Ġcolega":4246,"Ġreferencias":4247,"Ġgravedad":4248,"Ġaspectos":4249,"enda":4250,"Ġtb":4251,"Ġvues":4252,"Ġfea":4253,"Ġlobo":4254,"Ġrei":4255,"Ġparado":4256,"embre":4257,"vies":4258,"Ġdiscu":4259,"Ġoro":4260,"Ġcompor":4261,"Ġvuelva":4262,"Ġautor":4263,"Ġinfinito":4264,"Ġaporta":4265,"Ġhelicoptero":4266,"Ġojala":4267,"Ġarthur":4268,"yer":4269,"Ġdas":4270,"Ġduen":4271,"Ġdeath":4272,"enix":4273,"Ġnucle":4274,"Ġfes":4275,"Ġtocar":4276,"usto":4277,"Ġjav":4278,"Ġacos":4279,"Ġasco":4280,"Ġinters":4281,"Ġhorrible":4282,"Ġrompe":4283,"Ġparticu":4284,"Ġexperiencia":4285,"Ġagente":4286,"Ġenfermedad":4287,"Ġsecreto":4288,"Ġelementos":4289,"Ġesperanza":4290,"Ġapocalip":4291,"dica":4292,"field":4293,"uma":4294,"Ġlia":4295,"Ġago":4296,"Ġclon":4297,"Ġmio":4298,"arle":4299,"teo":4300,"Ġrel":4301,"Ġcuales":4302,"atica":4303,"Ġorg":4304,"Ġcorre":4305,"Ġfiloso":4306,"Ġcali":4307,"Ġharia":4308,"Ġbruja":4309,"Ġregres":4310,"Ġfloja":4311,"Ġanadir":4312,"Ġexplosion":4313,"Ġmisterio":4314,"Ġasegu":4315,"Ġcic":4316,"oma":4317,"Ġsel":4318,"Ġanun":4319,"Ġveremos":4320,"Ġrara":4321,"Ġcarre":4322,"Ġcargar":4323,"Ġpaci":4324,"Ġinternet":4325,"Ġigualmente":4326,"Ġcolores":4327,"Ġviolen":4328,"Ġcuadra":4329,"Ġcaballero":4330,"Ġfilmografia":4331,"dla":4332,"diente":4333,"uman":4334,"Ġcue":4335,"eria":4336,"arme":4337,"Ġconvir":4338,"Ġrell":4339,"Ġsuces":4340,"dez":4341,"Ġcopia":4342,"Ġpeda":4343,"Ġsaito":4344,"Ġmundi":4345,"Ġepico":4346,"Ġtransfor":4347,"Ġexplicado":4348,"Ġ2008":4349,"Ġwillia":4350,"Ġpresenta":4351,"Ġprueba":4352,"Ġespiri":4353,"Ġconjunto":4354,"17":4355,"pie":4356,"Ġdedic":4357,"Ġquedas":4358,"Ġtv":4359,"Ġhon":4360,"ung":4361,"Ġexito":4362,"Ġiv":4363,"Ġcastel":4364,"Ġrodar":4365,"Ġforzado":4366,"Ġpagar":4367,"tha":4368,"Ġapla":4369,"Ġverdadero":4370,"Ġcampo":4371,"jeros":4372,"risa":4373,"Ġshield":4374,"Ġedificio":4375,"Ġpiedra":4376,"Ġpalabra":4377,"Ġazul":4378,"Ġresuci":4379,"Ġnsfw":4380,"28":4381,"iqu":4382,"zones":4383,"Ġaran":4384,"Ġapa":4385,"Ġquerian":4386,"Ġges":4387,"Ġsopor":4388,"termin":4389,"Ġcolo":4390,"Ġsens":4391,"Ġsuspen":4392,"iosa":4393,"Ġirse":4394,"Ġnuevas":4395,"Ġhere":4396,"Ġcines":4397,"Ġsimbol":4398,"Ġcaptain":4399,"Ġfrances":4400,"Ġweb":4401,"Ġabsurda":4402,"Ġsecuencias":4403,"Ġalterna":4404,"Ġpudiera":4405,"Ġdiscurso":4406,"bio":4407,"tz":4408,"Ġee":4409,"Ġcel":4410,"Ġhomen":4411,"Ġfren":4412,"Ġlois":4413,"Ġ60":4414,"Ġemb":4415,"Ġrio":4416,"tone":4417,"Ġimportantes":4418,"Ġinteresantes":4419,"Ġadam":4420,"Ġvideos":4421,"Ġvisionado":4422,"Ġllamado":4423,"Ġdomin":4424,"Ġflashbacks":4425,"Ġalienigena":4426,"Ġconsecuen":4427,"sidad":4428,"Ġpho":4429,"Ġtin":4430,"Ġalta":4431,"Ġlook":4432,"Ġlocal":4433,"Ġindy":4434,"Ġpoquito":4435,"Ġaconte":4436,"Ġserp":4437,"Ġganar":4438,"Ġgreen":4439,"ivamente":4440,"Ġvelocidad":4441,"Ġlegolas":4442,"Ġmuestran":4443,"Ġwonder":4444,"Ġmaterial":4445,"hi":4446,"sis":4447,"Ġpillar":4448,"Ġsatis":4449,"Ġhara":4450,"Ġescla":4451,"Ġexpli":4452,"Ġposibles":4453,"Ġpalpat":4454,"Ġbeg":4455,"Ġlento":4456,"idente":4457,"Ġcontinuacion":4458,"Ġexisten":4459,"Ġutiliz":4460,"Ġamenaza":4461,"Ġshaw":4462,"Ġalrededor":4463,"Ġnovio":4464,"isa":4465,"Ġmetal":4466,"Ġloca":4467,"demos":4468,"Ġhablo":4469,"Ġmale":4470,"Ġdirectores":4471,"Ġpequenos":4472,"Ġgato":4473,"Ġinteligente":4474,"Ġbilbo":4475,"Ġinterstellar":4476,"Ġpies":4477,"Ġcity":4478,"alla":4479,"Ġgro":4480,"Ġparano":4481,"lock":4482,"chas":4483,"Ġlaser":4484,"Ġtraicion":4485,"Ġkn":4486,"Ġarras":4487,"Ġdeje":4488,"Ġentrevista":4489,"rup":4490,"Ġosea":4491,"Ġtomas":4492,"Ġejecu":4493,"Ġjean":4494,"Ġarries":4495,"Ġcolegas":4496,"Ġexcusa":4497,"Ġdemasiadas":4498,"Ġnatural":4499,"Ġsecundarios":4500,"Ġcontexto":4501,"41":4502,"dk":4503,"rino":4504,"Ġluna":4505,"Ġscript":4506,"Ġdepen":4507,"ray":4508,"Ġdesesper":4509,"Ġpoten":4510,"ign":4511,"Ġmago":4512,"Ġascen":4513,"Ġquis":4514,"Ġpasaba":4515,"Ġ45":4516,"Ġposi":4517,"Ġconocido":4518,"Ġpix":4519,"Ġtranscur":4520,"Ġ2009":4521,"Ġfantasia":4522,"Ġironman":4523,"ficacion":4524,"Ġalex":4525,"Ġmillenni":4526,"Ġdistintas":4527,"Ġprofundidad":4528,"Ġpistola":4529,"Ġcastellano":4530,"Ġmillennium":4531,"bros":4532,"cina":4533,"dro":4534,"Ġpack":4535,"Ġdre":4536,"Ġquereis":4537,"tagn":4538,"teg":4539,"Ġgun":4540,"Ġcomida":4541,"Ġretras":4542,"Ġreina":4543,"tial":4544,"Ġbuenisima":4545,"Ġtitan":4546,"Ġcausa":4547,"Ġmane":4548,"Ġmod":4549,"Ġford":4550,"Ġcanon":4551,"Ġgob":4552,"Ġdesapro":4553,"Ġescribir":4554,"Ġbonito":4555,"Ġdespro":4556,"Ġescapa":4557,"Ġbella":4558,"Ġdespertar":4559,"Ġprision":4560,"Ġoficial":4561,"Ġtrampa":4562,"Ġexcelente":4563,"Ġsospech":4564,"kin":4565,"ril":4566,"Ġsci":4567,"Ġater":4568,"Ġesencia":4569,"rias":4570,"Ġjer":4571,"quido":4572,"Ġaca":4573,"tua":4574,"die":4575,"Ġcaza":4576,"Ġartific":4577,"Ġputos":4578,"Ġpide":4579,"Ġadmi":4580,"Ġnominaciones":4581,"Ġcinco":4582,"rimiento":4583,"Ġdisfrutado":4584,"Ġagrad":4585,"Ġextrem":4586,"Ġliteralmente":4587,"Ġinneces":4588,"Ġedicion":4589,"Ġhier":4590,"Ġcontes":4591,"Ġasunto":4592,"Ġvidas":4593,"vers":4594,"Ġsenal":4595,"Ġimaginar":4596,"Ġcrio":4597,"Ġjust":4598,"Ġfija":4599,"Ġamericano":4600,"Ġcompania":4601,"aaaaaaaa":4602,"Ġdescubrir":4603,"Ġjuegos":4604,"Ġcoincido":4605,"Ġbeca":4606,"Ġalfred":4607,"Ġchistes":4608,"bal":4609,"ham":4610,"heet":4611,"selo":4612,"ond":4613,"Ġtel":4614,"Ġfecha":4615,"Ġleo":4616,"Ġwoman":4617,"Ġsalto":4618,"Ġrojo":4619,"Ġexplico":4620,"Ġpuesta":4621,"Ġ2000":4622,"Ġfalla":4623,"Ġimaginacion":4624,"Ġmere":4625,"Ġencontra":4626,"Ġdigi":4627,"Ġentero":4628,"Ġgordon":4629,"Ġvideoj":4630,"Ġgetele":4631,"Ġmaximo":4632,"bytagn":4633,"Ġproxima":4634,"Ġstylesheet":4635,"Ġdestruccion":4636,"Ġprofesor":4637,"Ġarmadura":4638,"Ġthriller":4639,"mentsbytagn":4640,"Ġgetelementsbytagn":4641,"Ġgetelementsbytagname":4642,"86":4643,"ric":4644,"si":4645,"vie":4646,"Ġego":4647,"Ġcuel":4648,"Ġdesgra":4649,"irse":4650,"Ġprodu":4651,"Ġcrees":4652,"Ġyour":4653,"Ġabierta":4654,"Ġpude":4655,"Ġmuertes":4656,"Ġimagina":4657,"Ġdiablo":4658,"Ġentretenido":4659,"Ġmediocre":4660,"Ġcapaces":4661,"Ġestruc":4662,"Ġfranco":4663,"Ġsorprende":4664,"Ġdesapare":4665,"Ġskynet":4666,"Ġajena":4667,"Ġjodidamente":4668,"Ġdescri":4669,"Ġmundial":4670,"rores":4671,"Ġesf":4672,"tazo":4673,"Ġgl":4674,"let":4675,"low":4676,"Ġinco":4677,"andom":4678,"Ġestais":4679,"Ġpow":4680,"Ġxen":4681,"urne":4682,"Ġ32":4683,"viese":4684,"Ġdoom":4685,"Ġcompro":4686,"Ġdecirlo":4687,"Ġestara":4688,"Ġdigamos":4689,"Ġempezo":4690,"Ġcentro":4691,"Ġmagne":4692,"Ġfisico":4693,"Ġmediante":4694,"Ġcompanero":4695,"Ġocasion":4696,"Ġsentimientos":4697,"Ġparticular":4698,"Ġpalpatine":4699,"nol":4700,"rando":4701,"roso":4702,"oro":4703,"isis":4704,"tarlo":4705,"Ġgustos":4706,"Ġpalo":4707,"Ġmayores":4708,"Ġconsigu":4709,"Ġdespierta":4710,"Ġsemanas":4711,"69":4712,"Ġliga":4713,"Ġspe":4714,"Ġesten":4715,"Ġesdla":4716,"Ġenano":4717,"Ġsuya":4718,"Ġinm":4719,"cional":4720,"Ġjason":4721,"terio":4722,"Ġram":4723,"Ġparezca":4724,"Ġultra":4725,"Ġcontrolar":4726,"Ġhuevo":4727,"Ġconsidero":4728,"urios":4729,"din":4730,"ku":4731,"kis":4732,"lum":4733,"Ġmando":4734,"Ġestando":4735,"Ġfum":4736,"Ġpegan":4737,"ment":4738,"haha":4739,"Ġ2012":4740,"Ġmusical":4741,"Ġtaqu":4742,"Ġwhen":4743,"Ġlanza":4744,"Ġsorprendio":4745,"Ġbonita":4746,"Ġaquella":4747,"Ġpretende":4748,"Ġgigantes":4749,"Ġaquellos":4750,"Ġevidente":4751,"Ġdesaprovech":4752,"Ġbecause":4753,"ey":4754,"ete":4755,"Ġear":4756,"Ġaff":4757,"ardo":4758,"Ġtun":4759,"Ġblu":4760,"Ġintu":4761,"Ġinver":4762,"Ġjos":4763,"Ġlast":4764,"Ġanci":4765,"tase":4766,"Ġcaus":4767,"Ġprecio":4768,"Ġpatr":4769,"Ġmunec":4770,"Ġultimamente":4771,"Ġusando":4772,"Ġpresidente":4773,"Ġtamano":4774,"Ġ2019":4775,"Ġambiente":4776,"Ġcapitulos":4777,"Ġpapeles":4778,"Ġconvencido":4779,"Ġsuicida":4780,"Ġleyenda":4781,"Ġidentidad":4782,"Ġchirria":4783,"Ġcumpl":4784,"quilib":4785,"Ġreflexion":4786,"Ġfestiv":4787,"fondo":4788,"var":4789,"Ġsna":4790,"Ġcdn":4791,"ref":4792,"Ġfer":4793,"Ġperros":4794,"Ġmotivos":4795,"Ġfaltan":4796,"Ġseguido":4797,"Ġestuve":4798,"Ġperfeccion":4799,"Ġdisfra":4800,"Ġjake":4801,"Ġdispara":4802,"Ġfisica":4803,"Ġclint":4804,"Ġcontento":4805,"Ġnaturale":4806,"topher":4807,"Ġcrimen":4808,"Ġprefiero":4809,"Ġsilencio":4810,"del":4811,"ning":4812,"Ġdeck":4813,"ance":4814,"Ġtum":4815,"Ġnick":4816,"Ġenve":4817,"Ġmedico":4818,"Ġcontando":4819,"Ġgam":4820,"Ġcuch":4821,"Ġsaliendo":4822,"Ġcog":4823,"Ġ35":4824,"Ġcargado":4825,"Ġrecre":4826,"thor":4827,"Ġ42":4828,"Ġinterior":4829,"Ġtuv":4830,"ucky":4831,"Ġcamion":4832,"Ġterminado":4833,"cons":4834,"Ġocurrido":4835,"Ġinterpreta":4836,"Ġconsiguen":4837,"Ġborra":4838,"cierto":4839,"Ġnaturaleza":4840,"14":4841,"aker":4842,"eur":4843,"ful":4844,"ure":4845,"osas":4846,"Ġredon":4847,"tario":4848,"Ġhabiendo":4849,"Ġviva":4850,"Ġcaida":4851,"Ġcasos":4852,"Ġestetica":4853,"Ġlucas":4854,"Ġdarse":4855,"Ġusan":4856,"Ġpresencia":4857,"Ġllaman":4858,"Ġpanther":4859,"Ġfrank":4860,"Ġdistinta":4861,"Ġinicial":4862,"Ġfollar":4863,"Ġcomienza":4864,"Ġsuele":4865,"lie":4866,"line":4867,"Ġaja":4868,"Ġcy":4869,"Ġbri":4870,"Ġbale":4871,"Ġocu":4872,"Ġreve":4873,"Ġitem":4874,"Ġpegar":4875,"vida":4876,"Ġmarca":4877,"Ġpata":4878,"ticias":4879,"Ġries":4880,"Ġ2016":4881,"Ġtermino":4882,"Ġcielo":4883,"Ġinteresa":4884,"Ġmuera":4885,"Ġlimi":4886,"Ġkaij":4887,"Ġcloud":4888,"Ġcuarto":4889,"Ġcojonuda":4890,"Ġvampir":4891,"Ġcientifico":4892,"Ġespalda":4893,"Ġcamaras":4894,"90":4895,"lle":4896,"lus":4897,"wen":4898,"Ġpuso":4899,"Ġdil":4900,"Ġcli":4901,"Ġhen":4902,"radas":4903,"Ġseme":4904,"Ġmeto":4905,"ector":4906,"Ġinvas":4907,"Ġmiem":4908,"Ġdijer":4909,"dible":4910,"Ġcreacion":4911,"hood":4912,"Ġsabido":4913,"Ġentretiene":4914,"Ġcamp":4915,"centes":4916,"Ġpesad":4917,"Ġsabeis":4918,"Ġoriginales":4919,"Ġsher":4920,"Ġopiniones":4921,"Ġpuertas":4922,"Ġrecurso":4923,"Ġpillado":4924,"Ġrepito":4925,"Ġpiloto":4926,"Ġchew":4927,"Ġdinosaurios":4928,"98":4929,"gth":4930,"art":4931,"Ġeng":4932,"Ġblog":4933,"ily":4934,"Ġglo":4935,"Ġalimen":4936,"Ġsiga":4937,"tures":4938,"Ġdire":4939,"Ġviuda":4940,"Ġtratar":4941,"Ġimita":4942,"Ġpedir":4943,"Ġpay":4944,"Ġ01":4945,"Ġbusque":4946,"Ġold":4947,"Ġpresentacion":4948,"Ġprincipales":4949,"Ġllamada":4950,"Ġcompaneros":4951,"Ġcorrecto":4952,"Ġtwo":4953,"Ġresistencia":4954,"Ġpixar":4955,"drio":4956,"fil":4957,"Ġeuro":4958,"Ġces":4959,"Ġtdk":4960,"Ġener":4961,"omor":4962,"Ġpartido":4963,"Ġlost":4964,"Ġans":4965,"Ġmac":4966,"Ġgusano":4967,"Ġpasta":4968,"tallas":4969,"Ġchiste":4970,"Ġmaneras":4971,"Ġiii":4972,"Ġdisen":4973,"Ġcama":4974,"Ġignor":4975,"Ġ2011":4976,"Ġestup":4977,"Ġestuviera":4978,"Ġsang":4979,"Ġproductor":4980,"Ġzombie":4981,"Ġstarkiller":4982,"Ġambientada":4983,"Ġobsesion":4984,"Ġindiana":4985,"Ġrepresenta":4986,"Ġtruco":4987,"Ġdesarrollar":4988,"Ġfigura":4989,"Ġscreen":4990,"Ġbegins":4991,"hes":4992,"Ġaw":4993,"Ġfres":4994,"Ġgone":4995,"Ġsutil":4996,"deo":4997,"Ġintri":4998,"Ġjim":4999,"Ġana":5000,"Ġacuer":5001,"Ġmito":5002,"Ġseran":5003,"atico":5004,"Ġmover":5005,"Ġnav":5006,"Ġclara":5007,"tilla":5008,"Ġbox":5009,"Ġmore":5010,"Ġllevada":5011,"Ġdaniel":5012,"Ġlength":5013,"Ġcientific":5014,"Ġgustaron":5015,"Ġclima":5016,"Ġstorm":5017,"Ġdrogas":5018,"Ġcorrecta":5019,"Ġimpacto":5020,"Ġgracioso":5021,"Ġgemas":5022,"Ġknight":5023,"Ġesfuer":5024,"87":5025,"gal":5026,"Ġdano":5027,"Ġagar":5028,"Ġdeten":5029,"enta":5030,"anda":5031,"ares":5032,"Ġentorno":5033,"Ġnow":5034,"Ġbib":5035,"Ġconex":5036,"ille":5037,"Ġtotem":5038,"iculo":5039,"terias":5040,"Ġrandom":5041,"lare":5042,"Ġluthor":5043,"Ġdown":5044,"Ġvender":5045,"Ġtuve":5046,"Ġhaberlo":5047,"Ġguionistas":5048,"Ġhorror":5049,"Ġfijo":5050,"Ġconflic":5051,"Ġcultura":5052,"Ġmaquilla":5053,"Ġtelevision":5054,"Ġerrores":5055,"Ġobstante":5056,"Ġsucede":5057,"Ġsolamente":5058,"Ġconversaciones":5059,"Ġfury":5060,"Ġrepetir":5061,"Ġextendida":5062,"Ġwoody":5063,"Ġprinces":5064,"Ġpedazo":5065,"pla":5066,"sic":5067,"Ġstal":5068,"Ġunder":5069,"Ġinca":5070,"tandose":5071,"Ġpros":5072,"Ġmacho":5073,"Ġescenario":5074,"Ġcagada":5075,"Ġital":5076,"Ġhum":5077,"Ġpeo":5078,"Ġ56":5079,"Ġobi":5080,"Ġcanciones":5081,"Ġrefier":5082,"Ġdigno":5083,"Ġculp":5084,"Ġolvida":5085,"Ġexistencia":5086,"Ġcomunica":5087,"Ġchristopher":5088,"Ġenemigos":5089,"Ġtransmite":5090,"Ġevidentemente":5091,"Ġscors":5092,"Ġdemuestra":5093,"Ġdeckard":5094,"12":5095,"cad":5096,"fac":5097,"tina":5098,"tisimo":5099,"tismo":5100,"Ġeter":5101,"Ġlados":5102,"Ġhad":5103,"Ġinmor":5104,"Ġinvier":5105,"Ġinesper":5106,"Ġjuras":5107,"Ġdesas":5108,"Ġpob":5109,"Ġsalta":5110,"Ġko":5111,"Ġlleve":5112,"Ġcarne":5113,"Ġmarcha":5114,"Ġ46":5115,"Ġ48":5116,"Ġhielo":5117,"darse":5118,"Ġcolon":5119,"Ġtorre":5120,"Ġ2007":5121,"echos":5122,"Ġgira":5123,"Ġsiguientes":5124,"Ġaburrido":5125,"Ġangus":5126,"Ġilum":5127,"Ġskywal":5128,"Ġpeligro":5129,"Ġpruebas":5130,"Ġdemonio":5131,"Ġsencillamente":5132,"Ġgilipollas":5133,"Ġsrc":5134,"Ġacostum":5135,"43":5136,"97":5137,"dores":5138,"san":5139,"tente":5140,"Ġstone":5141,"Ġador":5142,"Ġhref":5143,"alidad":5144,"day":5145,"Ġcontigo":5146,"echo":5147,"Ġmurio":5148,"abe":5149,"quier":5150,"tancias":5151,"Ġproposito":5152,"Ġasus":5153,"Ġtheir":5154,"Ġchic":5155,"Ġmismas":5156,"Ġpeon":5157,"Ġabor":5158,"Ġmoto":5159,"Ġmarte":5160,"thub":5161,"Ġcorte":5162,"Ġfaltado":5163,"cula":5164,"ficar":5165,"Ġpose":5166,"Ġquedaba":5167,"ighter":5168,"Ġganado":5169,"Ġespano":5170,"ville":5171,"Ġkevin":5172,"Ġgithub":5173,"Ġoscuridad":5174,"Ġcapitana":5175,"block":5176,"Ġquedarse":5177,"Ġjuega":5178,"Ġantiguo":5179,"ync":5180,"Ġguapa":5181,"Ġcaballo":5182,"Ġthread":5183,"Ġsemej":5184,"flare":5185,"my":5186,"tisima":5187,"xi":5188,"Ġatro":5189,"Ġfem":5190,"Ġmeti":5191,"Ġhago":5192,"Ġget":5193,"Ġparker":5194,"Ġreido":5195,"chel":5196,"Ġsober":5197,"Ġchun":5198,"Ġmenor":5199,"Ġcasino":5200,"Ġputas":5201,"Ġvenom":5202,"Ġfalso":5203,"Ġlibs":5204,"fff":5205,"Ġpalm":5206,"Ġcomento":5207,"Ġfueran":5208,"Ġjugue":5209,"Ġmueve":5210,"Ġcerc":5211,"Ġfavorita":5212,"Ġshow":5213,"Ġpolicias":5214,"Ġescuchar":5215,"Ġdamon":5216,"Ġtripulacion":5217,"Ġknow":5218,"Ġremove":5219,"Ġbrillante":5220,"Ġmagneto":5221,"Ġcdnjs":5222,"Ġajax":5223,"Ġcloudflare":5224,"Ġpeople":5225,"azo":5226,"cra":5227,"ju":5228,"ns":5229,"wa":5230,"Ġdun":5231,"Ġaga":5232,"ascript":5233,"Ġquery":5234,"Ġconcepto":5235,"leta":5236,"Ġdestri":5237,"Ġdiri":5238,"Ġasync":5239,"attribu":5240,"Ġrabia":5241,"Ġ1000":5242,"Ġguay":5243,"Ġsauron":5244,"age":5245,"Ġvolun":5246,"Ġinfil":5247,"Ġvarita":5248,"Ġonload":5249,"Ġagujeros":5250,"Ġponerse":5251,"Ġhubiesen":5252,"Ġordenador":5253,"Ġcontrola":5254,"Ġfacilmente":5255,"Ġrelato":5256,"Ġcontenido":5257,"Ġnuestros":5258,"Ġhighlightblock":5259,"Ġfirstchild":5260,"selector":5261,"Ġrespeto":5262,"Ġciego":5263,"Ġsiguiendo":5264,"Ġjavascript":5265,"Ġciclo":5266,"Ġhomenaje":5267,"Ġscorsese":5268,"Ġespanola":5269,"Ġremoveattribu":5270,"Ġqueryselector":5271,"Ġremoveattribute":5272,"Ġqueryselectorall":5273,"dara":5274,"util":5275,"Ġequilib":5276,"inal":5277,"Ġenla":5278,"Ġelfos":5279,"Ġnoticias":5280,"Ġfla":5281,"Ġinfer":5282,"Ġjr":5283,"Ġwere":5284,"Ġproceso":5285,"Ġxq":5286,"Ġpasaj":5287,"Ġpeores":5288,"Ġmartin":5289,"Ġposicion":5290,"Ġholo":5291,"Ġemper":5292,"Ġrepor":5293,"Ġsimon":5294,"Ġplaya":5295,"Ġdistintos":5296,"Ġingeniero":5297,"Ġhalcon":5298,"Ġcaracteris":5299,"Ġinvestiga":5300,"Ġvampiros":5301,"44":5302,"gle":5303,"gamos":5304,"yos":5305,"Ġlic":5306,"Ġdetermin":5307,"ang":5308,"ciencia":5309,"Ġperten":5310,"leck":5311,"imientos":5312,"Ġmuri":5313,"Ġveas":5314,"uros":5315,"Ġsonrisa":5316,"Ġmentira":5317,"Ġpreda":5318,"Ġrachel":5319,"Ġjodas":5320,"Ġventana":5321,"Ġgene":5322,"Ġmuerta":5323,"Ġverdadera":5324,"Ġcomprar":5325,"Ġmonos":5326,"Ġ99":5327,"Ġpalma":5328,"Ġfantastico":5329,"Ġjovenes":5330,"Ġreconocer":5331,"Ġacojonante":5332,"Ġbroma":5333,"Ġextraterrestres":5334,"Ġgobierno":5335,"Ġestructura":5336,"pl":5337,"Ġey":5338,"ensa":5339,"Ġlaw":5340,"Ġhues":5341,"inada":5342,"Ġnoticia":5343,"Ġmecan":5344,"Ġconden":5345,"Ġinvi":5346,"abilidad":5347,"Ġpop":5348,"tuales":5349,"digo":5350,"Ġkur":5351,"Ġcargo":5352,"Ġcartel":5353,"Ġrazones":5354,"Ġmodi":5355,"puestas":5356,"grama":5357,"boy":5358,"Ġcameron":5359,"Ġempresa":5360,"Ġllen":5361,"Ġprofesion":5362,"Ġposiblemente":5363,"Ġsorprendente":5364,"Ġdesaparece":5365,"Ġartis":5366,"Ġtransmitir":5367,"Ġrodada":5368,"Ġpecho":5369,"Ġmetaf":5370,"Ġboyhood":5371,"Ġscene":5372,"Ġincoher":5373,"Ġpeonza":5374,"bs":5375,"gaba":5376,"Ġhtm":5377,"Ġbucky":5378,"Ġparque":5379,"leza":5380,"Ġjon":5381,"ajas":5382,"Ġdiez":5383,"Ġabuelo":5384,"Ġexpan":5385,"Ġpaliza":5386,"Ġtonteria":5387,"Ġepic":5388,"Ġfilms":5389,"tadores":5390,"Ġpregunto":5391,"Ġsoltar":5392,"Ġdefra":5393,"Ġenterado":5394,"Ġsuperheroe":5395,"Ġdetective":5396,"Ġpredator":5397,"15":5398,"ach":5399,"game":5400,"ppen":5401,"ses":5402,"zados":5403,"Ġpir":5404,"Ġlight":5405,"Ġyear":5406,"Ġparo":5407,"aman":5408,"teros":5409,"Ġserian":5410,"olas":5411,"Ġtitulos":5412,"ped":5413,"Ġbastar":5414,"Ġroy":5415,"Ġforce":5416,"quitec":5417,"Ġsuperfic":5418,"Ġgraba":5419,"Ġ000":5420,"Ġbourne":5421,"Ġconocemos":5422,"Ġmierdas":5423,"Ġtranspor":5424,"Ġtoro":5425,"Ġnotable":5426,"Ġviajes":5427,"Ġmirada":5428,"Ġsteph":5429,"Ġrecomendar":5430,"Ġtrozo":5431,"Ġindepend":5432,"Ġnervi":5433,"Ġrichard":5434,"Ġskywalker":5435,"rero":5436,"rull":5437,"sor":5438,"tus":5439,"cimientos":5440,"Ġfuente":5441,"Ġbad":5442,"iad":5443,"Ġalum":5444,"Ġpark":5445,"Ġsole":5446,"Ġverse":5447,"Ġthen":5448,"Ġviven":5449,"Ġrue":5450,"Ġtramo":5451,"Ġcaen":5452,"Ġcata":5453,"Ġarquitec":5454,"Ġvacio":5455,"Ġroom":5456,"Ġjoe":5457,"Ġesperas":5458,"Ġvenido":5459,"Ġhiper":5460,"Ġcambian":5461,"Ġ2017":5462,"Ġestudi":5463,"Ġsalvaje":5464,"Ġconvertido":5465,"iiii":5466,"Ġgafas":5467,"Ġclones":5468,"Ġinteligencia":5469,"Ġfracas":5470,"Ġquitan":5471,"Ġsombra":5472,"Ġskrull":5473,"Ġafecta":5474,"Ġcoherente":5475,"Ġconvertirse":5476,"Ġsuperviv":5477,"Ġsuspense":5478,"Ġeeuu":5479,"Ġfestival":5480,"gus":5481,"luen":5482,"Ġedu":5483,"Ġecha":5484,"Ġevil":5485,"arte":5486,"cida":5487,"citos":5488,"omas":5489,"elas":5490,"Ġover":5491,"Ġrelo":5492,"Ġrevela":5493,"dey":5494,"pool":5495,"rito":5496,"Ġtetas":5497,"Ġescenarios":5498,"Ġki":5499,"Ġami":5500,"Ġsenti":5501,"Ġmarion":5502,"Ġsusto":5503,"Ġsustos":5504,"Ġguante":5505,"iana":5506,"Ġclark":5507,"Ġbodrio":5508,"Ġliquido":5509,"Ġtrasfondo":5510,"Ġjusti":5511,"Ġcerrar":5512,"Ġwhere":5513,"Ġdigna":5514,"Ġrelacionado":5515,"Ġwillis":5516,"Ġpadrino":5517,"Ġdandole":5518,"Ġantigua":5519,"wards":5520,"Ġcarcaj":5521,"Ġplanetas":5522,"Ġwould":5523,"Ġserpiente":5524,"Ġacadem":5525,"consciente":5526,"Ġinvierno":5527,"23":5528,"bado":5529,"rica":5530,"ving":5531,"zen":5532,"Ġpuse":5533,"ilando":5534,"Ġgat":5535,"Ġrevi":5536,"Ġestacion":5537,"Ġsalida":5538,"Ġtramas":5539,"Ġtirado":5540,"Ġcaido":5541,"pedia":5542,"Ġencaja":5543,"Ġmarcus":5544,"med":5545,"ianza":5546,"Ġconsciente":5547,"Ġmontan":5548,"Ġandro":5549,"Ġencantan":5550,"Ġempati":5551,"Ġpalomi":5552,"Ġtranqu":5553,"Ġnecesi":5554,"Ġocurrio":5555,"Ġpsy":5556,"Ġoscura":5557,"Ġcontacto":5558,"Ġdesenlace":5559,"Ġedward":5560,"gnar":5561,"Ġinfancia":5562,"Ġcomprender":5563,"Ġlibertad":5564,"Ġnazis":5565,"Ġadolescente":5566,"Ġclimax":5567,"ais":5568,"cuen":5569,"gres":5570,"gante":5571,"Ġty":5572,"Ġnu":5573,"Ġnig":5574,"alista":5575,"Ġbara":5576,"Ġcontras":5577,"Ġgla":5578,"Ġinex":5579,"Ġinutil":5580,"col":5581,"tracion":5582,"Ġexcepcion":5583,"Ġhable":5584,"Ġtela":5585,"Ġvayan":5586,"Ġragnar":5587,"Ġmoore":5588,"Ġcabre":5589,"Ġhaberla":5590,"Ġcancer":5591,"Ġ02":5592,"Ġintentado":5593,"Ġopcion":5594,"Ġesposa":5595,"Ġonly":5596,"Ġestudio":5597,"Ġmatarlo":5598,"Ġsimios":5599,"ipper":5600,"Ġniveles":5601,"Ġasesinos":5602,"Ġregla":5603,"Ġcentra":5604,"Ġdisparo":5605,"Ġdeclar":5606,"Ġconvence":5607,"logica":5608,"Ġafter":5609,"Ġpagina":5610,"Ġdefender":5611,"Ġblue":5612,"Ġproteger":5613,"Ġmaravillosa":5614,"Ġinvasion":5615,"gados":5616,"Ġadi":5617,"Ġhqu":5618,"Ġbul":5619,"elle":5620,"Ġjane":5621,"Ġserv":5622,"Ġhayas":5623,"Ġroad":5624,"Ġponia":5625,"dentes":5626,"Ġcore":5627,"Ġgravi":5628,"Ġinfluen":5629,"Ġempu":5630,"Ġempez":5631,"Ġatrac":5632,"Ġatrap":5633,"Ġcirc":5634,"Ġidentific":5635,"Ġexplosiones":5636,"Ġtremenda":5637,"Ġsecundario":5638,"Ġluchando":5639,"Ġmandarin":5640,"Ġtaquilla":5641,"akeripper":5642,"Ġhquakeripper":5643,"01":5644,"96":5645,"ges":5646,"hol":5647,"nn":5648,"plan":5649,"Ġaver":5650,"orado":5651,"Ġfemen":5652,"Ġgon":5653,"Ġlou":5654,"Ġcub":5655,"tarle":5656,"Ġhabilidad":5657,"Ġkil":5658,"Ġkub":5659,"Ġbasa":5660,"Ġmartillo":5661,"Ġpones":5662,"Ġaparezca":5663,"Ġcame":5664,"Ġadn":5665,"Ġinsta":5666,"Ġwhich":5667,"Ġexplicaciones":5668,"Ġtirando":5669,"Ġmurph":5670,"Ġphil":5671,"Ġexperimento":5672,"Ġmilitares":5673,"Ġcondiciones":5674,"Ġtelefono":5675,"Ġdigital":5676,"Ġxenomor":5677,"Ġmetafora":5678,"53":5679,"66":5680,"88":5681,"dieron":5682,"hon":5683,"Ġlore":5684,"Ġmcu":5685,"Ġhy":5686,"ciado":5687,"Ġbvs":5688,"Ġhaces":5689,"Ġdesn":5690,"Ġdesin":5691,"Ġdesierto":5692,"Ġander":5693,"igue":5694,"Ġprotas":5695,"Ġral":5696,"zacion":5697,"Ġken":5698,"Ġariad":5699,"Ġmentales":5700,"ttle":5701,"Ġrol":5702,"Ġrobar":5703,"Ġabuela":5704,"Ġpondria":5705,"gard":5706,"Ġvende":5707,"tividad":5708,"Ġbatallas":5709,"Ġtonterias":5710,"Ġbarb":5711,"Ġactua":5712,"Ġsiglo":5713,"Ġmagis":5714,"Ġdisparar":5715,"Ġexclus":5716,"Ġgiros":5717,"Ġconfirmado":5718,"Ġpropios":5719,"Ġstill":5720,"Ġcrono":5721,"Ġcadena":5722,"Ġphoenix":5723,"Ġcuello":5724,"Ġragnarok":5725,"dre":5726,"jando":5727,"eramente":5728,"Ġqueja":5729,"Ġlab":5730,"taca":5731,"Ġfase":5732,"Ġbuda":5733,"Ġbala":5734,"Ġgeo":5735,"Ġretra":5736,"lete":5737,"tier":5738,"Ġthin":5739,"tena":5740,"Ġxav":5741,"Ġcaos":5742,"Ġchicas":5743,"vey":5744,"Ġsobresal":5745,"Ġdistancia":5746,"Ġpaz":5747,"Ġ57":5748,"Ġhipo":5749,"pectiva":5750,"Ġhouse":5751,"Ġbusc":5752,"Ġponerle":5753,"iplash":5754,"Ġemociones":5755,"Ġfiction":5756,"Ġdestruye":5757,"Ġhiciera":5758,"Ġcoleccion":5759,"Ġridley":5760,"Ġelegido":5761,"Ġpsicopa":5762,"Ġdeadpool":5763,"Ġghos":5764,"Ġfeature":5765,"Ġhonor":5766,"Ġaffleck":5767,"Ġrefieres":5768,"Ġemperador":5769,"13":5770,"24":5771,"biendo":5772,"gadas":5773,"rados":5774,"Ġrein":5775,"Ġreca":5776,"Ġreino":5777,"Ġretorno":5778,"Ġsuda":5779,"Ġescudo":5780,"Ġdie":5781,"uerto":5782,"Ġcogido":5783,"Ġid":5784,"izando":5785,"Ġpatada":5786,"Ġcompu":5787,"Ġemma":5788,"Ġsubir":5789,"000":5790,"Ġinstitu":5791,"tadora":5792,"Ġrecordo":5793,"Ġrecordaba":5794,"Ġespectaculo":5795,"Ġanimal":5796,"Ġdisfrute":5797,"Ġescritor":5798,"Ġinventado":5799,"Ġproyeccion":5800,"Ġelegir":5801,"Ġridicula":5802,"Ġactualizado":5803,"Ġcomercial":5804,"Ġrepeti":5805,"Ġsombras":5806,"Ġenamorado":5807,"Ġbaby":5808,"Ġregreso":5809,"Ġconexion":5810,"Ġstephen":5811,"Ġariadne":5812,"een":5813,"fan":5814,"rick":5815,"vante":5816,"Ġsy":5817,"Ġais":5818,"Ġaqu":5819,"Ġape":5820,"Ġcero":5821,"Ġdebo":5822,"Ġtab":5823,"tador":5824,"Ġvier":5825,"Ġmel":5826,"Ġconduc":5827,"Ġgay":5828,"Ġlol":5829,"Ġoch":5830,"Ġoli":5831,"Ġrea":5832,"chan":5833,"Ġjenni":5834,"Ġanton":5835,"ige":5836,"ullo":5837,"Ġasal":5838,"Ġtrauma":5839,"Ġcodigo":5840,"Ġbasado":5841,"Ġcargarse":5842,"Ġsabado":5843,"Ġratos":5844,"Ġmary":5845,"Ġpared":5846,"media":5847,"Ġnego":5848,"Ġusu":5849,"Ġayud":5850,"ormal":5851,"ducido":5852,"Ġjugando":5853,"tural":5854,"Ġviajar":5855,"Ġderechos":5856,"Ġmeterse":5857,"Ġproducto":5858,"Ġamericana":5859,"Ġpromete":5860,"Ġavanza":5861,"Ġensenar":5862,"tress":5863,"Ġdemasiada":5864,"Ġtremendo":5865,"Ġcriatura":5866,"Ġcoherencia":5867,"Ġcliches":5868,"Ġhierro":5869,"Ġdijeron":5870,"Ġsemejante":5871,"Ġkubrick":5872,"ht":5873,"xo":5874,"ze":5875,"Ġpico":5876,"cidos":5877,"Ġfria":5878,"lot":5879,"Ġacciones":5880,"Ġprotec":5881,"dera":5882,"dero":5883,"Ġrim":5884,"Ġniro":5885,"Ġcarino":5886,"piro":5887,"Ġdisc":5888,"Ġponga":5889,"Ġoscur":5890,"pone":5891,"Ġcoreo":5892,"Ġgenio":5893,"iese":5894,"Ġbaile":5895,"Ġsubconsciente":5896,"Ġbanner":5897,"Ġaudio":5898,"Ġexplicando":5899,"Ġrefiere":5900,"Ġbeso":5901,"Ġcomparar":5902,"Ġflipado":5903,"Ġautobus":5904,"Ġpulp":5905,"Ġbombas":5906,"Ġautentico":5907,"Ġhabitual":5908,"Ġpusieron":5909,"Ġpartici":5910,"Ġacontecimientos":5911,"Ġmaquillaje":5912,"Ġchicha":5913,"Ġpasajero":5914,"Ġxavier":5915,"Ġjennifer":5916,"ivos":5917,"mada":5918,"Ġsilla":5919,"into":5920,"Ġenorm":5921,"Ġbando":5922,"Ġsuje":5923,"imi":5924,"imon":5925,"Ġtocado":5926,"Ġinj":5927,"Ġcut":5928,"Ġestados":5929,"Ġsois":5930,"Ġvere":5931,"uls":5932,"ulos":5933,"Ġproto":5934,"Ġproduce":5935,"Ġquim":5936,"Ġruso":5937,"Ġkar":5938,"Ġcosillas":5939,"Ġida":5940,"Ġcastillo":5941,"Ġsentidos":5942,"Ġdow":5943,"key":5944,"Ġterren":5945,"Ġmini":5946,"Ġquieras":5947,"Ġprincipe":5948,"Ġvuelvo":5949,"Ġunidos":5950,"Ġdeben":5951,"Ġsimbo":5952,"Ġviejos":5953,"Ġjohnson":5954,"Ġemocional":5955,"Ġcomunidad":5956,"Ġobserv":5957,"Ġnorte":5958,"Ġnumeros":5959,"Ġpolvo":5960,"Ġendgame":5961,"Ġeast":5962,"Ġreplicante":5963,"Ġinocente":5964,"Ġconflicto":5965,"Ġatropel":5966,"Ġbastardos":5967,"54":5968,"pest":5969,"Ġtos":5970,"icon":5971,"Ġcontado":5972,"Ġperfor":5973,"Ġestable":5974,"Ġfincher":5975,"cock":5976,"Ġcayendo":5977,"aton":5978,"Ġidio":5979,"Ġradio":5980,"Ġluces":5981,"Ġoso":5982,"Ġgeniales":5983,"Ġposter":5984,"Ġobras":5985,"Ġinfierno":5986,"Ġsecuelas":5987,"Ġfuertes":5988,"Ġrepro":5989,"blabla":5990,"Ġtiran":5991,"Ġactuar":5992,"Ġaleg":5993,"Ġolvidado":5994,"Ġfeel":5995,"Ġrelated":5996,"Ġmesa":5997,"Ġrecibe":5998,"Ġzombis":5999,"Ġllorando":6000,"Ġestrel":6001,"Ġfuria":6002,"Ġjajajaja":6003,"Ġensena":6004,"Ġautentica":6005,"Ġsuicidio":6006,"Ġdecisiones":6007,"Ġcomplicado":6008,"Ġwikipedia":6009,"Ġleche":6010,"bender":6011,"Ġapocalipsis":6012,"Ġconsecuencias":6013,"Ġbudapest":6014,"cable":6015,"ding":6016,"kk":6017,"zadas":6018,"Ġpiso":6019,"Ġdieron":6020,"Ġage":6021,"Ġmys":6022,"Ġnoc":6023,"Ġnova":6024,"Ġoce":6025,"Ġoido":6026,"Ġtocho":6027,"tios":6028,"Ġdescen":6029,"Ġwil":6030,"Ġthro":6031,"Ġvisuales":6032,"Ġdicha":6033,"Ġcarta":6034,"Ġamy":6035,"Ġdisco":6036,"ficios":6037,"Ġmontana":6038,"carse":6039,"Ġdirecto":6040,"Ġandre":6041,"Ġfunda":6042,"Ġgustaba":6043,"Ġencontre":6044,"Ġwhiplash":6045,"Ġnormalmente":6046,"Ġalegro":6047,"Ġfavoritas":6048,"Ġabsurdas":6049,"Ġgolpes":6050,"Ġtematica":6051,"Ġmaquinas":6052,"Ġrelaciones":6053,"Ġmedios":6054,"Ġfelicidad":6055,"Ġtoques":6056,"608":6057,"Ġlevanta":6058,"Ġdemostrar":6059,"Ġnegros":6060,"Ġhawke":6061,"Ġnuclear":6062,"Ġpacific":6063,"Ġarana":6064,"Ġdesproposito":6065,"Ġenergia":6066,"Ġacostumbra":6067,"67":6068,"cados":6069,"gular":6070,"jera":6071,"Ġia":6072,"Ġpac":6073,"Ġdeca":6074,"uns":6075,"Ġvuestra":6076,"Ġfro":6077,"Ġsube":6078,"Ġtoy":6079,"Ġany":6080,"Ġacu":6081,"Ġdies":6082,"didos":6083,"Ġsaltar":6084,"Ġsaltos":6085,"deros":6086,"atia":6087,"Ġllegando":6088,"Ġdecian":6089,"Ġrealismo":6090,"Ġhacerle":6091,"quila":6092,"Ġnet":6093,"Ġfalto":6094,"Ġiguales":6095,"Ġopino":6096,"Ġthorin":6097,"Ġutilizar":6098,"Ġrayos":6099,"Ġrecursos":6100,"Ġeleccion":6101,"Ġdeseando":6102,"Ġelemento":6103,"Ġpiratas":6104,"Ġdimensiones":6105,"Ġescaleras":6106,"Ġprograma":6107,"Ġwestern":6108,"Ġcesar":6109,"71":6110,"Ġdaban":6111,"Ġsto":6112,"Ġaero":6113,"Ġaumen":6114,"Ġaward":6115,"eral":6116,"erra":6117,"Ġdefec":6118,"ony":6119,"Ġenvia":6120,"Ġunicamente":6121,"Ġfen":6122,"Ġgy":6123,"amento":6124,"Ġinci":6125,"chado":6126,"Ġsotano":6127,"tuvo":6128,"Ġasia":6129,"Ġsalvan":6130,"Ġcarter":6131,"Ġcarol":6132,"Ġmoon":6133,"Ġmotor":6134,"Ġpatadas":6135,"Ġsustancia":6136,"vencia":6137,"Ġneo":6138,"Ġincom":6139,"Ġ78":6140,"Ġbay":6141,"Ġhard":6142,"Ġharvey":6143,"Ġfatal":6144,"Ġentretenimiento":6145,"Ġtron":6146,"Ġpreguntar":6147,"Ġdebia":6148,"Ġcomparacion":6149,"Ġpierden":6150,"Ġnombres":6151,"Ġdisparos":6152,"Ġclava":6153,"oney":6154,"Ġrapida":6155,"Ġentrenamiento":6156,"Ġechado":6157,"Ġpeligros":6158,"Ġopera":6159,"Ġpreferido":6160,"Ġespiritu":6161,"Ġeastwood":6162,"gico":6163,"mem":6164,"nis":6165,"pper":6166,"Ġlio":6167,"Ġlyn":6168,"Ġtt":6169,"ory":6170,"orada":6171,"Ġnacion":6172,"Ġnigh":6173,"inando":6174,"Ġconmi":6175,"Ġhacian":6176,"Ġalice":6177,"Ġodin":6178,"Ġrex":6179,"Ġsum":6180,"Ġwak":6181,"emo":6182,"Ġverano":6183,"Ġacce":6184,"Ġactitud":6185,"Ġdiv":6186,"olf":6187,"ulce":6188,"Ġpromo":6189,"Ġvivos":6190,"Ġveis":6191,"Ġcopi":6192,"Ġkong":6193,"Ġarro":6194,"Ġpegado":6195,"Ġharris":6196,"Ġsacando":6197,"Ġgoing":6198,"Ġjuicio":6199,"ometraje":6200,"Ġcuriosa":6201,"Ġfisher":6202,"Ġsobrado":6203,"Ġnarices":6204,"Ġutiliza":6205,"Ġincluido":6206,"Ġhechas":6207,"Ġdroga":6208,"Ġsentimiento":6209,"Ġcuarta":6210,"Ġromance":6211,"Ġaviso":6212,"Ġniebla":6213,"Ġelectr":6214,"Ġdormir":6215,"Ġpermite":6216,"Ġcarretera":6217,"Ġcueva":6218,"Ġgloria":6219,"Ġsnape":6220,"Ġindependiente":6221,"Ġreloj":6222,"Ġanderson":6223,"Ġconmigo":6224,"rarse":6225,"tones":6226,"udos":6227,"Ġsny":6228,"ancia":6229,"tea":6230,"Ġfron":6231,"Ġfuck":6232,"Ġbb":6233,"Ġgris":6234,"Ġreves":6235,"Ġsiete":6236,"Ġmutantes":6237,"Ġactress":6238,"Ġcreando":6239,"Ġtratan":6240,"Ġcagar":6241,"Ġ34":6242,"Ġiz":6243,"Ġvais":6244,"Ġroto":6245,"Ġroja":6246,"Ġencaj":6247,"Ġdejaron":6248,"Ġdecidido":6249,"Ġimpres":6250,"Ġapartado":6251,"Ġgratu":6252,"Ġminis":6253,"Ġempi":6254,"Ġandy":6255,"Ġsecuestra":6256,"Ġbazo":6257,"Ġllamas":6258,"Ġhardy":6259,"Ġharley":6260,"Ġrepub":6261,"Ġjung":6262,"Ġspidey":6263,"Ġdioses":6264,"icks":6265,"Ġvestu":6266,"Ġamericanos":6267,"Ġtroll":6268,"Ġbajar":6269,"athan":6270,"Ġsignificado":6271,"Ġpuntazos":6272,"Ġlisto":6273,"Ġpremios":6274,"Ġjess":6275,"Ġangeles":6276,"Ġconazo":6277,"Ġagents":6278,"Ġlenguaje":6279,"Ġviernes":6280,"89":6281,"tn":6282,"Ġetern":6283,"Ġpse":6284,"Ġsesion":6285,"dom":6286,"ald":6287,"teca":6288,"dais":6289,"Ġbun":6290,"Ġother":6291,"Ġrebo":6292,"Ġrevis":6293,"usiones":6294,"chos":6295,"Ġjor":6296,"Ġexpe":6297,"Ġ33":6298,"acer":6299,"Ġarch":6300,"Ġresiden":6301,"Ġresolver":6302,"Ġidi":6303,"Ġmism":6304,"Ġropa":6305,"Ġdays":6306,"Ġsustitu":6307,"Ġplanet":6308,"Ġimpro":6309,"Ġcorrup":6310,"Ġnatal":6311,"itamente":6312,"Ġhoward":6313,"Ġvoces":6314,"Ġ04":6315,"Ġbote":6316,"Ġconocen":6317,"Ġcrios":6318,"Ġlittle":6319,"Ġadecu":6320,"Ġautom":6321,"Ġinstante":6322,"Ġfaltaba":6323,"Ġcaprio":6324,"Ġplay":6325,"Ġreglas":6326,"Ġromper":6327,"Ġatraves":6328,"Ġfranqu":6329,"Ġmovimientos":6330,"Ġpsiqu":6331,"truccion":6332,"Ġexplota":6333,"Ġcojonudo":6334,"Ġposibilidades":6335,"Ġtransformers":6336,"Ġimaginaba":6337,"Ġestupido":6338,"Ġcientificos":6339,"Ġangustia":6340,"Ġghost":6341,"Ġdowney":6342,"Ġnoctur":6343,"Ġsnyder":6344,"tiendose":6345,"tienen":6346,"Ġevan":6347,"Ġpajar":6348,"Ġdue":6349,"Ġsienta":6350,"Ġespar":6351,"Ġeli":6352,"alan":6353,"tein":6354,"Ġnotas":6355,"Ġflor":6356,"Ġmetiendo":6357,"lador":6358,"Ġgamb":6359,"Ġgoo":6360,"Ġcomb":6361,"Ġreen":6362,"Ġdescrip":6363,"ione":6364,"Ġmade":6365,"Ġmatr":6366,"Ġasque":6367,"Ġveamos":6368,"trooper":6369,"Ġcage":6370,"Ġmalditos":6371,"Ġartes":6372,"Ġsentado":6373,"Ġpego":6374,"Ġdejen":6375,"than":6376,"ddy":6377,"Ġpuntuacion":6378,"tice":6379,"menta":6380,"Ġacabara":6381,"Ġdirecta":6382,"Ġhoff":6383,"Ġrip":6384,"Ġcritico":6385,"Ġgangs":6386,"Ġocurrir":6387,"Ġtendran":6388,"llen":6389,"Ġmillion":6390,"Ġsteven":6391,"Ġshot":6392,"Ġaquello":6393,"Ġplantea":6394,"Ġruss":6395,"oooooooo":6396,"Ġsencillo":6397,"Ġmolesta":6398,"Ġtecnico":6399,"Ġequivoco":6400,"Ġwinter":6401,"Ġconstantemente":6402,"Ġcinematografico":6403,"Ġembara":6404,"Ġhenry":6405,"Ġincapa":6406,"Ġtranquilo":6407,"gida":6408,"mb":6409,"pus":6410,"wor":6411,"Ġduelo":6412,"Ġhill":6413,"Ġnic":6414,"Ġali":6415,"Ġportal":6416,"icul":6417,"riel":6418,"Ġcrean":6419,"iber":6420,"Ġrick":6421,"Ġmejora":6422,"Ġamista":6423,"Ġamiga":6424,"Ġmodos":6425,"Ġexplor":6426,"Ġvenia":6427,"Ġigles":6428,"Ġintenciones":6429,"Ġoptim":6430,"Ġgenerales":6431,"Ġideal":6432,"Ġsold":6433,"Ġtorno":6434,"Ġregis":6435,"Ġatacar":6436,"Ġtrek":6437,"right":6438,"Ġsufre":6439,"Ġtriun":6440,"Ġsamura":6441,"Ġfass":6442,"Ġbreak":6443,"Ġviviendo":6444,"Ġoperacion":6445,"Ġvolviendo":6446,"Ġofrece":6447,"Ġrelleno":6448,"Ġsucesos":6449,"Ġmiembros":6450,"Ġpayaso":6451,"Ġintriga":6452,"Ġinmortal":6453,"gel":6454,"hib":6455,"tch":6456,"Ġlun":6457,"Ġai":6458,"Ġmom":6459,"Ġtac":6460,"Ġlago":6461,"Ġbano":6462,"iende":6463,"Ġolla":6464,"Ġcombus":6465,"Ġsitios":6466,"ecera":6467,"tren":6468,"Ġfina":6469,"cacion":6470,"Ġmaldicion":6471,"Ġrealiz":6472,"Ġrealizar":6473,"Ġ41":6474,"Ġcortar":6475,"Ġcorrer":6476,"iosos":6477,"cencia":6478,"Ġvolar":6479,"Ġ9608":6480,"Ġzor":6481,"Ġsubn":6482,"Ġconforme":6483,"Ġinterpretado":6484,"Ġviendola":6485,"Ġanime":6486,"Ġcientos":6487,"Ġespaciales":6488,"Ġjae":6489,"Ġjackman":6490,"Ġbene":6491,"Ġpresentan":6492,"Ġpresentar":6493,"Ġmencionar":6494,"Ġprofundo":6495,"Ġafir":6496,"Ġresponde":6497,"Ġaceptable":6498,"Ġenferm":6499,"Ġintroduccion":6500,"Ġsuficientemente":6501,"Ġdemasiados":6502,"Ġexagerado":6503,"Ġpatetico":6504,"Ġpower":6505,"Ġearth":6506,"Ġtumba":6507,"Ġesfuerzo":6508,"25":6509,"cel":6510,"ides":6511,"Ġlaura":6512,"unt":6513,"Ġyendo":6514,"Ġgos":6515,"Ġlogan":6516,"Ġpartida":6517,"Ġrecha":6518,"lez":6519,"Ġtol":6520,"andola":6521,"Ġmuriendo":6522,"Ġwat":6523,"Ġthan":6524,"Ġmapa":6525,"Ġtrain":6526,"Ġcoven":6527,"Ġcasting":6528,"Ġrogue":6529,"Ġabus":6530,"Ġcorri":6531,"Ġcortos":6532,"Ġobvi":6533,"Ġbob":6534,"Ġpalos":6535,"Ġbefor":6536,"Ġestuv":6537,"Ġejemplos":6538,"Ġfantasmas":6539,"Ġcriticar":6540,"Ġclasica":6541,"Ġmiller":6542,"Ġflojo":6543,"Ġperspectiva":6544,"Ġsuelen":6545,"Ġchavales":6546,"Ġturno":6547,"Ġcharacter":6548,"Ġcuriosamente":6549,"Ġbalas":6550,"Ġpicture":6551,"Ġfrag":6552,"Ġjesse":6553,"Ġnieve":6554,"Ġrumor":6555,"Ġrumores":6556,"Ġpropias":6557,"Ġdibujos":6558,"Ġstormtrooper":6559,"Ġjurassic":6560,"Ġcircuns":6561,"Ġfassbender":6562,"Ġbefore":6563,"70":6564,"dras":6565,"hat":6566,"jarse":6567,"vada":6568,"Ġllu":6569,"Ġlong":6570,"Ġsm":6571,"Ġspar":6572,"Ġaho":6573,"Ġaka":6574,"Ġmich":6575,"Ġestra":6576,"Ġelab":6577,"Ġnote":6578,"Ġflu":6579,"iados":6580,"Ġparti":6581,"Ġox":6582,"Ġinqu":6583,"Ġanth":6584,"Ġextras":6585,"Ġasum":6586,"Ġcreeis":6587,"Ġsaldra":6588,"Ġviii":6589,"ather":6590,"Ġchi":6591,"Ġarque":6592,"Ġvaca":6593,"Ġmundos":6594,"Ġtrascen":6595,"Ġespectadores":6596,"saw":6597,"Ġtruno":6598,"Ġmusic":6599,"Ġinterpretar":6600,"Ġdigas":6601,"posicion":6602,"Ġcentral":6603,"Ġpiensas":6604,"Ġlanz":6605,"Ġdecada":6606,"Ġincreibles":6607,"Ġdoblada":6608,"Ġresponder":6609,"Ġsamuel":6610,"borg":6611,"Ġvictim":6612,"Ġamante":6613,"Ġsacrificio":6614,"Ġalienigenas":6615,"Ġprecuela":6616,"Ġpoblacion":6617,"Ġthrough":6618,"Ġcovenant":6619,"bilidad":6620,"ium":6621,"Ġdedica":6622,"osim":6623,"ary":6624,"Ġlaber":6625,"Ġvul":6626,"tegra":6627,"Ġgall":6628,"Ġlocos":6629,"Ġola":6630,"Ġine":6631,"Ġindic":6632,"trados":6633,"didas":6634,"Ġcreador":6635,"Ġtitle":6636,"respon":6637,"Ġcosta":6638,"Ġarco":6639,"Ġhuir":6640,"Ġmotion":6641,"Ġentregas":6642,"Ġ58":6643,"Ġcorr":6644,"Ġterrible":6645,"Ġusado":6646,"Ġherm":6647,"Ġfuerzas":6648,"Ġefectivamente":6649,"Ġempezando":6650,"Ġlimite":6651,"Ġmostrando":6652,"Ġbrazos":6653,"Ġrecomendada":6654,"Ġarticulo":6655,"polis":6656,"Ġblock":6657,"Ġeverything":6658,"Ġcinematografica":6659,"Ġdebate":6660,"Ġwilliams":6661,"Ġartificial":6662,"Ġrambo":6663,"Ġpsicopata":6664,"Ġizquier":6665,"06":6666,"99":6667,"puerto":6668,"yp":6669,"Ġdientes":6670,"Ġsien":6671,"asa":6672,"rel":6673,"Ġnovel":6674,"Ġfight":6675,"Ġcontiene":6676,"Ġparan":6677,"Ġpersegu":6678,"Ġdeso":6679,"Ġantic":6680,"tance":6681,"Ġdiario":6682,"Ġexterior":6683,"Ġasgard":6684,"rest":6685,"eracto":6686,"Ġire":6687,"verfield":6688,"tting":6689,"Ġrodri":6690,"Ġmoda":6691,"Ġdeciden":6692,"dental":6693,"Ġ51":6694,"ficos":6695,"Ġcierra":6696,"cent":6697,"Ġpodra":6698,"Ġmortal":6699,"Ġsecues":6700,"Ġllamo":6701,"Ġbattle":6702,"Ġjuz":6703,"Ġtrue":6704,"Ġdebil":6705,"Ġmostrado":6706,"Ġhablamos":6707,"Ġbrutales":6708,"Ġcontinua":6709,"Ġsexual":6710,"Ġacepta":6711,"Ġruido":6712,"Ġsufrir":6713,"Ġxddddddddd":6714,"Ġantiguas":6715,"Ġenfrentamiento":6716,"buster":6717,"Ġpreparado":6718,"Ġconocimiento":6719,"Ġanalisis":6720,"Ġarreglar":6721,"Ġfamoso":6722,"Ġcruel":6723,"Ġsatisfec":6724,"Ġcyborg":6725,"Ġaeropuerto":6726,"Ġiglesia":6727,"Ġinquie":6728,"etas":6729,"human":6730,"ji":6731,"Ġenv":6732,"tear":6733,"Ġnove":6734,"Ġbran":6735,"Ġset":6736,"Ġsele":6737,"Ġgag":6738,"Ġrevolucion":6739,"amientos":6740,"Ġacel":6741,"Ġmake":6742,"Ġastron":6743,"Ġcreen":6744,"Ġteatro":6745,"Ġsinies":6746,"Ġsinsen":6747,"Ġkre":6748,"Ġcastle":6749,"Ġjocke":6750,"Ġabril":6751,"Ġmolo":6752,"Ġmother":6753,"Ġplanes":6754,"Ġdoes":6755,"rena":6756,"Ġsays":6757,"Ġpareciendo":6758,"Ġminima":6759,"Ġmontado":6760,"Ġhome":6761,"Ġpesado":6762,"Ġbusco":6763,"Ġharan":6764,"Ġtranquila":6765,"Ġmalote":6766,"Ġnecesaria":6767,"Ġcerrado":6768,"grafias":6769,"Ġocurra":6770,"Ġtortu":6771,"Ġempezado":6772,"Ġlimita":6773,"Ġpiernas":6774,"Ġmensajes":6775,"Ġtrabajar":6776,"Ġinforma":6777,"Ġenfrentarse":6778,"indel":6779,"Ġsimples":6780,"Ġpeligroso":6781,"Ġchulo":6782,"Ġleonardo":6783,"Ġlogrado":6784,"Ġbombar":6785,"Ġsuicidarse":6786,"piracion":6787,"Ġdescoj":6788,"Ġmagnifica":6789,"Ġencerrado":6790,"Ġmultip":6791,"Ġascensor":6792,"Ġaterri":6793,"Ġpesadilla":6794,"Ġmagistral":6795,"Ġsimbolo":6796,"68":6797,"idor":6798,"sday":6799,"Ġpur":6800,"Ġazo":6801,"arch":6802,"Ġmetan":6803,"lados":6804,"Ġcontada":6805,"Ġalso":6806,"Ġpelin":6807,"poder":6808,"andole":6809,"abas":6810,"emente":6811,"Ġvera":6812,"Ġveras":6813,"uentes":6814,"Ġhabrian":6815,"Ġtienda":6816,"Ġcafe":6817,"Ġkir":6818,"Ġmalisima":6819,"Ġpegando":6820,"Ġpuneta":6821,"less":6822,"Ġincons":6823,"Ġdecirle":6824,"Ġquieran":6825,"Ġ67":6826,"Ġ03":6827,"Ġbola":6828,"Ġmoria":6829,"Ġinfum":6830,"risto":6831,"trarse":6832,"Ġupon":6833,"tions":6834,"Ġcomentas":6835,"Ġ2018":6836,"Ġtonta":6837,"Ġnecesito":6838,"Ġentretener":6839,"Ġ2006":6840,"Ġviaja":6841,"Ġalejan":6842,"Ġpierna":6843,"Ġentrado":6844,"Ġdespier":6845,"Ġcruise":6846,"Ġescucha":6847,"Ġcomunic":6848,"Ġaceptar":6849,"Ġplanteamiento":6850,"Ġpolitica":6851,"Ġcloverfield":6852,"Ġadop":6853,"Ġrebelde":6854,"Ġapunta":6855,"Ġinfectados":6856,"Ġextremo":6857,"ppy":6858,"Ġcrack":6859,"Ġbromas":6860,"Ġdescojon":6861,"Ġsupervivencia":6862,"Ġparadoja":6863,"Ġprincesa":6864,"Ġculpable":6865,"Ġwakanda":6866,"Ġjungla":6867,"bido":6868,"cri":6869,"iores":6870,"Ġdjan":6871,"Ġlord":6872,"Ġquer":6873,"inados":6874,"Ġender":6875,"Ġbucle":6876,"ismos":6877,"Ġseis":6878,"later":6879,"ladas":6880,"Ġconan":6881,"Ġou":6882,"Ġperdiendo":6883,"amar":6884,"Ġdesf":6885,"tria":6886,"Ġantena":6887,"emon":6888,"Ġthomas":6889,"Ġmike":6890,"Ġexceso":6891,"Ġmaf":6892,"Ġmuchisimas":6893,"Ġsaltando":6894,"deras":6895,"Ġpaste":6896,"Ġcatw":6897,"Ġmanhat":6898,"Ġresta":6899,"Ġrespuestas":6900,"tty":6901,"Ġdistri":6902,"Ġreally":6903,"Ġincon":6904,"Ġinfo":6905,"Ġconocia":6906,"Ġepilo":6907,"Ġbardem":6908,"Ġfijas":6909,"Ġjeff":6910,"Ġdiferen":6911,"Ġwhite":6912,"Ġcaptura":6913,"Ġadaman":6914,"Ġguardia":6915,"Ġbajas":6916,"Ġentrando":6917,"Ġtesoro":6918,"Ġespectaculares":6919,"Ġwalter":6920,"Ġxddddddd":6921,"Ġxddddddddddddd":6922,"Ġrebeldes":6923,"Ġexplotar":6924,"Ġfactor":6925,"Ġlagrimas":6926,"Ġextraterrestre":6927,"Ġhitch":6928,"Ġcambiando":6929,"Ġexcesivamente":6930,"Ġhambre":6931,"Ġvideojuego":6932,"Ġbusqueda":6933,"Ġvoluntad":6934,"Ġvestuario":6935,"Ġgoogle":6936,"Ġsoldier":6937,"Ġdjango":6938,"Ġmanhattan":6939,"76":6940,"disima":6941,"eg":6942,"http":6943,"Ġeuros":6944,"Ġsn":6945,"Ġsara":6946,"Ġcele":6947,"Ġdedo":6948,"Ġdedos":6949,"Ġhorm":6950,"undo":6951,"Ġentro":6952,"Ġfighter":6953,"Ġbi":6954,"Ġgwen":6955,"Ġalan":6956,"Ġperm":6957,"Ġrevel":6958,"Ġlevi":6959,"Ġjan":6960,"Ġdespa":6961,"tudes":6962,"Ġvete":6963,"Ġpasas":6964,"Ġmalisimo":6965,"Ġchicos":6966,"Ġarnol":6967,"Ġreser":6968,"Ġinterac":6969,"Ġsupera":6970,"Ġmontar":6971,"Ġ05":6972,"Ġbow":6973,"Ġtermine":6974,"Ġonir":6975,"Ġbarrio":6976,"Ġhoriz":6977,"Ġfijado":6978,"Ġtaxi":6979,"Ġpapelon":6980,"Ġsensaciones":6981,"Ġguarda":6982,"Ġborda":6983,"Ġbelleza":6984,"Ġtemporales":6985,"reras":6986,"Ġsobrevive":6987,"Ġflipadas":6988,"Ġteseracto":6989,"Ġilusion":6990,"Ġeddie":6991,"Ġguardians":6992,"Ġtecnicamente":6993,"Ġescope":6994,"Ġrecuperar":6995,"Ġchorrada":6996,"Ġaguantar":6997,"Ġparticip":6998,"Ġperiod":6999,"Ġcachon":7000,"Ġdream":7001,"Ġdoomsday":7002,"Ġbritan":7003,"Ġinvestigacion":7004,"Ġsoledad":7005,"Ġnecesitan":7006,"Ġlabora":7007,"Ġinstituto":7008,"Ġbazofia":7009,"Ġjessica":7010,"Ġanthony":7011,"Ġcatwoman":7012,"81":7013,"bamos":7014,"Ġple":7015,"Ġses":7016,"Ġcita":7017,"Ġmv":7018,"ene":7019,"Ġvimos":7020,"icano":7021,"Ġmex":7022,"Ġger":7023,"Ġgib":7024,"Ġcomico":7025,"Ġcomiendo":7026,"Ġretor":7027,"Ġrequi":7028,"ecdo":7029,"Ġled":7030,"ulas":7031,"Ġmaten":7032,"Ġcrepus":7033,"Ġtengas":7034,"Ġmuchisima":7035,"Ġcour":7036,"Ġtie":7037,"Ġtipos":7038,"Ġvisiones":7039,"Ġbasta":7040,"Ġllegada":7041,"Ġcarac":7042,"Ġrecons":7043,"Ġsabria":7044,"Ġninas":7045,"Ġ49":7046,"Ġ07":7047,"Ġrigh":7048,"Ġinside":7049,"Ġocurri":7050,"Ġbestial":7051,"Ġkyle":7052,"Ġgustara":7053,"Ġanteriormente":7054,"Ġorigenes":7055,"Ġgargan":7056,"Ġ1997":7057,"Ġvirgen":7058,"Ġfolla":7059,"Ġsecreta":7060,"Ġcharlie":7061,"Ġfreeman":7062,"Ġburton":7063,"Ġpuntazo":7064,"Ġquitado":7065,"Ġjajajajaj":7066,"Ġcontemp":7067,"cindible":7068,"Ġprovoca":7069,"wald":7070,"Ġmotivaciones":7071,"Ġdrive":7072,"Ġdepende":7073,"Ġmodelo":7074,"Ġagradece":7075,"Ġpalomitera":7076,"Ġgyllen":7077,"Ġlynch":7078,"Ġmatrimon":7079,"Ġlluvia":7080,"Ġlaberinto":7081,"Ġarnold":7082,"dientes":7083,"yy":7084,"Ġea":7085,"Ġet":7086,"Ġpista":7087,"Ġpaja":7088,"Ġduer":7089,"Ġcran":7090,"Ġcep":7091,"Ġquejas":7092,"Ġlady":7093,"icios":7094,"Ġfull":7095,"Ġconse":7096,"Ġallen":7097,"Ġparas":7098,"Ġcoma":7099,"Ġmasa":7100,"Ġlet":7101,"Ġsolos":7102,"Ġpozo":7103,"dita":7104,"Ġcago":7105,"Ġviste":7106,"Ġcharla":7107,"Ġninja":7108,"Ġexpon":7109,"Ġparecian":7110,"Ġhip":7111,"ianos":7112,"Ġmind":7113,"Ġconsigo":7114,"Ġcanta":7115,"avera":7116,"haal":7117,"Ġpresion":7118,"teriores":7119,"Ġtontos":7120,"Ġgot":7121,"izaciones":7122,"Ġjedis":7123,"lone":7124,"Ġcomplejo":7125,"Ġtendrian":7126,"Ġnormales":7127,"Ġedito":7128,"Ġmillon":7129,"Ġdecepcionante":7130,"Ġmadrid":7131,"Ġrusos":7132,"Ġsimilares":7133,"Ġpremisa":7134,"Ġperdona":7135,"Ġcaballeros":7136,"Ġconstruir":7137,"Ġabrams":7138,"Ġrocky":7139,"Ġposteriormente":7140,"Ġdomingo":7141,"Ġdesgracia":7142,"Ġborracho":7143,"Ġdesastre":7144,"Ġgrabacion":7145,"Ġaquaman":7146,"Ġpsiquia":7147,"Ġcombustible":7148,"Ġhermione":7149,"84":7150,"bac":7151,"ou":7152,"zy":7153,"Ġpillo":7154,"Ġstra":7155,"ander":7156,"Ġtig":7157,"Ġhuel":7158,"Ġvino":7159,"Ġunicos":7160,"rap":7161,"lett":7162,"amer":7163,"Ġinmen":7164,"Ġdespi":7165,"Ġanecdo":7166,"Ġvery":7167,"Ġverle":7168,"dador":7169,"Ġmila":7170,"Ġtiri":7171,"Ġsonar":7172,"Ġsonando":7173,"iedad":7174,"Ġkid":7175,"Ġarca":7176,"Ġradia":7177,"Ġguy":7178,"Ġpendiente":7179,"Ġexpresion":7180,"Ġpuestos":7181,"Ġinterna":7182,"Ġcoron":7183,"Ġnews":7184,"ked":7185,"Ġparecida":7186,"Ġfilme":7187,"tillas":7188,"Ġcuentas":7189,"Ġusted":7190,"tional":7191,"Ġbeen":7192,"Ġfail":7193,"Ġwarner":7194,"Ġestupen":7195,"Ġfire":7196,"Ġtake":7197,"Ġdigan":7198,"Ġtrabaja":7199,"Ġentere":7200,"Ġfavoritos":7201,"Ġdramatico":7202,"Ġreferia":7203,"Ġquedaria":7204,"Ġexistir":7205,"Ġdestaca":7206,"Ġcurrado":7207,"Ġaprov":7208,"Ġflipada":7209,"Ġgreat":7210,"Ġenfrenta":7211,"Ġensenan":7212,"Ġsentimen":7213,"Ġaprender":7214,"Ġrebelion":7215,"Ġtecnica":7216,"Ġequivocado":7217,"Ġcriaturas":7218,"Ġamanecer":7219,"puta":7220,"Ġadulto":7221,"Ġjustificar":7222,"Ġreligion":7223,"Ġresponsable":7224,"Ġwilliam":7225,"Ġexplique":7226,"Ġpotencial":7227,"Ġimitation":7228,"Ġhoffman":7229,"Ġincapaz":7230,"Ġnicolas":7231,"Ġinfumable":7232,"Ġepilogo":7233,"Ġhitchcock":7234,"Ġcaracteri":7235,"Ġgyllenhaal":7236,"bur":7237,"hing":7238,"ique":7239,"ls":7240,"nacion":7241,"sible":7242,"Ġuc":7243,"Ġome":7244,"Ġair":7245,"Ġcros":7246,"tagon":7247,"icto":7248,"Ġball":7249,"Ġalita":7250,"Ġodi":7251,"Ġreti":7252,"Ġtoo":7253,"andolo":7254,"Ġcum":7255,"Ġcuya":7256,"Ġlegen":7257,"Ġjj":7258,"Ġmitica":7259,"Ġexig":7260,"Ġtraer":7261,"Ġcohe":7262,"Ġmania":7263,"Ġcarpen":7264,"Ġrodado":7265,"Ġmartha":7266,"Ġdisgus":7267,"Ġpavo":7268,"Ġcort":7269,"Ġnever":7270,"Ġapos":7271,"Ġmone":7272,"Ġ06":7273,"Ġvolvio":7274,"Ġtoman":7275,"Ġbarbar":7276,"Ġisland":7277,"Ġfuneral":7278,"Ġwhe":7279,"Ġplata":7280,"Ġtendre":7281,"Ġdesagra":7282,"Ġderecha":7283,"Ġpiensan":7284,"Ġpreciosa":7285,"Ġdecepciono":7286,"Ġpiedras":7287,"Ġcivilizacion":7288,"Ġsurre":7289,"Ġenfermo":7290,"Ġintroducir":7291,"Ġpobres":7292,"Ġpsicologico":7293,"Ġclooney":7294,"Ġrevienta":7295,"Ġcinematogra":7296,"Ġinvestigar":7297,"Ġagentes":7298,"Ġrevisionado":7299,"Ġsubtitulos":7300,"Ġsubtitulada":7301,"Ġresponsabilidad":7302,"Ġinvol":7303,"Ġconsiguio":7304,"Ġcuchillo":7305,"Ġinesperado":7306,"Ġpopular":7307,"Ġgladia":7308,"Ġfenomen":7309,"Ġfranquicia":7310,"Ġcarpenter":7311,"75":7312,"aut":7313,"cor":7314,"com":7315,"disimo":7316,"gad":7317,"pic":7318,"rente":7319,"arias":7320,"ini":7321,"ess":7322,"Ġbit":7323,"ison":7324,"Ġhate":7325,"Ġhagas":7326,"Ġhacien":7327,"Ġlobos":7328,"Ġcomis":7329,"Ġperci":7330,"Ġperman":7331,"Ġreto":7332,"Ġinno":7333,"tium":7334,"Ġmaster":7335,"Ġveria":7336,"Ġextin":7337,"Ġproce":7338,"Ġass":7339,"Ġteam":7340,"Ġveh":7341,"Ġrosa":7342,"Ġimbe":7343,"acu":7344,"Ġchuck":7345,"Ġcosto":7346,"Ġrespec":7347,"Ġvag":7348,"Ġesperado":7349,"Ġcorrespon":7350,"Ġnostal":7351,"Ġnacido":7352,"Ġobten":7353,"Ġopciones":7354,"Ġguiones":7355,"tona":7356,"Ġemple":7357,"Ġempece":7358,"Ġtalento":7359,"Ġcomentan":7360,"Ġbeing":7361,"Ġjuan":7362,"Ġjugado":7363,"Ġconfun":7364,"Ġpintan":7365,"Ġpinzas":7366,"Ġanima":7367,"Ġvolvere":7368,"Ġciudades":7369,"Ġtemplo":7370,"Ġcruz":7371,"Ġhuele":7372,"Ġholmes":7373,"Ġenganar":7374,"Ġejercitos":7375,"Ġpiscina":7376,"Ġbreve":7377,"Ġgalaxy":7378,"ness":7379,"Ġjulian":7380,"Ġplena":7381,"Ġindepen":7382,"Ġcientifica":7383,"Ġdriver":7384,"Ġscarlett":7385,"Ġprecuelas":7386,"Ġdueno":7387,"Ġenvej":7388,"Ġarquitecto":7389,"Ġacademia":7390,"Ġhabilidades":7391,"Ġdiscusion":7392,"Ġinjus":7393,"Ġidioma":7394,"Ġamistad":7395,"Ġizquierda":7396,"Ġdistrito":7397,"Ġomega":7398,"62":7399,"64":7400,"hs":7401,"kins":7402,"nan":7403,"pin":7404,"tman":7405,"wan":7406,"ying":7407,"Ġeche":7408,"Ġlon":7409,"Ġaki":7410,"Ġcia":7411,"Ġladr":7412,"Ġyon":7413,"tazos":7414,"Ġune":7415,"Ġfl":7416,"Ġfoo":7417,"Ġfeo":7418,"Ġbrian":7419,"laciones":7420,"Ġconcen":7421,"imas":7422,"Ġtok":7423,"Ġdeseo":7424,"trices":7425,"Ġwant":7426,"igas":7427,"Ġmaz":7428,"Ġquiso":7429,"Ġrin":7430,"Ġresolu":7431,"Ġventa":7432,"Ġimpec":7433,"Ġ52":7434,"Ġdosis":7435,"Ġacabas":7436,"Ġoctu":7437,"Ġvalen":7438,"Ġbailando":7439,"trans":7440,"Ġmerito":7441,"Ġblablabla":7442,"Ġmagico":7443,"Ġversiones":7444,"Ġatrapado":7445,"Ġataca":7446,"Ġjackie":7447,"Ġdramatica":7448,"Ġmolaria":7449,"Ġhice":7450,"Ġabsoluta":7451,"Ġprofunda":7452,"Ġgritos":7453,"Ġincluir":7454,"Ġaprox":7455,"Ġpictures":7456,"Ġguapo":7457,"Ġveais":7458,"culos":7459,"Ġresistance":7460,"Ġvincent":7461,"Ġnazi":7462,"Ġdemonios":7463,"Ġenfoque":7464,"Ġmatthe":7465,"Ġgeneracion":7466,"Ġalternativo":7467,"Ġexpliquen":7468,"Ġtranscurre":7469,"Ġredonda":7470,"Ġstallone":7471,"Ġcomunicacion":7472,"abeth":7473,"Ġlawren":7474,"Ġthink":7475,"Ġtolk":7476,"Ġsatisfecho":7477,"bacca":7478,"61":7479,"72":7480,"92":7481,"far":7482,"madas":7483,"nal":7484,"spo":7485,"we":7486,"Ġdal":7487,"Ġcrow":7488,"Ġdepar":7489,"Ġmam":7490,"queta":7491,"aser":7492,"Ġtell":7493,"Ġny":7494,"Ġvib":7495,"Ġviento":7496,"Ġhack":7497,"ilas":7498,"Ġparis":7499,"Ġoir":7500,"leto":7501,"Ġmasac":7502,"quin":7503,"Ġverlas":7504,"igma":7505,"Ġaso":7506,"Ġricos":7507,"Ġpasable":7508,"Ġtrage":7509,"Ġcaiga":7510,"Ġpuedas":7511,"Ġcostado":7512,"Ġarru":7513,"Ġits":7514,"Ġjohan":7515,"Ġdispon":7516,"Ġorien":7517,"Ġdudar":7518,"Ġimpre":7519,"Ġcorea":7520,"Ġfalle":7521,"Ġfalsa":7522,"Ġcierre":7523,"Ġrian":7524,"Ġespejo":7525,"Ġllevando":7526,"Ġbateria":7527,"Ġonline":7528,"Ġimportan":7529,"Ġjeje":7530,"Ġpequenas":7531,"Ġfantasticos":7532,"Ġcuerpos":7533,"Ġrecuerde":7534,"Ġdecor":7535,"Ġaburre":7536,"Ġproyecciones":7537,"Ġblanca":7538,"Ġchristian":7539,"Ġtiroteo":7540,"Ġrevie":7541,"Ġinfectado":7542,"Ġphp":7543,"Ġlevantar":7544,"Ġdesear":7545,"Ġreventar":7546,"Ġwow":7547,"Ġadultos":7548,"Ġjarvis":7549,"Ġgrindel":7550,"Ġaplaud":7551,"Ġesclavi":7552,"Ġcliff":7553,"Ġchewbacca":7554,"Ġadiv":7555,"Ġimprovis":7556,"Ġgosling":7557,"Ġlaboratorio":7558,"Ġright":7559,"Ġmatthew":7560,"Ġlawrence":7561,"Ġtolkien":7562,"85":7563,"95":7564,"brar":7565,"dran":7566,"dilla":7567,"giendo":7568,"uz":7569,"vh":7570,"Ġue":7571,"Ġlum":7572,"enar":7573,"ence":7574,"Ġquedando":7575,"Ġquedara":7576,"Ġts":7577,"Ġtib":7578,"Ġester":7579,"oras":7580,"Ġvose":7581,"cir":7582,"Ġfly":7583,"Ġparra":7584,"Ġour":7585,"Ġcomente":7586,"Ġregen":7587,"Ġretur":7588,"Ġinmedia":7589,"abo":7590,"Ġjig":7591,"Ġdesac":7592,"cop":7593,"Ġprologo":7594,"Ġasomb":7595,"ders":7596,"Ġcoen":7597,"Ġcobar":7598,"Ġtias":7599,"Ġmanif":7600,"Ġiw":7601,"Ġcarrie":7602,"Ġdais":7603,"Ġformar":7604,"Ġpatas":7605,"Ġhacerla":7606,"Ġimplica":7607,"Ġcortan":7608,"Ġcortes":7609,"Ġaplas":7610,"Ġincor":7611,"Ġvolvi":7612,"Ġdent":7613,"Ġpodriamos":7614,"Ġjustamente":7615,"Ġsharon":7616,"Ġrecordando":7617,"Ġocurren":7618,"eph":7619,"Ġregalo":7620,"idores":7621,"Ġjohnny":7622,"Ġfavorito":7623,"Ġprincipalmente":7624,"Ġmicro":7625,"Ġgrito":7626,"Ġnuestras":7627,"Ġmurray":7628,"Ġcontac":7629,"Ġindifer":7630,"Ġconfirma":7631,"Ġfrien":7632,"Ġcirculo":7633,"Ġreconozco":7634,"Ġdoctora":7635,"Ġenamora":7636,"Ġentiendes":7637,"Ġspot":7638,"istente":7639,"Ġfriki":7640,"Ġanalizar":7641,"Ġsolitario":7642,"Ġtransforma":7643,"Ġmuneco":7644,"Ġkaiju":7645,"Ġgravity":7646,"Ġapete":7647,"Ġcircunstancias":7648,"Ġastronau":7649,"Ġoctubre":7650,"02":7651,"73":7652,"eja":7653,"gie":7654,"ius":7655,"Ġecon":7656,"Ġplu":7657,"Ġaden":7658,"Ġagos":7659,"Ġcena":7660,"erta":7661,"Ġmero":7662,"Ġmama":7663,"Ġhin":7664,"ict":7665,"Ġsemi":7666,"Ġgim":7667,"Ġodia":7668,"Ġporno":7669,"abamos":7670,"tiembre":7671,"Ġjur":7672,"Ġwild":7673,"Ġanto":7674,"Ġpole":7675,"Ġpoint":7676,"Ġsalgan":7677,"resas":7678,"Ġcateg":7679,"pez":7680,"Ġpersonales":7681,"Ġsony":7682,"Ġkra":7683,"Ġchild":7684,"Ġarena":7685,"Ġsenores":7686,"Ġjoa":7687,"Ġmovies":7688,"izados":7689,"Ġforrest":7690,"Ġpongan":7691,"Ġdog":7692,"Ġinterro":7693,"medio":7694,"Ġpostc":7695,"Ġnace":7696,"Ġinflu":7697,"Ġimages":7698,"Ġtomo":7699,"Ġcontradic":7700,"dura":7701,"Ġfaci":7702,"Ġbanco":7703,"Ġjuven":7704,"Ġcolum":7705,"Ġ2004":7706,"Ġ2005":7707,"Ġresulto":7708,"Ġuniversidad":7709,"Ġlimpi":7710,"Ġculto":7711,"Ġwey":7712,"Ġtipicas":7713,"Ġvideoc":7714,"Ġmenciona":7715,"Ġagres":7716,"Ġdescubren":7717,"Ġextraord":7718,"Ġobjeto":7719,"Ġnorton":7720,"Ġbrother":7721,"Ġbrown":7722,"Ġarrep":7723,"Ġvivido":7724,"Ġromantica":7725,"Ġadelan":7726,"Ġrescate":7727,"Ġestrenada":7728,"Ġmaravilloso":7729,"Ġindus":7730,"Ġmotivacion":7731,"Ġahorrado":7732,"Ġeuropa":7733,"Ġfemin":7734,"Ġequilibrio":7735,"Ġholograma":7736,"Ġeyes":7737,"Ġprofesional":7738,"Ġempatizar":7739,"Ġripley":7740,"Ġvictimas":7741,"Ġadamantium":7742,"03":7743,"74":7744,"camb":7745,"dante":7746,"fs":7747,"ific":7748,"jam":7749,"non":7750,"pal":7751,"Ġeva":7752,"Ġsad":7753,"uegos":7754,"erio":7755,"asion":7756,"Ġquem":7757,"Ġlad":7758,"Ġnovi":7759,"ram":7760,"Ġhappen":7761,"Ġglor":7762,"Ġguld":7763,"Ġparda":7764,"Ġsitu":7765,"usias":7766,"abel":7767,"Ġwri":7768,"Ġwit":7769,"igan":7770,"Ġprop":7771,"Ġhabran":7772,"Ġcredi":7773,"Ġrusa":7774,"Ġpastel":7775,"Ġpasaria":7776,"Ġtragar":7777,"Ġtradicion":7778,"Ġtrajes":7779,"Ġcotil":7780,"eracion":7781,"Ġvistas":7782,"Ġmaldito":7783,"Ġdick":7784,"Ġllegas":7785,"Ġraimi":7786,"Ġdonnie":7787,"Ġimplic":7788,"Ġparecieron":7789,"illon":7790,"Ġincong":7791,"Ġobl":7792,"Ġempatia":7793,"Ġsecta":7794,"Ġllave":7795,"Ġzas":7796,"Ġsubs":7797,"Ġwarlock":7798,"Ġcolin":7799,"Ġplato":7800,"Ġsorprender":7801,"Ġfischer":7802,"Ġacertado":7803,"Ġadaptar":7804,"Ġmolan":7805,"Ġescape":7806,"Ġmickey":7807,"Ġtrozos":7808,"Ġrecien":7809,"Ġrecibir":7810,"Ġmedias":7811,"Ġpelear":7812,"Ġantiguos":7813,"Ġrostro":7814,"Ġvampiro":7815,"Ġspots":7816,"Ġcriminal":7817,"Ġapareci":7818,"Ġadolescentes":7819,"Ġseptiembre":7820,"Ġnegativo":7821,"Ġvecino":7822,"Ġgesto":7823,"Ġpositivo":7824,"Ġtuvieron":7825,"play":7826,"Ġcaracteristicas":7827,"Ġestrellas":7828,"Ġrepublica":7829,"Ġexpedicion":7830,"Ġdescripcion":7831,"Ġeconom":7832,"Ġpostcre":7833,"Ġguldur":7834,"Ġincongr":7835,"05":7836,"08":7837,"09":7838,"nado":7839,"yu":7840,"zel":7841,"Ġethan":7842,"Ġplot":7843,"ars":7844,"Ġqueremos":7845,"inu":7846,"Ġeliz":7847,"Ġelfo":7848,"Ġvuelo":7849,"Ġunir":7850,"cita":7851,"Ġfon":7852,"Ġmelo":7853,"Ġcompe":7854,"amo":7855,"Ġinvisible":7856,"Ġintele":7857,"tito":7858,"Ġcubo":7859,"ridos":7860,"iria":7861,"Ġactiv":7862,"Ġescar":7863,"Ġserlo":7864,"Ġprom":7865,"Ġmain":7866,"Ġxmen":7867,"Ġcrei":7868,"Ġcould":7869,"Ġcagado":7870,"Ġentusias":7871,"Ġkat":7872,"Ġtanque":7873,"Ġmansion":7874,"ved":7875,"Ġdich":7876,"Ġhugh":7877,"Ġreclu":7878,"Ġsenora":7879,"Ġabier":7880,"Ġdejas":7881,"Ġ43":7882,"Ġdoug":7883,"timo":7884,"Ġconozco":7885,"Ġocta":7886,"Ġvaria":7887,"Ġvaliente":7888,"Ġdenun":7889,"donos":7890,"Ġrecordemos":7891,"Ġargumentos":7892,"Ġpinza":7893,"Ġkeaton":7894,"Ġgorda":7895,"Ġfrancia":7896,"Ġdisparan":7897,"Ġfisicamente":7898,"Ġfuncionan":7899,"bula":7900,"heim":7901,"Ġagrid":7902,"Ġexacto":7903,"Ġdescubriendo":7904,"Ġtrabajando":7905,"ducida":7906,"Ġrepresentacion":7907,"Ġgalac":7908,"Ġasesinatos":7909,"Ġflecha":7910,"Ġmanipula":7911,"Ġdiscutir":7912,"Ġdesaprovechado":7913,"Ġiluminacion":7914,"Ġalumnos":7915,"Ġandroide":7916,"Ġduele":7917,"Ġgallina":7918,"Ġseleccion":7919,"Ġdescojone":7920,"Ġinconsciente":7921,"Ġmatrimonio":7922,"Ġgladiator":7923,"Ġweyland":7924,"iqui":7925,"jada":7926,"jano":7927,"lia":7928,"mv":7929,"urio":7930,"vol":7931,"xd":7932,"Ġlv":7933,"Ġacierto":7934,"eran":7935,"Ġmmm":7936,"Ġesqu":7937,"ort":7938,"Ġhem":7939,"Ġhund":7940,"taje":7941,"este":7942,"racion":7943,"Ġfos":7944,"Ġsem":7945,"Ġconcep":7946,"Ġhappy":7947,"Ġole":7948,"Ġtodd":7949,"tif":7950,"Ġleg":7951,"ieras":7952,"Ġacero":7953,"toso":7954,"dadas":7955,"Ġvein":7956,"sed":7957,"Ġcoco":7958,"Ġamen":7959,"Ġsabian":7960,"lard":7961,"tton":7962,"Ġsenales":7963,"Ġsentia":7964,"Ġpapa":7965,"Ġ54":7966,"bed":7967,"Ġdare":7968,"Ġ800":7969,"Ġ65":7970,"ned":7971,"Ġcalles":7972,"rosa":7973,"Ġdanny":7974,"Ġabsor":7975,"Ġmercen":7976,"Ġsaberlo":7977,"Ġuniversos":7978,"Ġderecho":7979,"Ġlineal":7980,"Ġinicia":7981,"Ġengancha":7982,"Ġgrie":7983,"Ġgritando":7984,"Ġdivertido":7985,"Ġjueves":7986,"Ġdolares":7987,"Ġcrisis":7988,"Ġridiculas":7989,"Ġsucedido":7990,"Ġsufrimiento":7991,"Ġsnow":7992,"Ġfascin":7993,"Ġfrus":7994,"Ġagrade":7995,"Ġmetafor":7996,"Ġrescatar":7997,"Ġbolsa":7998,"Ġfaceh":7999,"Ġpatrio":8000,"Ġeventos":8001,"Ġlengua":8002,"Ġausencia":8003,"Ġvideojuegos":8004,"Ġkaijus":8005,"Ġcercano":8006,"Ġfracaso":8007,"Ġcarcajada":8008,"Ġenormes":8009,"Ġquimica":8010,"Ġterreno":8011,"Ġrussell":8012,"Ġvacaciones":8013,"Ġjigsaw":8014,"Ġagosto":8015,"Ġobliga":8016,"pres":8017,"ude":8018,"yl":8019,"Ġsj":8020,"Ġsosa":8021,"Ġawards":8022,"osicion":8023,"Ġquema":8024,"Ġhur":8025,"uniden":8026,"Ġnub":8027,"tamento":8028,"Ġunic":8029,"cientes":8030,"Ġbin":8031,"Ġbrid":8032,"Ġconas":8033,"Ġhaz":8034,"Ġcutres":8035,"Ġdesvel":8036,"Ġdestin":8037,"Ġdespre":8038,"trico":8039,"Ġacceso":8040,"Ġescuela":8041,"Ġpropie":8042,"Ġquot":8043,"Ġgustando":8044,"Ġcobra":8045,"cat":8046,"Ġsong":8047,"Ġvacia":8048,"izan":8049,"Ġrealizacion":8050,"Ġ44":8051,"Ġimplan":8052,"Ġ500":8053,"Ġcampe":8054,"Ġsuponer":8055,"Ġcalvo":8056,"Ġpoderosos":8057,"Ġpalom":8058,"Ġherido":8059,"Ġllame":8060,"Ġbuscado":8061,"Ġtomado":8062,"Ġbarry":8063,"aaa":8064,"Ġinstin":8065,"Ġtarda":8066,"Ġenteras":8067,"Ġfutura":8068,"Ġplacer":8069,"Ġestadouniden":8070,"Ġmost":8071,"Ġromp":8072,"Ġcompartir":8073,"Ġcriticos":8074,"Ġescribe":8075,"Ġlanzar":8076,"Ġepisodios":8077,"mons":8078,"Ġtopicos":8079,"mmer":8080,"Ġrefleja":8081,"Ġoscars":8082,"Ġfast":8083,"Ġcharles":8084,"Ġfurgon":8085,"Ġpremio":8086,"Ġimpactante":8087,"hhhh":8088,"Ġsuppor":8089,"Ġdesconocido":8090,"Ġapreciar":8091,"Ġfamosa":8092,"Ġalucin":8093,"Ġfilosofia":8094,"Ġparanoia":8095,"Ġquisiera":8096,"Ġextremadamente":8097,"Ġcomprobar":8098,"Ġcumplir":8099,"Ġmoverse":8100,"Ġagain":8101,"Ġdefrauda":8102,"Ġparodia":8103,"Ġguantelete":8104,"Ġatrapados":8105,"Ġfundamen":8106,"Ġgrindelwald":8107,"Ġjoaquin":8108,"93":8109,"ax":8110,"fal":8111,"iro":8112,"mica":8113,"nel":8114,"pando":8115,"ral":8116,"rones":8117,"udas":8118,"viendo":8119,"Ġeg":8120,"Ġpy":8121,"Ġpajas":8122,"Ġlond":8123,"Ġstop":8124,"Ġdele":8125,"Ġhil":8126,"Ġyu":8127,"tables":8128,"Ġvilla":8129,"cif":8130,"Ġseven":8131,"Ġmelan":8132,"Ġalco":8133,"Ġalturas":8134,"Ġreli":8135,"ami":8136,"chada":8137,"Ġjen":8138,"adisimo":8139,"Ġsolar":8140,"Ġwins":8141,"Ġandar":8142,"tanos":8143,"terna":8144,"Ġthing":8145,"Ġthings":8146,"Ġcreadores":8147,"Ġsaltan":8148,"Ġsaliera":8149,"Ġriendo":8150,"Ġtraduccion":8151,"urs":8152,"Ġbuenisimo":8153,"Ġvisita":8154,"Ġimpo":8155,"Ġkim":8156,"Ġark":8157,"Ġhuida":8158,"Ġamp":8159,"Ġsobreval":8160,"Ġrober":8161,"Ġrocke":8162,"Ġjodio":8163,"Ġdisci":8164,"Ġtuviese":8165,"Ġsagas":8166,"book":8167,"Ġconsum":8168,"Ġprincipi":8169,"Ġvoto":8170,"ooo":8171,"Ġhombro":8172,"Ġtalia":8173,"guez":8174,"Ġfake":8175,"Ġcerdo":8176,"Ġponerlo":8177,"Ġdeberias":8178,"Ġsalvando":8179,"Ġvietn":8180,"Ġedificios":8181,"Ġcometido":8182,"Ġdejarlo":8183,"Ġtipicos":8184,"Ġclavado":8185,"Ġordenes":8186,"Ġpiezas":8187,"Ġdestruido":8188,"Ġmencionado":8189,"Ġllamaba":8190,"Ġapoyo":8191,"Ġdescubierto":8192,"Ġpaisajes":8193,"Ġgarras":8194,"Ġobjetos":8195,"Ġsuficientes":8196,"Ġtrabajado":8197,"Ġpolitico":8198,"Ġrush":8199,"Ġdefensa":8200,"Ġnarracion":8201,"Ġsomething":8202,"Ġwoods":8203,"Ġjaponesa":8204,"Ġhitler":8205,"Ġomg":8206,"shine":8207,"Ġdificul":8208,"Ġcomportamiento":8209,"Ġcelda":8210,"Ġsatisfac":8211,"Ġutilizan":8212,"Ġtunel":8213,"Ġenveje":8214,"Ġlicencias":8215,"Ġeducacion":8216,"Ġcoreano":8217,"fantas":8218,"Ġrodriguez":8219,"Ġsinsentido":8220,"Ġgibson":8221,"Ġimpecable":8222,"Ġpostcreditos":8223,"Ġagridulce":8224,"Ġvietnam":8225,"dge":8226,"Ġafic":8227,"onas":8228,"anti":8229,"Ġquemar":8230,"Ġhell":8231,"tato":8232,"damos":8233,"raw":8234,"isto":8235,"ienda":8236,"Ġaltas":8237,"Ġalmen":8238,"Ġreese":8239,"ecom":8240,"chi":8241,"Ġcuidad":8242,"Ġweno":8243,"Ġescarla":8244,"Ġprogres":8245,"Ġvivi":8246,"Ġrico":8247,"Ġcoca":8248,"Ġtitu":8249,"Ġbienven":8250,"Ġhans":8251,"Ġradic":8252,"Ġmargen":8253,"Ġmarty":8254,"Ġentrevis":8255,"Ġ53":8256,"Ġsaque":8257,"Ġgratis":8258,"Ġnacimiento":8259,"Ġdecirte":8260,"Ġcabos":8261,"Ġ84":8262,"Ġ66":8263,"Ġemer":8264,"Ġpensamiento":8265,"Ġuse":8266,"Ġbah":8267,"Ġbuscan":8268,"Ġtranquil":8269,"Ġshut":8270,"Ġsorry":8271,"Ġfije":8272,"Ġwatchmen":8273,"Ġdiferencias":8274,"Ġwhy":8275,"Ġ2003":8276,"Ġsalvado":8277,"Ġtiron":8278,"Ġclasicos":8279,"Ġhablaba":8280,"Ġfloj":8281,"Ġcruda":8282,"Ġrebus":8283,"Ġpretenden":8284,"Ġflipando":8285,"Ġtribu":8286,"Ġfred":8287,"Ġrose":8288,"Ġdesencad":8289,"Ġanadido":8290,"Ġlists":8291,"Ġaprendi":8292,"pirar":8293,"Ġnarrativa":8294,"Ġzapa":8295,"Ġinnecesario":8296,"Ġdesaparecido":8297,"Ġanciano":8298,"Ġdilema":8299,"Ġengine":8300,"Ġhumil":8301,"Ġinfluencia":8302,"Ġsobresaliente":8303,"Ġpseudo":8304,"Ġsubnormal":8305,"Ġreconstru":8306,"Ġucm":8307,"Ġcortometraje":8308,"Ġfacehug":8309,"Ġlondres":8310,"Ġaficion":8311,"Ġescarlata":8312,"ache":8313,"bes":8314,"caba":8315,"eza":8316,"gorn":8317,"iff":8318,"pana":8319,"reros":8320,"sho":8321,"tue":8322,"ux":8323,"Ġef":8324,"Ġeta":8325,"Ġeras":8326,"Ġpistas":8327,"Ġaway":8328,"Ġclan":8329,"Ġmj":8330,"Ġname":8331,"inaria":8332,"Ġente":8333,"Ġenlace":8334,"Ġunion":8335,"teos":8336,"teis":8337,"Ġalb":8338,"Ġsupuesta":8339,"iculos":8340,"Ġdesca":8341,"try":8342,"Ġwea":8343,"Ġwolver":8344,"Ġantagon":8345,"Ġacon":8346,"Ġdid":8347,"Ġxx":8348,"Ġyoung":8349,"Ġteaser":8350,"Ġquicks":8351,"Ġtrato":8352,"Ġcatas":8353,"Ġcaine":8354,"Ġcazar":8355,"Ġmalvado":8356,"Ġcasas":8357,"Ġhumo":8358,"Ġcare":8359,"Ġcarajo":8360,"Ġmejorcito":8361,"voir":8362,"Ġroca":8363,"Ġgump":8364,"Ġpenny":8365,"jea":8366,"Ġdogs":8367,"Ġhacerte":8368,"Ġgenes":8369,"Ġiran":8370,"Ġpodrias":8371,"ights":8372,"Ġformato":8373,"Ġlive":8374,"Ġdiaman":8375,"duciendo":8376,"Ġsubje":8377,"Ġbarcos":8378,"Ġfantastica":8379,"Ġraras":8380,"Ġdinam":8381,"Ġfrancis":8382,"Ġatacan":8383,"Ġflota":8384,"Ġnaran":8385,"Ġcontinuar":8386,"Ġemocionado":8387,"Ġvaso":8388,"Ġfelices":8389,"Ġgets":8390,"Ġmeteor":8391,"Ġincluyendo":8392,"Ġdiverti":8393,"wski":8394,"Ġwallace":8395,"Ġdirigido":8396,"Ġavance":8397,"Ġdestroza":8398,"Ġcuadro":8399,"warts":8400,"Ġreacciones":8401,"Ġinteligentes":8402,"Ġsombrero":8403,"Ġjesus":8404,"Ġvictima":8405,"Ġajus":8406,"Ġgalad":8407,"Ġblood":8408,"Ġsentirse":8409,"Ġenserio":8410,"Ġsacrific":8411,"Ġquinta":8412,"Ġderrotar":8413,"Ġconectar":8414,"Ġpublicos":8415,"Ġcliche":8416,"Ġsunshine":8417,"Ġfrancotira":8418,"Ġinferior":8419,"Ġyears":8420,"Ġsupervivientes":8421,"Ġcameos":8422,"Ġochen":8423,"Ġhawkeye":8424,"Ġharrison":8425,"Ġresident":8426,"Ġembarazada":8427,"Ġinevi":8428,"Ġaceler":8429,"Ġalejandro":8430,"Ġcrepusculo":8431,"Ġgarganta":8432,"Ġcaracterizacion":8433,"Ġresolucion":8434,"Ġtragedia":8435,"Ġladron":8436,"Ġcotillard":8437,"Ġelizabeth":8438,"04":8439,"78":8440,"82":8441,"94":8442,"ball":8443,"gues":8444,"ialmente":8445,"tta":8446,"ulado":8447,"zcan":8448,"Ġdus":8449,"Ġlor":8450,"Ġazar":8451,"Ġclos":8452,"une":8453,"Ġnudo":8454,"Ġnathan":8455,"rell":8456,"Ġbros":8457,"Ġconciencia":8458,"Ġalicia":8459,"Ġportman":8460,"Ġrese":8461,"Ġsupre":8462,"Ġsuyos":8463,"immer":8464,"deis":8465,"Ġtope":8466,"Ġmuuu":8467,"tane":8468,"tanas":8469,"Ġpotente":8470,"Ġactos":8471,"igeno":8472,"dades":8473,"Ġescala":8474,"Ġdivi":8475,"ulando":8476,"Ġprensa":8477,"Ġhablado":8478,"Ġmafia":8479,"Ġtratado":8480,"Ġimg":8481,"Ġmandan":8482,"Ġcartas":8483,"Ġpegas":8484,"Ġraiz":8485,"Ġencajar":8486,"Ġmovida":8487,"Ġmarcado":8488,"Ġpava":8489,"Ġmomentazo":8490,"Ġparedes":8491,"Ġvenden":8492,"lian":8493,"Ġminim":8494,"Ġandando":8495,"Ġseguia":8496,"Ġlesb":8497,"Ġherida":8498,"tcraw":8499,"Ġnecesitar":8500,"Ġtortura":8501,"Ġtormenta":8502,"Ġfama":8503,"Ġderri":8504,"Ġdisfruta":8505,"Ġaleja":8506,"Ġ1759":8507,"Ġlang":8508,"Ġdramatismo":8509,"Ġdespren":8510,"Ġengano":8511,"Ġdestacable":8512,"Ġpretenci":8513,"Ġrecomendacion":8514,"Ġaportan":8515,"Ġconocidos":8516,"Ġmisterios":8517,"Ġbilly":8518,"Ġdesperdic":8519,"Ġrebels":8520,"Ġrepite":8521,"Ġextranos":8522,"Ġchorradas":8523,"Ġdormido":8524,"Ġleccion":8525,"Ġwanda":8526,"Ġaclarar":8527,"Ġzod":8528,"Ġalcanzar":8529,"Ġaragorn":8530,"rrrr":8531,"Ġvuestro":8532,"Ġlimites":8533,"Ġmitologia":8534,"Ġinfiltrados":8535,"Ġmurphy":8536,"Ġocean":8537,"Ġpromocion":8538,"Ġnatalie":8539,"Ġsentimental":8540,"Ġhaciendose":8541,"Ġindependen":8542,"Ġpalomitas":8543,"Ġquicksil":8544,"Ġcatastro":8545,"Ġgaladriel":8546,"07":8547,"83":8548,"ato":8549,"dillo":8550,"fon":8551,"gin":8552,"hu":8553,"ough":8554,"well":8555,"xt":8556,"yd":8557,"Ġpum":8558,"Ġdara":8559,"Ġsoso":8560,"Ġaaron":8561,"Ġcuela":8562,"enberg":8563,"asis":8564,"anas":8565,"Ġquera":8566,"Ġtmb":8567,"Ġestro":8568,"Ġlagun":8569,"Ġhd":8570,"Ġenigma":8571,"eson":8572,"Ġfuc":8573,"Ġmej":8574,"Ġmetida":8575,"Ġgil":8576,"Ġodis":8577,"Ġoeste":8578,"Ġintim":8579,"Ġintegra":8580,"Ġlea":8581,"Ġsound":8582,"term":8583,"diese":8584,"Ġasis":8585,"Ġveter":8586,"Ġvease":8587,"Ġtheory":8588,"Ġtratando":8589,"urney":8590,"Ġbasico":8591,"Ġresplan":8592,"Ġmiser":8593,"Ġmistica":8594,"Ġcarib":8595,"Ġrayo":8596,"vidu":8597,"Ġmaria":8598,"Ġdato":8599,"Ġfore":8600,"Ġpaus":8601,"Ġpuzz":8602,"Ġorder":8603,"Ġrealizado":8604,"Ġlujo":8605,"Ġcortado":8606,"Ġneville":8607,"ket":8608,"Ġterri":8609,"Ġverdaderamente":8610,"Ġaparentemente":8611,"Ġgrabar":8612,"Ġincomo":8613,"Ġ820":8614,"siones":8615,"Ġcanal":8616,"Ġboda":8617,"its":8618,"ged":8619,"Ġmorgan":8620,"Ġub":8621,"Ġcalavera":8622,"Ġbailar":8623,"Ġcontrato":8624,"Ġshy":8625,"Ġambigu":8626,"Ġjet":8627,"Ġtrin":8628,"Ġvolveria":8629,"idora":8630,"Ġmirad":8631,"Ġentradas":8632,"Ġhostil":8633,"aks":8634,"Ġadaptado":8635,"Ġfacilidad":8636,"Ġexperto":8637,"Ġcontinuidad":8638,"Ġconsidera":8639,"Ġgritar":8640,"Ġsobrena":8641,"Ġdesconec":8642,"Ġbrook":8643,"Ġxdddddd":8644,"Ġsecretos":8645,"Ġkate":8646,"Ġmemorable":8647,"Ġindividu":8648,"Ġpelotas":8649,"Ġpicado":8650,"Ġnecesitaba":8651,"Ġstatham":8652,"uriel":8653,"Ġacorde":8654,"Ġsublim":8655,"Ġwater":8656,"Ġdesarrollado":8657,"Ġprovocar":8658,"Ġpublicidad":8659,"Ġalemanes":8660,"Ġdespedida":8661,"Ġformula":8662,"Ġescuchado":8663,"Ġdevuel":8664,"Ġresuelve":8665,"Ġduende":8666,"Ġretrasado":8667,"Ġinverosim":8668,"Ġjoseph":8669,"Ġreveal":8670,"Ġriesgo":8671,"Ġskrulls":8672,"Ġcoreografias":8673,"Ġcorridor":8674,"Ġoxigeno":8675,"Ġcorriente":8676,"Ġkree":8677,"Ġtranquilamente":8678,"Ġhorizonte":8679,"Ġintelec":8680,"Ġrocket":8681,"Ġwolverine":8682,"deces":8683,"ek":8684,"gor":8685,"melo":8686,"pton":8687,"sing":8688,"wise":8689,"Ġllan":8690,"ast":8691,"Ġquen":8692,"Ġtales":8693,"Ġtrio":8694,"Ġlam":8695,"Ġnich":8696,"Ġellio":8697,"Ġelige":8698,"cible":8699,"cialmente":8700,"Ġnotado":8701,"Ġporq":8702,"amalan":8703,"gol":8704,"Ġsociales":8705,"quia":8706,"eme":8707,"tarme":8708,"trada":8709,"Ġmaul":8710,"Ġcredito":8711,"Ġvital":8712,"Ġvean":8713,"Ġpasen":8714,"Ġpasion":8715,"seid":8716,"Ġtito":8717,"Ġtipa":8718,"Ġkh":8719,"Ġkick":8720,"Ġmaltra":8721,"Ġmalick":8722,"Ġrecon":8723,"Ġdistra":8724,"ize":8725,"Ġintercamb":8726,"Ġ59":8727,"Ġsuperar":8728,"Ġsatur":8729,"body":8730,"Ġcamera":8731,"Ġ75":8732,"Ġ08":8733,"Ġcalor":8734,"Ġpesima":8735,"Ġllevaban":8736,"Ġbeorn":8737,"Ġinsinu":8738,"Ġ127":8739,"Ġanimada":8740,"here":8741,"Ġseriedad":8742,"Ġdesaper":8743,"Ġemotivo":8744,"Ġclases":8745,"Ġdisparando":8746,"Ġdecadas":8747,"Ġbenjam":8748,"Ġsobraba":8749,"Ġborde":8750,"Ġquedaron":8751,"Ġtopica":8752,"Ġdiciendole":8753,"minis":8754,"Ġdarkseid":8755,"Ġwaltz":8756,"Ġacoj":8757,"Ġsostiene":8758,"Ġboss":8759,"Ġprepara":8760,"Ġconocida":8761,"Ġtremendamente":8762,"Ġquitarse":8763,"Ġprofundizar":8764,"Ġdurm":8765,"Ġataques":8766,"Ġantman":8767,"Ġskin":8768,"Ġesperanzas":8769,"cismo":8770,"Ġcansado":8771,"Ġresume":8772,"Ġenviar":8773,"Ġacompanado":8774,"Ġanuncio":8775,"Ġagradecer":8776,"Ġproducer":8777,"Ġpatrick":8778,"Ġawes":8779,"Ġchungo":8780,"Ġjuguetes":8781,"Ġxenomorfo":8782,"Ġcomputadora":8783,"Ġfeels":8784,"Ġnightcraw":8785,"Ġledger":8786,"Ġeature":8787,"Ġnostalgia":8788,"Ġnubes":8789,"Ġalcohol":8790,"Ġalmenos":8791,"Ġinevitable":8792,"Ġbenjamin":8793,"Ġnightcrawler":8794,"fes":8795,"itor":8796,"kas":8797,"ring":8798,"zi":8799,"Ġstri":8800,"Ġaro":8801,"Ġapuesta":8802,"Ġcm":8803,"Ġhall":8804,"Ġench":8805,"Ġnov":8806,"Ġfru":8807,"Ġfut":8808,"Ġfbi":8809,"lazo":8810,"Ġaliados":8811,"roc":8812,"Ġremem":8813,"Ġmuto":8814,"Ġmutante":8815,"Ġdelic":8816,"tip":8817,"Ġmascul":8818,"Ġletras":8819,"Ġdescif":8820,"Ġwick":8821,"Ġwell":8822,"Ġescas":8823,"Ġexcep":8824,"Ġmaking":8825,"Ġasc":8826,"Ġquitas":8827,"Ġcocina":8828,"Ġcazador":8829,"Ġmall":8830,"Ġchula":8831,"Ġcostum":8832,"Ġresur":8833,"voy":8834,"Ġroba":8835,"Ġmoun":8836,"Ġmarch":8837,"Ġforro":8838,"Ġforzada":8839,"Ġplana":8840,"Ġplanta":8841,"Ġdure":8842,"Ġdob":8843,"Ġapes":8844,"lip":8845,"lita":8846,"lito":8847,"Ġsay":8848,"ague":8849,"Ġvalido":8850,"Ġtomando":8851,"Ġzimmer":8852,"Ġtrasla":8853,"Ġsubmar":8854,"Ġship":8855,"Ġinspi":8856,"Ġestuviese":8857,"Ġtransicion":8858,"Ġnecesitas":8859,"Ġoriginalidad":8860,"Ġmercu":8861,"Ġtatu":8862,"Ġolvido":8863,"vidual":8864,"Ġcaps":8865,"Ġcaptur":8866,"Ġregal":8867,"Ġregul":8868,"Ġland":8869,"Ġpartiendo":8870,"Ġvestido":8871,"Ġescapan":8872,"Ġflipar":8873,"Ġimpresionantes":8874,"Ġvengador":8875,"Ġreciente":8876,"Ġapoy":8877,"Ġengana":8878,"Ġpaises":8879,"Ġwashing":8880,"Ġcristo":8881,"Ġ1999":8882,"Ġdesaparecer":8883,"Ġreflejo":8884,"Ġsurge":8885,"Ġindividual":8886,"Ġmantenido":8887,"Ġagradable":8888,"Ġchoca":8889,"Ġpremiere":8890,"Ġgraciosa":8891,"Ġspoile":8892,"Ġesconde":8893,"Ġrumbo":8894,"Ġstanley":8895,"Ġmagnifico":8896,"Ġmachina":8897,"Ġrodea":8898,"Ġcadaveres":8899,"Ġperdidos":8900,"Ġvuestros":8901,"Ġconsecuencia":8902,"Ġgames":8903,"Ġrevelacion":8904,"Ġsheriff":8905,"Ġglobal":8906,"Ġdetener":8907,"craft":8908,"Ġsuperficie":8909,"Ġsuperviviente":8910,"Ġpsycho":8911,"Ġservicio":8912,"Ġblockbuster":8913,"Ġnovelas":8914,"Ġkirk":8915,"Ġtiriri":8916,"Ġimbecil":8917,"Ġjuraria":8918,"Ġaprendiz":8919,"Ġquicksilver":8920,"Ġodisea":8921,"Ġresplandor":8922,"Ġpuzzle":8923,"Ġquentin":8924,"bran":8925,"bras":8926,"cs":8927,"km":8928,"sura":8929,"tte":8930,"uo":8931,"Ġues":8932,"Ġdl":8933,"Ġsla":8934,"Ġsle":8935,"Ġdepor":8936,"Ġyea":8937,"Ġvice":8938,"Ġfx":8939,"Ġble":8940,"Ġbadas":8941,"isi":8942,"Ġseas":8943,"Ġsearch":8944,"Ġmedic":8945,"Ġmemento":8946,"Ġperpe":8947,"Ġree":8948,"pola":8949,"Ġdescan":8950,"tary":8951,"Ġthumb":8952,"rano":8953,"Ġcreces":8954,"Ġsalgo":8955,"tasen":8956,"Ġsinte":8957,"Ġkry":8958,"Ġrestos":8959,"Ġix":8960,"Ġencen":8961,"Ġabe":8962,"Ġabren":8963,"Ġmarco":8964,"Ġmarciales":8965,"Ġdavis":8966,"Ġdonald":8967,"Ġveneno":8968,"Ġnebula":8969,"Ġterra":8970,"Ġaplic":8971,"lite":8972,"Ġposesion":8973,"Ġcable":8974,"Ġ76":8975,"Ġpensais":8976,"Ġrival":8977,"Ġinform":8978,"illado":8979,"Ġ92":8980,"ffalo":8981,"Ġze":8982,"nail":8983,"Ġpidiendo":8984,"Ġadver":8985,"rious":8986,"Ġaud":8987,"ception":8988,"Ġdance":8989,"Ġdebilidad":8990,"Ġsalvajes":8991,"Ġgif":8992,"Ġproductores":8993,"Ġflipa":8994,"Ġhicieran":8995,"Ġtrataba":8996,"Ġreferente":8997,"Ġsexto":8998,"Ġambientado":8999,"Ġpeleando":9000,"Ġgary":9001,"Ġsuceder":9002,"Ġplanteado":9003,"Ġdestroyer":9004,"Ġreconoce":9005,"Ġnewt":9006,"Ġmultitud":9007,"Ġmisterioso":9008,"Ġgraciosos":9009,"Ġspin":9010,"Ġchuache":9011,"Ġjulio":9012,"Ġbiologo":9013,"Ġamazon":9014,"Ġaguanta":9015,"Ġvolvera":9016,"Ġcolabor":9017,"Ġreunion":9018,"Ġrelevan":9019,"Ġrelevante":9020,"Ġobligado":9021,"Ġvecina":9022,"Ġsensible":9023,"Ġdesesperacion":9024,"Ġfijate":9025,"Ġproductora":9026,"Ġprostitu":9027,"Ġcoleccionista":9028,"Ġusuario":9029,"Ġayudante":9030,"Ġoscuros":9031,"Ġsamurai":9032,"Ġstormtroopers":9033,"Ġbrand":9034,"Ġreservoir":9035,"Ġreview":9036,"Ġesclavitud":9037,"Ġoctavo":9038,"Ġsupporting":9039,"Ġshyamalan":9040,"Ġdesaperci":9041,"Ġmercurio":9042,"bida":9043,"ecia":9044,"eke":9045,"ificacion":9046,"kr":9047,"pta":9048,"rum":9049,"sy":9050,"Ġpido":9051,"Ġpian":9052,"Ġsper":9053,"Ġaou":9054,"Ġcn":9055,"Ġmera":9056,"Ġestes":9057,"Ġlabor":9058,"tage":9059,"Ġenre":9060,"Ġelron":9061,"Ġvieron":9062,"Ġvuela":9063,"Ġbras":9064,"Ġbell":9065,"Ġgul":9066,"logos":9067,"Ġjol":9068,"Ġsocio":9069,"Ġdesh":9070,"Ġdesvan":9071,"Ġwel":9072,"Ġwright":9073,"Ġwmv":9074,"Ġanalo":9075,"Ġservir":9076,"Ġasim":9077,"Ġcreibles":9078,"ibal":9079,"Ġpasillo":9080,"Ġhux":9081,"Ġhugo":9082,"Ġcarece":9083,"Ġprima":9084,"Ġprimo":9085,"Ġpreviamente":9086,"Ġhanks":9087,"Ġmare":9088,"Ġmarzo":9089,"pace":9090,"Ġentretuvo":9091,"puestos":9092,"Ġost":9093,"quias":9094,"Ġsuperado":9095,"Ġneu":9096,"Ġneed":9097,"Ġapunto":9098,"Ġposters":9099,"Ġgratamente":9100,"Ġdarte":9101,"Ġ69":9102,"Ġbook":9103,"Ġllevas":9104,"Ġliar":9105,"Ġdirectora":9106,"Ġbrujas":9107,"Ġcomicos":9108,"Ġejem":9109,"Ġwarcraft":9110,"Ġdandose":9111,"Ġabstra":9112,"Ġcapital":9113,"Ġrefug":9114,"Ġvistazo":9115,"Ġcintas":9116,"Ġtauriel":9117,"Ġtorpe":9118,"Ġ2002":9119,"Ġencuentre":9120,"Ġmedioc":9121,"Ġguerras":9122,"Ġanimo":9123,"Ġplace":9124,"bby":9125,"Ġfuga":9126,"Ġlugares":9127,"Ġemotiva":9128,"Ġcuerda":9129,"inski":9130,"Ġcolegio":9131,"Ġinfinitamente":9132,"Ġpareceria":9133,"Ġenganchado":9134,"Ġbajando":9135,"Ġdefinicion":9136,"Ġsobrevivido":9137,"Ġfuesen":9138,"Ġtexto":9139,"Ġintroduce":9140,"Ġdestrozar":9141,"Ġ1980":9142,"Ġleyes":9143,"wart":9144,"ividad":9145,"Ġavisar":9146,"Ġconcretamente":9147,"Ġgemelos":9148,"Ġproximo":9149,"cista":9150,"Ġlectura":9151,"Ġfabrica":9152,"Ġarmaduras":9153,"Ġpatetica":9154,"Ġestupida":9155,"Ġexcesivo":9156,"Ġstudios":9157,"Ġselma":9158,"Ġazules":9159,"Ġgestos":9160,"Ġinnecesaria":9161,"Ġdisfrazado":9162,"Ġcampana":9163,"Ġnavidad":9164,"Ġbiblio":9165,"Ġpertenece":9166,"Ġrecomendaria":9167,"Ġperformed":9168,"Ġestuvieran":9169,"Ġwhedon":9170,"heimer":9171,"Ġunicorn":9172,"Ġreliquias":9173,"Ġawesome":9174,"Ġwashington":9175,"Ġbadass":9176,"ging":9177,"pren":9178,"Ġduras":9179,"Ġdeton":9180,"Ġdepp":9181,"Ġqueriendo":9182,"unda":9183,"inales":9184,"taban":9185,"Ġviera":9186,"Ġfenix":9187,"Ġmetes":9188,"Ġconcil":9189,"ience":9190,"Ġcomes":9191,"Ġcomando":9192,"Ġperdio":9193,"Ġreper":9194,"Ġsul":9195,"leo":9196,"chie":9197,"tig":9198,"Ġleto":9199,"ady":9200,"quiere":9201,"Ġwest":9202,"teras":9203,"Ġprohib":9204,"Ġmagos":9205,"doso":9206,"rantes":9207,"Ġrica":9208,"Ġpasaron":9209,"Ġcate":9210,"Ġcacho":9211,"aticos":9212,"Ġhuyendo":9213,"pit":9214,"Ġhand":9215,"Ġpedro":9216,"Ġabuso":9217,"Ġdejara":9218,"Ġorb":9219,"Ġsuperpoder":9220,"ficas":9221,"ficamente":9222,"Ġcompra":9223,"Ġconsciencia":9224,"Ġconstruccion":9225,"Ġiria":9226,"Ġhaberle":9227,"Ġ79":9228,"Ġcantando":9229,"Ġpoderosa":9230,"Ġllevara":9231,"Ġpalmar":9232,"Ġbeh":9233,"Ġmayo":9234,"Ġbang":9235,"Ġbanderas":9236,"gento":9237,"Ġcolmo":9238,"Ġcabezas":9239,"Ġpandora":9240,"Ġopinar":9241,"Ġpreguntando":9242,"Ġanother":9243,"Ġfantasmadas":9244,"Ġatom":9245,"Ġcritics":9246,"Ġpierda":9247,"Ġfish":9248,"Ġabsurdos":9249,"gidos":9250,"Ġstewart":9251,"Ġgollum":9252,"Ġfeb":9253,"Ġemocionante":9254,"Ġruffalo":9255,"Ġarmario":9256,"Ġfasti":9257,"Ġcharl":9258,"Ġayudan":9259,"Ġpulpo":9260,"Ġsimplon":9261,"Ġcumpleanos":9262,"Ġamericanada":9263,"Ġmolesto":9264,"Ġdescarga":9265,"Ġangelina":9266,"Ġacordar":9267,"Ġtristeza":9268,"Ġrecupera":9269,"Ġalmacen":9270,"Ġdestructor":9271,"Ġvalorar":9272,"Ġquinto":9273,"Ġapocalyp":9274,"Ġzodia":9275,"Ġarregla":9276,"Ġpreocup":9277,"Ġmanipular":9278,"Ġvigil":9279,"Ġleches":9280,"Ġvuestras":9281,"Ġencontramos":9282,"Ġfumada":9283,"Ġtdkr":9284,"Ġdirige":9285,"Ġartistica":9286,"Ġincoherencias":9287,"Ġmontanas":9288,"Ġconductor":9289,"Ġantonio":9290,"Ġasalto":9291,"Ġacceder":9292,"Ġaproxim":9293,"Ġdouglas":9294,"Ġrompiendo":9295,"Ġprincipios":9296,"Ġnaranja":9297,"cadas":9298,"gwarts":9299,"ivas":9300,"nic":9301,"op":9302,"plic":9303,"wolf":9304,"Ġev":9305,"Ġpfff":9306,"Ġlie":9307,"Ġsic":9308,"uelos":9309,"Ġacido":9310,"Ġcemen":9311,"enes":9312,"entos":9313,"Ġtry":9314,"Ġlater":9315,"ori":9316,"orrow":9317,"Ġvom":9318,"Ġnoches":9319,"Ġbry":9320,"Ġsecu":9321,"Ġconge":9322,"ames":9323,"Ġinception":9324,"Ġdelicia":9325,"tita":9326,"tiera":9327,"Ġestabamos":9328,"Ġanna":9329,"Ġpotato":9330,"Ġactrices":9331,"taran":9332,"Ġpropuesta":9333,"Ġassas":9334,"Ġtea":9335,"Ġpast":9336,"Ġheart":9337,"Ġcau":9338,"Ġkm":9339,"Ġmejorado":9340,"Ġsobreac":9341,"Ġprevio":9342,"Ġjoya":9343,"Ġdejaba":9344,"Ġdispuesto":9345,"Ġdiscul":9346,"Ġpenoso":9347,"Ġpune":9348,"Ġ400":9349,"Ġesperemos":9350,"Ġvencer":9351,"tices":9352,"poner":9353,"gramas":9354,"lix":9355,"Ġposte":9356,"Ġconserv":9357,"Ġopen":9358,"Ġopina":9359,"iesen":9360,"Ġsuponia":9361,"Ġcomentando":9362,"Ġdenzel":9363,"Ġepicas":9364,"Ġonce":9365,"Ġjug":9366,"Ġfijar":9367,"Ġsanto":9368,"Ġconfianza":9369,"Ġdebio":9370,"Ġfuturas":9371,"Ġmosque":9372,"Ġcomparado":9373,"Ġatta":9374,"Ġrecuerdan":9375,"Ġconvencional":9376,"Ġbenicio":9377,"Ġbutaca":9378,"Ġdespla":9379,"Ġescapado":9380,"Ġrapidamente":9381,"Ġshock":9382,"Ġatento":9383,"minu":9384,"Ġpersigu":9385,"face":9386,"Ġjuegan":9387,"Ġsuceden":9388,"Ġavanzada":9389,"Ġgrey":9390,"Ġinglesa":9391,"Ġensenando":9392,"Ġrasgos":9393,"indler":9394,"Ġcasualmente":9395,"Ġelectro":9396,"Ġrubio":9397,"Ġduros":9398,"Ġdescom":9399,"Ġamanda":9400,"Ġaparecido":9401,"Ġabandonado":9402,"Ġmonologo":9403,"Ġacompana":9404,"Ġterminan":9405,"Ġespaldas":9406,"Ġtransformacion":9407,"Ġtitanes":9408,"Ġrueda":9409,"Ġgeologo":9410,"Ġretrato":9411,"Ġusuarios":9412,"Ġsujeto":9413,"Ġalegria":9414,"Ġandrew":9415,"Ġsiniestro":9416,"Ġsnatch":9417,"Ġsarah":9418,"Ġlegendar":9419,"Ġplatafor":9420,"Ġindiferente":9421,"Ġhumilde":9422,"Ġfutbol":9423,"Ġelrond":9424,"Ġunicornio":9425,"ao":9426,"core":9427,"cables":9428,"fren":9429,"idon":9430,"mit":9431,"rien":9432,"sson":9433,"tten":9434,"vera":9435,"wer":9436,"zu":9437,"Ġadios":9438,"Ġacier":9439,"Ġcry":9440,"Ġmaj":9441,"enco":9442,"Ġyel":9443,"Ġvon":9444,"Ġunido":9445,"dada":9446,"Ġbron":9447,"Ġmed":9448,"Ġmean":9449,"Ġmetio":9450,"Ġhacemos":9451,"Ġlogro":9452,"Ġparale":9453,"Ġpelu":9454,"amp":9455,"lows":9456,"deza":9457,"Ġcurar":9458,"Ġace":9459,"Ġactiva":9460,"Ġacento":9461,"tualmente":9462,"toro":9463,"Ġsere":9464,"Ġprobar":9465,"Ġxk":9466,"gua":9467,"Ġsalas":9468,"Ġquite":9469,"Ġvegas":9470,"Ġtrae":9471,"Ġtrack":9472,"Ġcock":9473,"Ġcao":9474,"Ġcaga":9475,"Ġcayo":9476,"Ġkrip":9477,"Ġmisiles":9478,"Ġmejorar":9479,"Ġrobb":9480,"Ġrodando":9481,"Ġhaneke":9482,"Ġpepper":9483,"Ġrapace":9484,"Ġdistribu":9485,"Ġmoment":9486,"Ġplantas":9487,"Ġdecidio":9488,"Ġdecidir":9489,"Ġposteriores":9490,"Ġclaras":9491,"Ġ86":9492,"Ġemily":9493,"Ġcanto":9494,"Ġ09":9495,"Ġconoces":9496,"gueis":9497,"Ġheridas":9498,"Ġganan":9499,"Ġesplen":9500,"Ġcuantico":9501,"Ġjustice":9502,"Ġestudios":9503,"Ġtarje":9504,"Ġfila":9505,"Ġsand":9506,"Ġargumentales":9507,"Ġsimili":9508,"Ġadams":9509,"Ġllegara":9510,"Ġeditado":9511,"Ġcentrado":9512,"Ġalegra":9513,"fortun":9514,"Ġatraer":9515,"Ġbrave":9516,"Ġrobocop":9517,"Ġolvidaba":9518,"Ġdestruyendo":9519,"Ġhueco":9520,"Ġmedivh":9521,"ciela":9522,"Ġafron":9523,"Ġexplicarlo":9524,"Ġdescubri":9525,"Ġincluye":9526,"Ġmaravillas":9527,"Ġobjetivos":9528,"Ġhechizo":9529,"Ġdesaparicion":9530,"Ġmural":9531,"Ġtrabajos":9532,"Ġmemorias":9533,"Ġdestrozado":9534,"Ġciru":9535,"Ġconvierten":9536,"Ġmatanza":9537,"Ġswan":9538,"Ġaprende":9539,"Ġvivientes":9540,"Ġjesuc":9541,"Ġvictoria":9542,"Ġencargado":9543,"Ġapariciones":9544,"Ġaparecia":9545,"Ġtimes":9546,"Ġcraig":9547,"Ġgrandisima":9548,"Ġdinosaurio":9549,"Ġaprovechando":9550,"Ġtelefil":9551,"Ġreplicantes":9552,"Ġschindler":9553,"Ġdeprim":9554,"Ġinvad":9555,"Ġmanejar":9556,"Ġcumplido":9557,"Ġgamora":9558,"Ġtuvieran":9559,"Ġblogspo":9560,"Ġacuerda":9561,"Ġkilome":9562,"Ġhydra":9563,"Ġjordan":9564,"Ġadecuado":9565,"Ġsparrow":9566,"Ġmichelle":9567,"Ġpunetazo":9568,"Ġouts":9569,"Ġsurrealista":9570,"Ġinvoluc":9571,"Ġtokyo":9572,"Ġdecorados":9573,"Ġincongruen":9574,"Ġfurgoneta":9575,"Ġalucinante":9576,"Ġpennywise":9577,"Ġfrancotirador":9578,"Ġcaribe":9579,"Ġyeah":9580,"Ġthumbnail":9581,"Ġparalela":9582,"Ġkripton":9583,"Ġblogspot":9584,"eb":9585,"gul":9586,"jec":9587,"rin":9588,"Ġpiz":9589,"Ġpffff":9590,"Ġpille":9591,"Ġcw":9592,"Ġcica":9593,"Ġdetalla":9594,"Ġmca":9595,"Ġlav":9596,"Ġene":9597,"Ġful":9598,"Ġmegan":9599,"Ġcone":9600,"Ġconce":9601,"Ġalmo":9602,"Ġparto":9603,"Ġcoman":9604,"Ġretro":9605,"Ġpelir":9606,"Ġside":9607,"Ġsuger":9608,"Ġindia":9609,"ties":9610,"titos":9611,"Ġlees":9612,"Ġwing":9613,"Ġpotencia":9614,"Ġverme":9615,"Ġacus":9616,"Ġthese":9617,"Ġexor":9618,"Ġpropa":9619,"Ġmatices":9620,"Ġasiento":9621,"Ġxeno":9622,"Ġsalian":9623,"Ġsalud":9624,"derse":9625,"mano":9626,"tesis":9627,"sey":9628,"Ġcoti":9629,"Ġcagadas":9630,"Ġkara":9631,"Ġkiller":9632,"Ġkane":9633,"Ġchur":9634,"Ġchinos":9635,"Ġrespirar":9636,"Ġmenti":9637,"Ġmenores":9638,"Ġaunq":9639,"Ġdici":9640,"Ġroger":9641,"Ġencu":9642,"video":9643,"Ġdiscre":9644,"Ġpato":9645,"Ġhistorico":9646,"Ġnetf":9647,"Ġsaquen":9648,"Ġapariencia":9649,"Ġobvia":9650,"Ġclaros":9651,"Ġcabana":9652,"Ġ85":9653,"Ġcantan":9654,"Ġcanones":9655,"Ġcandida":9656,"Ġuser":9657,"Ġmorale":9658,"Ġqe":9659,"Ġespecies":9660,"Ġllevarse":9661,"Ġvalle":9662,"Ġherram":9663,"Ġrepel":9664,"Ġteniamos":9665,"Ġbanera":9666,"Ġaguas":9667,"osawa":9668,"Ġhayais":9669,"Ġmerecen":9670,"Ġlargas":9671,"Ġlargos":9672,"Ġnombra":9673,"Ġencontro":9674,"Ġtakes":9675,"Ġinterpreto":9676,"Ġempiezo":9677,"Ġenteros":9678,"Ġ150":9679,"Ġfuturos":9680,"Ġuniversal":9681,"Ġasesinar":9682,"Ġhermanas":9683,"Ġllegaron":9684,"Ġfurious":9685,"Ġjaco":9686,"Ġciudadano":9687,"ajajajaj":9688,"Ġlograr":9689,"Ġtecho":9690,"Ġbutton":9691,"Ġflotando":9692,"Ġpersonalidades":9693,"Ġgrupos":9694,"Ġcontinuamente":9695,"Ġinvento":9696,"Ġejerc":9697,"Ġsueltan":9698,"Ġsexta":9699,"Ġsucedio":9700,"Ġdirigir":9701,"Ġintroduc":9702,"exual":9703,"Ġ1985":9704,"Ġtransmitido":9705,"Ġstacy":9706,"Ġechando":9707,"Ġgasol":9708,"Ġconclu":9709,"Ġmolestado":9710,"Ġpeca":9711,"Ġleonidas":9712,"Ġdefinitivamente":9713,"Ġrecoge":9714,"Ġrecoger":9715,"Ġtrampas":9716,"Ġorganizacion":9717,"Ġdescolo":9718,"Ġgilipollez":9719,"Ġlagrima":9720,"Ġlagrimilla":9721,"Ġligeramente":9722,"Ġestupidas":9723,"Ġarrancar":9724,"Ġgrabada":9725,"Ġcoppola":9726,"Ġconvirtio":9727,"Ġdedicado":9728,"Ġlocalizaciones":9729,"Ġnervios":9730,"Ġcontraste":9731,"Ġdiesel":9732,"Ġevans":9733,"Ġjockey":9734,"Ġescopeta":9735,"Ġrequiem":9736,"Ġmoneda":9737,"Ġvagab":9738,"transpor":9739,"Ġtiburon":9740,"Ġestereo":9741,"Ġmanifes":9742,"Ġnoviembre":9743,"Ġcampeon":9744,"Ġfundamental":9745,"Ġimpotencia":9746,"Ġestrope":9747,"Ġlagunas":9748,"Ġ8203":9749,"Ġkrypton":9750,"Ġassass":9751,"Ġpelirro":9752,"Ġnetflix":9753,"df":9754,"dig":9755,"fin":9756,"fado":9757,"filo":9758,"ik":9759,"jj":9760,"kb":9761,"mico":9762,"nia":9763,"raron":9764,"tista":9765,"zs":9766,"zaba":9767,"Ġecu":9768,"Ġpiano":9769,"Ġlian":9770,"Ġcle":9771,"Ġdepre":9772,"onica":9773,"Ġtil":9774,"Ġesqui":9775,"Ġhilar":9776,"Ġnasa":9777,"inadas":9778,"Ġentier":9779,"Ġelenco":9780,"rael":9781,"rador":9782,"Ġfia":9783,"Ġbigo":9784,"Ġconvin":9785,"Ġhatha":9786,"Ġalianza":9787,"Ġcomido":9788,"Ġporta":9789,"Ġsuyas":9790,"devil":9791,"Ġcube":9792,"rios":9793,"Ġletal":9794,"Ġlevel":9795,"Ġleft":9796,"Ġjard":9797,"Ġwee":9798,"tarte":9799,"Ġexo":9800,"Ġpropor":9801,"Ġash":9802,"bres":9803,"Ġsalieron":9804,"Ġpasos":9805,"Ġheat":9806,"parse":9807,"Ġvistos":9808,"Ġmalv":9809,"Ġbasto":9810,"Ġpueb":9811,"Ġmann":9812,"Ġrespira":9813,"Ġhuye":9814,"Ġpear":9815,"Ġforos":9816,"Ġforta":9817,"Ġpagado":9818,"Ġpatron":9819,"rux":9820,"Ġorco":9821,"Ġpenso":9822,"Ġ55":9823,"anted":9824,"Ġnear":9825,"Ġtercio":9826,"Ġgranada":9827,"Ġgrandi":9828,"Ġdarles":9829,"Ġmoney":9830,"Ġ68":9831,"Ġcansa":9832,"Ġboo":9833,"Ġvolumen":9834,"Ġmorales":9835,"Ġmorira":9836,"chett":9837,"Ġuk":9838,"Ġhomecom":9839,"Ġcalamar":9840,"Ġempal":9841,"Ġpala":9842,"Ġcomenzar":9843,"Ġcomentaba":9844,"Ġbate":9845,"Ġtome":9846,"Ġbardo":9847,"Ġbandos":9848,"Ġshado":9849,"Ġshort":9850,"Ġsanta":9851,"Ġcerrada":9852,"Ġmatarlos":9853,"turb":9854,"Ġfamily":9855,"Ġdocumentales":9856,"Ġview":9857,"Ġactuan":9858,"ford":9859,"Ġlantern":9860,"Ġnormalita":9861,"Ġacercarse":9862,"Ġfuncionar":9863,"Ġolvidable":9864,"Ġadaptaciones":9865,"Ġflipo":9866,"Ġtratamiento":9867,"Ġtelevis":9868,"Ġproyectos":9869,"Ġpersigue":9870,"Ġdescubrimiento":9871,"Ġsacarle":9872,"Ġdarko":9873,"Ġdarkav":9874,"Ġnorth":9875,"Ġmurciela":9876,"Ġarrepen":9877,"Ġimperial":9878,"Ġentrenado":9879,"Ġsirven":9880,"Ġcombates":9881,"Ġromantico":9882,"Ġkings":9883,"Ġtwist":9884,"Ġquitarle":9885,"Ġspock":9886,"Ġreirse":9887,"Ġderrota":9888,"Ġpocahon":9889,"Ġveloci":9890,"Ġconclusiones":9891,"Ġhabitantes":9892,"Ġhelicopteros":9893,"Ġfabric":9894,"Ġresumir":9895,"Ġplastico":9896,"Ġsargento":9897,"Ġeasy":9898,"Ġoculta":9899,"Ġfamiliares":9900,"Ġselva":9901,"Ġprisioneros":9902,"Ġdescribir":9903,"Ġcrimenes":9904,"Ġsherlock":9905,"Ġeurope":9906,"Ġawak":9907,"Ġmodific":9908,"ppenwolf":9909,"Ġnervioso":9910,"Ġnigrom":9911,"Ġdesinf":9912,"Ġoscuras":9913,"Ġidiota":9914,"Ġacostumbrado":9915,"Ġfrodo":9916,"Ġespartanos":9917,"Ġgangster":9918,"Ġaires":9919,"Ġenfermera":9920,"Ġdoesn":9921,"Ġaprovecha":9922,"Ġjulianne":9923,"Ġcategoria":9924,"Ġcredibilidad":9925,"Ġdaredevil":9926,"catcher":9927,"Ġvillage":9928,"Ġetapa":9929,"Ġfucking":9930,"Ġjesucristo":9931,"Ġkilometros":9932,"Ġdiciembre":9933,"Ġmoraleja":9934,"Ġhathaway":9935,"bl":9936,"hd":9937,"rista":9938,"ulo":9939,"uch":9940,"yeron":9941,"zing":9942,"Ġpillan":9943,"Ġdiera":9944,"Ġllo":9945,"Ġcante":9946,"erva":9947,"asen":9948,"Ġnan":9949,"Ġenco":9950,"Ġmetidos":9951,"Ġconmo":9952,"Ġalp":9953,"Ġalone":9954,"Ġlot":9955,"Ġocho":9956,"Ġcoming":9957,"Ġreh":9958,"Ġsumer":9959,"Ġtoco":9960,"tipo":9961,"Ġlew":9962,"Ġjhon":9963,"quista":9964,"Ġanne":9965,"Ġverlos":9966,"tarla":9967,"ajj":9968,"Ġexam":9969,"uliar":9970,"Ġmache":9971,"guas":9972,"Ġmuchisimos":9973,"Ġsingular":9974,"Ġcoun":9975,"Ġcaca":9976,"Ġimpi":9977,"Ġimax":9978,"ieta":9979,"acon":9980,"Ġcosilla":9981,"Ġcarreras":9982,"Ġampl":9983,"Ġmarcar":9984,"Ġdecid":9985,"Ġluc":9986,"Ġpondre":9987,"Ġhistory":9988,"Ġesperabas":9989,"Ġventi":9990,"Ġsate":9991,"Ġ64":9992,"Ġhogwarts":9993,"itter":9994,"Ġrie":9995,"Ġintensidad":9996,"rise":9997,"Ġoct":9998,"Ġimaginado":9999,"guera":10000,"Ġsacada":10001,"Ġepicidad":10002,"Ġbarcel":10003,"Ġshin":10004,"Ġfunny":10005,"Ġinser":10006,"Ġespecula":10007,"duck":10008,"Ġpanda":10009,"Ġmerce":10010,"ground":10011,"eep":10012,"Ġcapullo":10013,"Ġtendremos":10014,"Ġregresa":10015,"Ġlimpia":10016,"Ġdesaf":10017,"Ġeditar":10018,"Ġmediavida":10019,"Ġdisfrutable":10020,"Ġviolacion":10021,"Ġescriba":10022,"Ġgenialidad":10023,"Ġbuah":10024,"Ġbuzz":10025,"Ġgolden":10026,"Ġfebr":10027,"Ġrecientemente":10028,"ssss":10029,"Ġafrica":10030,"Ġconsiderable":10031,"Ġsueltos":10032,"Ġincluida":10033,"Ġblanchett":10034,"Ġmaxima":10035,"Ġcristi":10036,"Ġ1994":10037,"Ġactualidad":10038,"Ġhelp":10039,"Ġaportar":10040,"Ġchap":10041,"Ġturner":10042,"Ġespanoles":10043,"Ġpreparando":10044,"Ġentrenar":10045,"Ġdrones":10046,"Ġpeculiar":10047,"Ġsistemas":10048,"Ġvictor":10049,"Ġfaro":10050,"Ġcoinciden":10051,"Ġacordaba":10052,"Ġdefinitivo":10053,"Ġintente":10054,"Ġextranaria":10055,"Ġcarismatico":10056,"Ġsilence":10057,"Ġquinn":10058,"Ġescalera":10059,"Ġstand":10060,"Ġalemania":10061,"Ġdemues":10062,"Ġirreal":10063,"Ġirregular":10064,"Ġmoderador":10065,"Ġparalelo":10066,"Ġalargar":10067,"eeeeeeee":10068,"Ġaustral":10069,"Ġresuelto":10070,"Ġconvirtiendo":10071,"Ġresucita":10072,"Ġmaletin":10073,"Ġtitanic":10074,"Ġextremis":10075,"Ġfijais":10076,"Ġmerecido":10077,"Ġjosh":10078,"Ġocupa":10079,"Ġestudiar":10080,"Ġcarcajadas":10081,"Ġbarato":10082,"Ġphilip":10083,"Ġproteccion":10084,"niss":10085,"Ġbunker":10086,"Ġjaeger":10087,"Ġconsejo":10088,"Ġtigre":10089,"Ġcoronel":10090,"Ġfenomeno":10091,"Ġarrepiento":10092,"Ġentrevistas":10093,"Ġquerais":10094,"Ġaround":10095,"Ġbehind":10096,"Ġpersiguiendo":10097,"Ġhomecoming":10098,"Ġdarkavm":10099,"Ġpocahontas":10100,"63":10101,"cc":10102,"fg":10103,"fis":10104,"nar":10105,"tine":10106,"ucho":10107,"Ġepi":10108,"Ġpff":10109,"Ġdamos":10110,"Ġsientes":10111,"Ġaer":10112,"Ġatado":10113,"Ġcras":10114,"enado":10115,"quero":10116,"onos":10117,"arri":10118,"arca":10119,"Ġqueen":10120,"Ġelm":10121,"Ġelite":10122,"Ġvine":10123,"esco":10124,"Ġfus":10125,"Ġmetodo":10126,"Ġconvi":10127,"Ġconlle":10128,"Ġhahaha":10129,"Ġreed":10130,"Ġsigan":10131,"leces":10132,"imp":10133,"dea":10134,"Ġtocando":10135,"Ġindo":10136,"Ġinta":10137,"Ġpelicul":10138,"Ġmuda":10139,"tiones":10140,"Ġcui":10141,"Ġmasillas":10142,"trara":10143,"Ġproducida":10144,"Ġcreada":10145,"Ġcreyendo":10146,"Ġsaludo":10147,"Ġcopon":10148,"Ġvisitar":10149,"Ġimpa":10150,"Ġkam":10151,"Ġkent":10152,"Ġmanson":10153,"Ġpela":10154,"Ġpetar":10155,"Ġpegue":10156,"Ġasique":10157,"Ġdawn":10158,"Ġpunado":10159,"Ġluis":10160,"Ġhacernos":10161,"Ġinterven":10162,"Ġintermin":10163,"Ġoffic":10164,"ticismo":10165,"Ġtuya":10166,"Ġacabaria":10167,"Ġincen":10168,"Ġconste":10169,"caras":10170,"cenas":10171,"Ġ720":10172,"Ġvola":10173,"Ġpodran":10174,"Ġpensamientos":10175,"Ġconociendo":10176,"Ġhomos":10177,"Ġprotagonizada":10178,"Ġganadores":10179,"Ġhare":10180,"Ġadm":10181,"Ġsubtra":10182,"Ġgoku":10183,"lyn":10184,"Ġjugo":10185,"Ġpanico":10186,"Ġllora":10187,"Ġsorpresas":10188,"Ġmilen":10189,"Ġespectativas":10190,"Ġnotaba":10191,"Ġanimado":10192,"Ġasesinado":10193,"Ġbestias":10194,"Ġcensura":10195,"Ġderiva":10196,"echas":10197,"Ġ1777":10198,"Ġbrain":10199,"Ġmiedos":10200,"Ġsteppenwolf":10201,"Ġnariz":10202,"Ġmencionan":10203,"Ġinicios":10204,"Ġcuestiones":10205,"Ġcontinuo":10206,"Ġinventa":10207,"Ġconsiderar":10208,"Ġsuelto":10209,"Ġaviones":10210,"Ġaprobado":10211,"Ġenfrentan":10212,"Ġentienda":10213,"Ġaprendido":10214,"Ġdisfrutarla":10215,"Ġbolas":10216,"Ġextranas":10217,"toma":10218,"Ġamazing":10219,"Ġlector":10220,"Ġprotegido":10221,"Ġhabituales":10222,"Ġfoxcatcher":10223,"Ġzack":10224,"Ġflechas":10225,"Ġjared":10226,"Ġindign":10227,"Ġeliminar":10228,"Ġthree":10229,"Ġinsulto":10230,"Ġliam":10231,"Ġviolento":10232,"Ġfrene":10233,"Ġmerecia":10234,"Ġegoista":10235,"Ġlimitado":10236,"Ġmacab":10237,"Ġmuriera":10238,"Ġkurosawa":10239,"Ġroyale":10240,"Ġsuperficial":10241,"Ġaverigu":10242,"Ġexclusivamente":10243,"Ġnorteamer":10244,"Ġtoston":10245,"Ġgags":10246,"Ġcachondeo":10247,"Ġplease":10248,"Ġcrowe":10249,"Ġaplaudir":10250,"Ġapetece":10251,"Ġkatniss":10252,"Ġaconse":10253,"Ġpianista":10254,"Ġjardin":10255,"Ġvelocirap":10256,"Ġnigromante":10257,"Ġbarcelona":10258,"bil":10259,"pul":10260,"udar":10261,"vy":10262,"vich":10263,"wy":10264,"zam":10265,"Ġere":10266,"Ġsni":10267,"Ġcis":10268,"Ġhones":10269,"Ġnec":10270,"Ġnula":10271,"Ġnacer":10272,"Ġelfa":10273,"Ġunen":10274,"town":10275,"Ġseem":10276,"Ġmetral":10277,"ilan":10278,"Ġglas":10279,"Ġalas":10280,"Ġalmas":10281,"Ġrever":10282,"Ġremar":10283,"letas":10284,"Ġtocan":10285,"Ġdeli":10286,"tie":10287,"tiz":10288,"Ġdesar":10289,"Ġveran":10290,"Ġvergon":10291,"dit":10292,"ulson":10293,"ullos":10294,"Ġcrearon":10295,"Ġtene":10296,"Ġring":10297,"urar":10298,"Ġcoh":10299,"Ġcagas":10300,"movil":10301,"Ġsonado":10302,"Ġkhan":10303,"Ġresal":10304,"Ġian":10305,"Ġcarro":10306,"lares":10307,"pias":10308,"Ġsencil":10309,"Ġprevis":10310,"Ġrab":10311,"Ġmotos":10312,"Ġmarines":10313,"Ġforzadas":10314,"Ġpaga":10315,"Ġguin":10316,"Ġapell":10317,"Ġcabrones":10318,"Ġ88":10319,"Ġ62":10320,"Ġhope":10321,"Ġhogar":10322,"Ġcana":10323,"Ġcantar":10324,"Ġinfra":10325,"Ġ95":10326,"Ġuu":10327,"Ġllevamos":10328,"Ġvalores":10329,"Ġbetw":10330,"Ġganando":10331,"Ġtomorrow":10332,"Ġespadas":10333,"Ġbruck":10334,"Ġpipa":10335,"Ġadele":10336,"Ġsubiendo":10337,"Ġshan":10338,"Ġcolle":10339,"Ġputada":10340,"Ġjefa":10341,"Ġrecordad":10342,"Ġconfusa":10343,"Ġdracula":10344,"Ġpantera":10345,"Ġjuntas":10346,"Ġcompleja":10347,"Ġresultar":10348,"Ġplaza":10349,"Ġfuimos":10350,"Ġavenger":10351,"Ġcompartido":10352,"Ġcomedias":10353,"Ġironia":10354,"Ġclass":10355,"Ġcuervo":10356,"Ġatraco":10357,"llando":10358,"Ġacercan":10359,"Ġclav":10360,"Ġsteel":10361,"Ġpieza":10362,"Ġgafa":10363,"Ġmonster":10364,"Ġfelic":10365,"Ġutilizado":10366,"Ġgrita":10367,"Ġacepto":10368,"Ġfreighter":10369,"Ġ1987":10370,"Ġcombatir":10371,"Ġphas":10372,"Ġtwitter":10373,"Ġproximas":10374,"Ġescondido":10375,"Ġdescabel":10376,"Ġestrenado":10377,"self":10378,"Ġconstruido":10379,"Ġdiscurs":10380,"Ġ3000":10381,"Ġalcance":10382,"Ġjaponeses":10383,"Ġseparado":10384,"Ġsaruman":10385,"Ġmatema":10386,"uuuuuuuu":10387,"Ġconvirtiendose":10388,"Ġapaga":10389,"Ġreflexionar":10390,"Ġagarra":10391,"Ġkurt":10392,"Ġruedas":10393,"Ġpsyduck":10394,"Ġochenta":10395,"Ġcoreografia":10396,"Ġincidente":10397,"Ġempire":10398,"Ġregistro":10399,"Ġlunes":10400,"Ġzorra":10401,"Ġestrate":10402,"Ġinquietante":10403,"Ġxdddddddd":10404,"Ġestupenda":10405,"Ġakira":10406,"Ġyonki":10407,"Ġjuventud":10408,"Ġarkham":10409,"Ġinverosimil":10410,"Ġremember":10411,"Ġresurrec":10412,"Ġconcilio":10413,"Ġapocalypse":10414,"Ġattack":10415,"Ġmcavoy":10416,"Ġmentiras":10417,"Ġbetween":10418,"az":10419,"azos":10420,"fu":10421,"fel":10422,"fle":10423,"gica":10424,"ive":10425,"mando":10426,"rue":10427,"tx":10428,"tles":10429,"uth":10430,"uge":10431,"Ġum":10432,"Ġec":10433,"Ġdieran":10434,"Ġdale":10435,"Ġdeep":10436,"Ġquejar":10437,"Ġtumb":10438,"Ġesen":10439,"Ġhus":10440,"tamos":10441,"Ġende":10442,"Ġenero":10443,"Ġentidad":10444,"Ġvhs":10445,"esa":10446,"Ġfusion":10447,"Ġbis":10448,"Ġsed":10449,"Ġsepas":10450,"Ġmech":10451,"Ġconv":10452,"elf":10453,"iendas":10454,"Ġlock":10455,"Ġow":10456,"Ġcompon":10457,"Ġpercepcion":10458,"Ġtod":10459,"Ġindis":10460,"tiful":10461,"Ġleague":10462,"adron":10463,"Ġdesmon":10464,"Ġmiya":10465,"colo":10466,"tors":10467,"Ġhablas":10468,"Ġcreas":10469,"Ġcreed":10470,"gur":10471,"Ġtej":10472,"Ġteen":10473,"Ġtraca":10474,"Ġcogen":10475,"Ġsonaba":10476,"Ġimpe":10477,"Ġkel":10478,"Ġargen":10479,"Ġvaci":10480,"Ġcargas":10481,"Ġsabra":10482,"Ġpredic":10483,"Ġdejaria":10484,"Ġentrever":10485,"Ġ101":10486,"Ġpuno":10487,"Ġvendido":10488,"Ġimpul":10489,"Ġsupermer":10490,"Ġfallar":10491,"Ġapasion":10492,"Ġgrata":10493,"Ġacabando":10494,"agos":10495,"Ġclarisimo":10496,"Ġcaminando":10497,"Ġvotacion":10498,"Ġboton":10499,"itz":10500,"Ġriver":10501,"Ġocci":10502,"ormales":10503,"Ġpesimo":10504,"Ġvariedad":10505,"Ġvalencia":10506,"Ġbeau":10507,"Ġsacaron":10508,"Ġzero":10509,"Ġterminos":10510,"Ġgeneros":10511,"Ġsuben":10512,"Ġbarra":10513,"Ġbarca":10514,"Ġmayus":10515,"Ġgoes":10516,"Ġshia":10517,"Ġjuro":10518,"Ġmuero":10519,"Ġconfuso":10520,"Ġperfectos":10521,"Ġponerme":10522,"Ġdebes":10523,"Ġencier":10524,"eee":10525,"Ġviajan":10526,"Ġregular":10527,"itario":10528,"Ġenfada":10529,"Ġgordos":10530,"Ġsabiamos":10531,"lls":10532,"Ġaburrir":10533,"Ġacertada":10534,"Ġbened":10535,"Ġbuff":10536,"Ġdecepciona":10537,"Ġcolec":10538,"Ġtemo":10539,"Ġencontrarse":10540,"Ġinventan":10541,"hey":10542,"Ġbrus":10543,"Ġsuicide":10544,"Ġgirar":10545,"Ġ1998":10546,"Ġnormas":10547,"Ġtestigo":10548,"Ġwalk":10549,"Ġbalance":10550,"Ġsignific":10551,"Ġross":10552,"Ġidenti":10553,"Ġdragones":10554,"Ġhalla":10555,"Ġconocimientos":10556,"Ġrevien":10557,"Ġapunte":10558,"Ġniega":10559,"Ġdamme":10560,"Ġpudieron":10561,"Ġbloque":10562,"Ġcomprendo":10563,"Ġcriminales":10564,"Ġprison":10565,"Ġllamarlo":10566,"Ġchorra":10567,"Ġprefiere":10568,"Ġaprecia":10569,"Ġadulta":10570,"Ġfabula":10571,"Ġirrele":10572,"Ġparalel":10573,"Ġestupidez":10574,"Ġahorrar":10575,"Ġarranca":10576,"Ġghul":10577,"Ġperiodico":10578,"Ġinocencia":10579,"Ġcomporta":10580,"Ġresucitar":10581,"Ġutilizando":10582,"Ġalexander":10583,"Ġdesgraci":10584,"Ġmiembro":10585,"Ġfresco":10586,"Ġcolonia":10587,"Ġsoberbia":10588,"Ġhablemos":10589,"Ġxenomorfos":10590,"Ġdefectos":10591,"Ġgratuita":10592,"Ġreencuen":10593,"Ġoptimus":10594,"Ġmultiples":10595,"Ġupongo":10596,"Ġlevitt":10597,"Ġperiodista":10598,"Ġradiacion":10599,"auty":10600,"Ġobtener":10601,"Ġcobarde":10602,"Ġestadounidense":10603,"Ġpym":10604,"Ġmountain":10605,"Ġrelevancia":10606,"Ġrefugio":10607,"Ġejercicio":10608,"Ġalpha":10609,"Ġfebrero":10610,"Ġapellido":10611,"Ġbruckheimer":10612,"Ġphasma":10613,"mis":10614,"uy":10615,"where":10616,"Ġicon":10617,"Ġeight":10618,"Ġpit":10619,"Ġsas":10620,"Ġsqu":10621,"Ġsys":10622,"Ġdemen":10623,"Ġmp":10624,"Ġlapi":10625,"Ġlatino":10626,"orden":10627,"Ġhib":10628,"dovar":10629,"Ġnon":10630,"inan":10631,"Ġensegu":10632,"esta":10633,"Ġfuentes":10634,"Ġconner":10635,"Ġconduce":10636,"Ġhacha":10637,"Ġlogo":10638,"Ġrees":10639,"Ġrevan":10640,"Ġinteg":10641,"Ġinarri":10642,"tizar":10643,"tizen":10644,"Ġsofa":10645,"Ġdesem":10646,"Ġanom":10647,"Ġanado":10648,"Ġpolan":10649,"Ġvertigo":10650,"Ġact":10651,"Ġacre":10652,"Ġdijera":10653,"Ġcreido":10654,"gulo":10655,"Ġsaldria":10656,"Ġveian":10657,"Ġreno":10658,"Ġgusten":10659,"Ġpaseo":10660,"Ġhela":10661,"zaki":10662,"Ġtire":10663,"Ġcav":10664,"para":10665,"Ġkili":10666,"Ġchip":10667,"Ġmany":10668,"Ġmentir":10669,"Ġprece":10670,"Ġmarie":10671,"izos":10672,"Ġpagan":10673,"thy":10674,"dden":10675,"Ġexpla":10676,"Ġrealistas":10677,"Ġimpon":10678,"ticion":10679,"Ġsupers":10680,"Ġsaid":10681,"ficiente":10682,"Ġposee":10683,"Ġparecidos":10684,"Ġacababa":10685,"Ġconsul":10686,"Ġmontada":10687,"Ġcamis":10688,"Ġcampos":10689,"carr":10690,"Ġseguidores":10691,"Ġboom":10692,"Ġpensamos":10693,"Ġ97":10694,"Ġfanboy":10695,"Ġbeauty":10696,"Ġharrel":10697,"Ġespia":10698,"Ġgober":10699,"Ġhorroc":10700,"Ġinteresado":10701,"Ġmegavideo":10702,"Ġtardado":10703,"Ġfij":10704,"Ġconfusion":10705,"Ġtrono":10706,"Ġlarg":10707,"Ġmust":10708,"Ġolia":10709,"Ġjunio":10710,"Ġsimmons":10711,"Ġblake":10712,"Ġfuture":10713,"Ġunivers":10714,"Ġplagueis":10715,"Ġfotograf":10716,"Ġviejas":10717,"Ġactualmente":10718,"Ġpensarlo":10719,"Ġmagnol":10720,"Ġescribiendo":10721,"Ġatrapa":10722,"Ġprecipi":10723,"Ġmiras":10724,"Ġgatos":10725,"Ġteletranspor":10726,"heart":10727,"fox":10728,"Ġcurro":10729,"Ġgarra":10730,"Ġlloro":10731,"Ġnorris":10732,"Ġchavala":10733,"Ġmurder":10734,"Ġsociety":10735,"Ġsecret":10736,"Ġchatar":10737,"Ġchoque":10738,"Ġrusia":10739,"Ġrevuel":10740,"Ġinfecta":10741,"produccion":10742,"Ġ1979":10743,"Ġabogado":10744,"Ġnarrador":10745,"Ġvinculo":10746,"Ġpollas":10747,"Ġprisa":10748,"Ġaparecio":10749,"Ġapareciendo":10750,"Ġpleno":10751,"Ġronan":10752,"Ġhunt":10753,"Ġkilling":10754,"Ġencerrados":10755,"Ġpreocupa":10756,"Ġofrecer":10757,"Ġgrabado":10758,"Ġfrancesa":10759,"Ġalternativa":10760,"Ġdescribe":10761,"Ġbiblia":10762,"Ġitalia":10763,"Ġasusta":10764,"Ġjuguete":10765,"Ġhueso":10766,"Ġfemenina":10767,"Ġgonz":10768,"Ġlouise":10769,"Ġaudiovis":10770,"Ġimprescindible":10771,"Ġmomia":10772,"Ġelabor":10773,"Ġsecuestro":10774,"Ġbombarde":10775,"Ġdespiertan":10776,"Ġmexico":10777,"Ġcohete":10778,"Ġfascinante":10779,"Ġdeleted":10780,"Ġhilos":10781,"shot":10782,"Ġdescafe":10783,"Ġantagonista":10784,"Ġsobrenatural":10785,"Ġintelectual":10786,"Ġjolie":10787,"Ġzodiac":10788,"Ġbryan":10789,"Ġalmodovar":10790,"Ġhomosexual":10791,"Ġgafapas":10792,"Ġsupermercado":10793,"Ġsystem":10794,"Ġenseguida":10795,"Ġinarritu":10796,"Ġharrelson":10797,"Ġhorrocrux":10798,"cm":10799,"dimiento":10800,"ela":10801,"itivo":10802,"ous":10803,"qq":10804,"uve":10805,"Ġpam":10806,"Ġlando":10807,"Ġcro":10808,"Ġmilla":10809,"arnos":10810,"Ġtuer":10811,"rey":10812,"Ġelig":10813,"Ġnopsis":10814,"Ġblas":10815,"Ġbaje":10816,"Ġbrie":10817,"Ġseal":10818,"elsen":10819,"iac":10820,"iada":10821,"Ġgian":10822,"Ġgano":10823,"Ġcomica":10824,"Ġperfil":10825,"Ġremon":10826,"Ġsucio":10827,"Ġinyec":10828,"tieron":10829,"Ġlejano":10830,"Ġjl":10831,"Ġjac":10832,"Ġdesvela":10833,"Ġwolf":10834,"Ġ260":10835,"ajos":10836,"Ġfinde":10837,"Ġmire":10838,"Ġmires":10839,"torios":10840,"pers":10841,"Ġsaludos":10842,"Ġrena":10843,"Ġriendose":10844,"Ġpastillas":10845,"Ġtragico":10846,"Ġcoje":10847,"Ġcoja":10848,"Ġcoulson":10849,"atic":10850,"Ġmantienen":10851,"Ġcostaba":10852,"Ġvagon":10853,"Ġamel":10854,"larse":10855,"Ġrodadas":10856,"Ġsense":10857,"Ġpedo":10858,"Ġrata":10859,"Ġdistancias":10860,"inger":10861,"Ġpage":10862,"Ġpudiese":10863,"Ġoreja":10864,"Ġexposicion":10865,"Ġdurado":10866,"Ġhacerme":10867,"Ġcorpor":10868,"Ġsuperiores":10869,"Ġfall":10870,"Ġappe":10871,"lidos":10872,"Ġmueran":10873,"Ġsatan":10874,"Ġaparecera":10875,"Ġnah":10876,"Ġconsis":10877,"Ġmonte":10878,"Ġ73":10879,"Ġ91":10880,"Ġ93":10881,"Ġcalen":10882,"Ġcalla":10883,"Ġvalida":10884,"Ġpale":10885,"Ġbuscas":10886,"Ġestaran":10887,"Ġestarian":10888,"rost":10889,"Ġsubido":10890,"kers":10891,"Ġbarr":10892,"Ġbandas":10893,"Ġestudia":10894,"Ġfidel":10895,"Ġdraco":10896,"Ġmatarle":10897,"cona":10898,"Ġtap":10899,"Ġtay":10900,"Ġsoltando":10901,"Ġtorres":10902,"Ġsimb":10903,"Ġencuentras":10904,"urado":10905,"Ġentenderlo":10906,"Ġcomparto":10907,"Ġcriticando":10908,"Ġmagic":10909,"Ġmeterle":10910,"Ġclasicas":10911,"Ġatrapar":10912,"Ġguardar":10913,"Ġheroina":10914,"Ġdecad":10915,"Ġconvencio":10916,"Ġclaves":10917,"Ġdistingu":10918,"Ġrecomendado":10919,"logicas":10920,"logicamente":10921,"Ġdestruyen":10922,"Ġcrudeza":10923,"Ġborrar":10924,"Ġresultados":10925,"Ġcontent":10926,"Ġpretendia":10927,"Ġ1990":10928,"Ġactually":10929,"Ġtest":10930,"Ġcontadas":10931,"Ġrobado":10932,"Ġmezclado":10933,"Ġconfirmar":10934,"Ġchoco":10935,"Ġexplosivos":10936,"Ġaquellas":10937,"Ġframe":10938,"Ġviviente":10939,"culas":10940,"Ġfarm":10941,"Ġshazam":10942,"Ġexperimentos":10943,"Ġpirami":10944,"Ġpolis":10945,"Ġrescatan":10946,"Ġfanserv":10947,"ught":10948,"Ġdesarrollada":10949,"Ġstream":10950,"Ġrevenant":10951,"Ġdemostrado":10952,"Ġprofesora":10953,"Ġpermitir":10954,"Ġzoo":10955,"Ġgilipolleces":10956,"Ġpersecuciones":10957,"Ġresumiendo":10958,"Ġarboles":10959,"Ġmetropolis":10960,"Ġaprovechado":10961,"Ġchastain":10962,"Ġmachine":10963,"Ġalucinacion":10964,"Ġvecinos":10965,"Ġcopy":10966,"Ġorgullo":10967,"Ġviolenta":10968,"Ġtintin":10969,"Ġlooks":10970,"view":10971,"Ġeterna":10972,"Ġmetieron":10973,"Ġmecanica":10974,"Ġllenar":10975,"Ġjustifica":10976,"Ġjustificacion":10977,"Ġexcepcional":10978,"Ġbarbara":10979,"Ġnacional":10980,"Ġcharacters":10981,"Ġrestau":10982,"Ġbritanico":10983,"Ġbarbaridad":10984,"Ġincorpor":10985,"Ġbrothers":10986,"Ġagradezco":10987,"Ġinstinto":10988,"Ġsobrevalorada":10989,"Ġfacehugger":10990,"Ġdiamantes":10991,"Ġperpetua":10992,"Ġbiblioteca":10993,"Ġsuperpoderes":10994,"Ġcementerio":10995,"Ġcockpit":10996,"Ġsatelite":10997,"Ġmiyazaki":10998,"Ġmagnolia":10999,"Ġfanservice":11000,"65":11001,"fk":11002,"hl":11003,"jidad":11004,"lr":11005,"ski":11006,"xx":11007,"Ġeis":11008,"Ġatar":11009,"Ġagon":11010,"Ġcig":11011,"queria":11012,"Ġqueridos":11013,"Ġtimo":11014,"Ġesfor":11015,"Ġlaur":11016,"Ġyan":11017,"Ġnam":11018,"Ġentras":11019,"Ġvos":11020,"esen":11021,"tex":11022,"cidas":11023,"cieron":11024,"Ġbp":11025,"Ġbue":11026,"Ġbamb":11027,"iss":11028,"too":11029,"Ġgab":11030,"Ġgrim":11031,"Ġlopez":11032,"Ġperd":11033,"Ġperra":11034,"Ġperver":11035,"Ġinher":11036,"Ġindios":11037,"andome":11038,"Ġmuro":11039,"tibles":11040,"Ġparaca":11041,"Ġlebo":11042,"adme":11043,"adura":11044,"Ġannie":11045,"ember":11046,"tuando":11047,"iguen":11048,"Ġtheron":11049,"Ġfinan":11050,"Ġmitico":11051,"diar":11052,"Ġquie":11053,"Ġquito":11054,"Ġpasarse":11055,"Ġcool":11056,"Ġchup":11057,"Ġtanques":11058,"Ġvayas":11059,"Ġame":11060,"Ġrecal":11061,"Ġroyo":11062,"Ġrogers":11063,"Ġabriendo":11064,"Ġmovi":11065,"Ġmarcan":11066,"Ġdejamos":11067,"Ġforest":11068,"Ġrealiza":11069,"Ġponemos":11070,"Ġinternacion":11071,"Ġcorren":11072,"Ġcinefilo":11073,"Ġneeson":11074,"Ġtuyo":11075,"gram":11076,"dious":11077,"Ġapartamento":11078,"Ġcompre":11079,"dard":11080,"Ġconstantes":11081,"Ġfiltro":11082,"Ġhaberme":11083,"Ġ61":11084,"Ġhood":11085,"Ġquedamos":11086,"Ġintensa":11087,"Ġayudo":11088,"Ġprescindible":11089,"Ġbeber":11090,"Ġdiabol":11091,"Ġcitizen":11092,"Ġsubidon":11093,"Ġimportar":11094,"more":11095,"Ġinspec":11096,"Ġambicion":11097,"Ġmegatron":11098,"pens":11099,"Ġconfes":11100,"Ġponerte":11101,"Ġdefine":11102,"Ġraros":11103,"Ġlimpio":11104,"Ġromero":11105,"Ġrompen":11106,"Ġmiradas":11107,"Ġcentrar":11108,"Ġdejaran":11109,"Ġmeterlo":11110,"Ġalejado":11111,"Ġclassic":11112,"ughey":11113,"Ġatrae":11114,"Ġamoroso":11115,"Ġrises":11116,"Ġflojea":11117,"Ġleerlo":11118,"foy":11119,"Ġbajon":11120,"Ġcurso":11121,"Ġpretensiones":11122,"Ġ1993":11123,"Ġ1995":11124,"Ġwalker":11125,"Ġdestrozo":11126,"Ġmanteniendo":11127,"Ġ1988":11128,"Ġtransmiten":11129,"Ġmccona":11130,"Ġrevista":11131,"Ġexplotado":11132,"Ġlevantarse":11133,"Ġtecnicas":11134,"Ġjajajajaja":11135,"Ġlograda":11136,"Ġdurar":11137,"Ġsupiera":11138,"Ġpronun":11139,"Ġreirme":11140,"Ġbiologica":11141,"Ġcumplen":11142,"Ġreventado":11143,"Ġaclara":11144,"Ġchispa":11145,"Ġvolvemos":11146,"Ġliteral":11147,"Ġdesarrollan":11148,"Ġdibujo":11149,"Ġjavier":11150,"Ġsoportar":11151,"Ġground":11152,"Ġadmitir":11153,"Ġencontraba":11154,"Ġproducido":11155,"Ġbluray":11156,"Ġdisenos":11157,"Ġscreenplay":11158,"Ġeterno":11159,"Ġexpandido":11160,"Ġrevivir":11161,"Ġempezaba":11162,"Ġatractivo":11163,"Ġfemenino":11164,"Ġprotector":11165,"Ġperforman":11166,"Ġacostumbrados":11167,"Ġnacionalidad":11168,"Ġcopiar":11169,"Ġindependientemente":11170,"Ġautomatico":11171,"Ġnocturna":11172,"Ġsienten":11173,"humanos":11174,"Ġdiferenci":11175,"Ġcross":11176,"Ġdisgustado":11177,"Ġmasacre":11178,"Ġlumin":11179,"Ġreturn":11180,"Ġindustria":11181,"Ġfoster":11182,"Ġlegion":11183,"Ġveinte":11184,"Ġmercenarios":11185,"Ġiniciativa":11186,"Ġhurt":11187,"Ġbridge":11188,"Ġdefraudado":11189,"Ġalbum":11190,"Ġsaturno":11191,"Ġcapsula":11192,"Ġorbita":11193,"Ġjacob":11194,"Ġecuacion":11195,"Ġfortaleza":11196,"Ġlewis":11197,"Ġdemuestran":11198,"Ġglass":11199,"Ġbenedict":11200,"Ġtaylor":11201,"Ġmcconaughey":11202,"91":11203,"bk":11204,"batch":11205,"cla":11206,"caban":11207,"ets":11208,"fy":11209,"gr":11210,"gy":11211,"kia":11212,"lish":11213,"mol":11214,"tti":11215,"uta":11216,"vor":11217,"wyn":11218,"Ġlily":11219,"Ġagre":11220,"Ġcrom":11221,"Ġdela":11222,"Ġdemo":11223,"enos":11224,"ende":11225,"anza":11226,"Ġqueden":11227,"Ġhp":11228,"Ġhong":11229,"Ġnemo":11230,"tades":11231,"Ġvill":11232,"teles":11233,"cillo":11234,"Ġnodri":11235,"Ġnobody":11236,"Ġfechas":11237,"Ġsepan":11238,"Ġsebas":11239,"iencias":11240,"Ġalea":11241,"Ġov":11242,"Ġcompa":11243,"eco":11244,"icula":11245,"tid":11246,"adera":11247,"Ġdeser":11248,"quisimo":11249,"Ġvereis":11250,"Ġacum":11251,"Ġthir":11252,"coles":11253,"Ġexista":11254,"Ġpring":11255,"Ġprov":11256,"Ġproces":11257,"lante":11258,"Ġtravel":11259,"Ġhea":11260,"Ġcopa":11261,"Ġcojo":11262,"Ġcaigo":11263,"hout":11264,"Ġcarlos":11265,"Ġrodo":11266,"Ġpreju":11267,"Ġpedia":11268,"mpa":11269,"Ġmario":11270,"izadas":11271,"Ġformado":11272,"ddd":11273,"venta":11274,"Ġpene":11275,"Ġpenas":11276,"Ġpenit":11277,"Ġdecidi":11278,"Ġvendra":11279,"Ġimpuls":11280,"Ġnee":11281,"Ġfalsos":11282,"Ġterry":11283,"lips":11284,"reck":11285,"mentos":11286,"Ġnacio":11287,"Ġacabase":11288,"Ġdarme":11289,"Ġcamuf":11290,"berbatch":11291,"Ġhop":11292,"jeras":11293,"Ġseguimos":11294,"Ġboys":11295,"Ġritual":11296,"Ġcambien":11297,"Ġocto":11298,"Ġcall":11299,"Ġtalla":11300,"Ġmiercoles":11301,"Ġactorazo":11302,"Ġbeat":11303,"Ġzur":11304,"Ġzemo":11305,"Ġzonas":11306,"Ġbarba":11307,"Ġaux":11308,"trandose":11309,"Ġhorri":11310,"Ġmerezca":11311,"Ġmatarla":11312,"Ġnomina":11313,"Ġinterprete":11314,"Ġtorcido":11315,"Ġjuntar":11316,"Ġvayais":11317,"alof":11318,"Ġpintaba":11319,"Ġcapas":11320,"Ġvolverse":11321,"Ġjapo":11322,"Ġsigues":11323,"Ġmagica":11324,"Ġviola":11325,"Ġatravies":11326,"llll":11327,"inst":11328,"gidas":11329,"Ġadapta":11330,"Ġbuf":11331,"Ġmadera":11332,"Ġpiedad":11333,"Ġquedarme":11334,"Ġergo":11335,"Ġexistia":11336,"Ġbelico":11337,"Ġbelie":11338,"Ġinvencion":11339,"Ġinventar":11340,"Ġcompanera":11341,"Ġsueltas":11342,"Ġantemano":11343,"Ġsexuales":11344,"Ġciviles":11345,"Ġgirando":11346,"Ġwasp":11347,"ezcan":11348,"Ġmemorables":11349,"Ġpsicologica":11350,"Ġchapa":11351,"Ġrastro":11352,"Ġlist":11353,"produc":11354,"Ġ1973":11355,"Ġgraciosas":11356,"Ġcogerla":11357,"Ġcaracterizado":11358,"Ġartefac":11359,"Ġending":11360,"Ġabandona":11361,"ways":11362,"Ġoficiales":11363,"Ġbeck":11364,"Ġsacrifica":11365,"Ġacojonado":11366,"Ġplaneado":11367,"Ġnazgul":11368,"Ġdemostrando":11369,"Ġprivado":11370,"Ġindica":11371,"Ġmodern":11372,"Ġmoderna":11373,"Ġplasma":11374,"Ġberg":11375,"Ġcambiaria":11376,"Ġatrever":11377,"Ġ1968":11378,"Ġnegativas":11379,"Ġstuff":11380,"Ġreligioso":11381,"Ġrodeado":11382,"Ġecharle":11383,"Ġbrillantes":11384,"Ġtercero":11385,"Ġespiritual":11386,"pieza":11387,"Ġaranas":11388,"Ġmalefica":11389,"Ġgroot":11390,"Ġpesadillas":11391,"Ġestupendo":11392,"Ġsangr":11393,"Ġcercana":11394,"Ġagainst":11395,"Ġartistico":11396,"Ġcabreado":11397,"Ġdeclaraciones":11398,"Ġparticipar":11399,"Ġdefecto":11400,"Ġempiece":11401,"Ġwatson":11402,"Ġtortugas":11403,"Ġhormiga":11404,"Ġcumberbatch":11405,"Ġfootage":11406,"Ġastronauta":11407,"Ġpolemica":11408,"Ġvideoclub":11409,"Ġmetaforas":11410,"fantasmas":11411,"idorah":11412,"Ġnichol":11413,"Ġsubmarino":11414,"Ġcharlize":11415,"Ġtarjeta":11416,"Ġtelefilm":11417,"Ġoutside":11418,"Ġincongruencias":11419,"Ġpelirroja":11420,"Ġconlleva":11421,"Ġcuidar":11422,"Ġinterminable":11423,"Ġestrategia":11424,"Ġanomal":11425,"Ġperformance":11426,"Ġpenitente":11427,"cp":11428,"fp":11429,"fra":11430,"gaban":11431,"rs":11432,"rara":11433,"yers":11434,"Ġpilar":11435,"Ġsame":11436,"Ġak":11437,"Ġari":11438,"erse":11439,"Ġdeus":11440,"Ġdecan":11441,"asta":11442,"anu":11443,"arlos":11444,"ards":11445,"Ġlagar":11446,"orra":11447,"unk":11448,"under":11449,"reta":11450,"Ġvue":11451,"Ġunicas":11452,"Ġbtw":11453,"Ġseen":11454,"Ġsello":11455,"Ġhacke":11456,"Ġolas":11457,"Ġown":11458,"Ġoasis":11459,"Ġcompi":11460,"Ġperos":11461,"Ġretar":11462,"Ġredes":11463,"Ġsit":11464,"Ġdelin":11465,"tib":11466,"tizo":11467,"tizado":11468,"Ġcule":11469,"Ġmass":11470,"Ġleve":11471,"Ġdesig":11472,"Ġwood":11473,"tant":11474,"Ġverte":11475,"Ġverdes":11476,"tuar":11477,"ions":11478,"Ġfind":11479,"Ġescalof":11480,"tentes":11481,"Ġproducir":11482,"Ġcrece":11483,"Ġteniente":11484,"deria":11485,"Ġveid":11486,"Ġrt":11487,"Ġimitar":11488,"Ġkine":11489,"Ġkung":11490,"Ġchin":11491,"Ġchal":11492,"Ġcositas":11493,"Ġmisil":11494,"Ġpeta":11495,"Ġrain":11496,"Ġmogol":11497,"Ġpayas":11498,"Ġrealizada":11499,"Ġdoor":11500,"Ġneil":11501,"Ġnext":11502,"Ġnevera":11503,"Ġgraves":11504,"Ġgrafica":11505,"Ġciertamente":11506,"Ġconsiste":11507,"Ġcabina":11508,"Ġmundillo":11509,"Ġ71":11510,"Ġvolviera":11511,"Ġmortif":11512,"Ġ96":11513,"ablemente":11514,"Ġibamos":11515,"Ġtommy":11516,"Ġesperabais":11517,"Ġjusta":11518,"Ġcolgando":11519,"Ġexplicita":11520,"Ġconfron":11521,"Ġconfund":11522,"Ġrefor":11523,"Ġtax":11524,"Ġcomplejidad":11525,"rone":11526,"Ġencuentren":11527,"Ġfuturista":11528,"Ġsalvarse":11529,"Ġfotogramas":11530,"Ġmostra":11531,"Ġtirarse":11532,"Ġcomparaciones":11533,"Ġestrena":11534,"Ġactuales":11535,"Ġdisfruto":11536,"Ġdesarrollando":11537,"Ġ116":11538,"Ġpiense":11539,"Ġ1779":11540,"Ġescribio":11541,"Ġlane":11542,"Ġlogicamente":11543,"Ġhablais":11544,"Ġequival":11545,"instein":11546,"Ġ160":11547,"Ġolvidemos":11548,"logicos":11549,"Ġcruzar":11550,"Ġiniciales":11551,"Ġmaestras":11552,"heroes":11553,"Ġrecibido":11554,"Ġescudos":11555,"Ġinventarse":11556,"Ġmedie":11557,"Ġvasi":11558,"Ġapoya":11559,"foe":11560,"Ġdestaco":11561,"Ġzombi":11562,"Ġdiversos":11563,"Ġcontentos":11564,"Ġbuscarle":11565,"Ġincreiblemente":11566,"Ġllorado":11567,"Ġridiculos":11568,"Ġnorman":11569,"Ġtexas":11570,"Ġavanzar":11571,"lord":11572,"Ġfasc":11573,"Ġarreba":11574,"Ġfree":11575,"Ġagradeci":11576,"Ġrepresentar":11577,"Ġilus":11578,"Ġreddit":11579,"wars":11580,"Ġapuntes":11581,"Ġgalaxias":11582,"Ġterminators":11583,"Ġ1971":11584,"Ġleonard":11585,"Ġpudieran":11586,"Ġrepiten":11587,"Ġluchas":11588,"Ġdesconocidos":11589,"Ġhunter":11590,"Ġconectado":11591,"Ġreacciona":11592,"Ġfacebook":11593,"Ġgrandisimo":11594,"Ġchasquido":11595,"Ġchascarr":11596,"Ġnegativos":11597,"Ġocultar":11598,"Ġcaballos":11599,"Ġperiodo":11600,"Ġdevolver":11601,"Ġcorredor":11602,"Ġfilosofico":11603,"Ġasegurar":11604,"Ġanunci":11605,"Ġcinesa":11606,"hiro":11607,"Ġdependiendo":11608,"Ġjerem":11609,"Ġcazafantasmas":11610,"Ġtelep":11611,"Ġdigitales":11612,"Ġanciana":11613,"Ġchewie":11614,"Ġscreener":11615,"Ġfresca":11616,"Ġolvidate":11617,"Ġgenetica":11618,"Ġhuesos":11619,"Ġcartelera":11620,"Ġexpandir":11621,"Ġnigga":11622,"Ġinutiles":11623,"Ġinstalaciones":11624,"Ġidiotas":11625,"Ġwilson":11626,"Ġpacino":11627,"Ġincompren":11628,"Ġcorrupcion":11629,"Ġsamurais":11630,"Ġjockeys":11631,"Ġazog":11632,"Ġazotea":11633,"Ġcelebra":11634,"Ġduerme":11635,"Ġpsiquiatrico":11636,"Ġanecdota":11637,"Ġcomisaria":11638,"Ġladrones":11639,"Ġinmediatamente":11640,"Ġchildren":11641,"Ġescarpias":11642,"Ġesquizo":11643,"Ġshutter":11644,"Ġgenesis":11645,"Ġmeteorito":11646,"Ġpretenciosa":11647,"Ġindependence":11648,"Ġambiguo":11649,"Ġinspirado":11650,"Ġbrasil":11651,"Ġbigote":11652,"Ġvergonz":11653,"Ġbeautiful":11654,"Ġrestaurante":11655,"Ġnodriza":11656,"Ġsebastian":11657,"Ġoctober":11658,"Ġveidt":11659,"Ġmogollon":11660,"cron":11661,"dw":11662,"fc":11663,"gable":11664,"hom":11665,"iante":11666,"mus":11667,"mados":11668,"uco":11669,"wo":11670,"wing":11671,"Ġic":11672,"Ġeur":11673,"Ġeve":11674,"Ġpill":11675,"Ġpana":11676,"Ġdor":11677,"Ġdad":11678,"Ġlights":11679,"Ġsis":11680,"Ġcun":11681,"Ġdecentes":11682,"Ġdecenas":11683,"quete":11684,"aricia":11685,"Ġquemado":11686,"Ġtrian":11687,"unal":11688,"dog":11689,"dock":11690,"Ġenven":11691,"Ġvac":11692,"espa":11693,"dac":11694,"dagas":11695,"Ġfec":11696,"omp":11697,"Ġmear":11698,"lad":11699,"lation":11700,"Ġcontun":11701,"Ġcongres":11702,"Ġalfa":11703,"Ġcomed":11704,"Ġcompuesto":11705,"Ġperca":11706,"Ġpereza":11707,"Ġremedio":11708,"Ġsua":11709,"Ġsuma":11710,"Ġsummer":11711,"Ġinso":11712,"Ġindef":11713,"ablan":11714,"ried":11715,"Ġparad":11716,"Ġmasco":11717,"Ġleas":11718,"Ġlegal":11719,"Ġjine":11720,"adgar":11721,"Ġsour":11722,"Ġsolas":11723,"Ġdesvi":11724,"treno":11725,"Ġpodamos":11726,"Ġmirado":11727,"Ġexil":11728,"pera":11729,"dibles":11730,"Ġxo":11731,"Ġcreados":11732,"gatorio":11733,"Ġsales":11734,"Ġrors":11735,"lane":11736,"Ġtrayec":11737,"Ġtraducir":11738,"Ġheav":11739,"Ġcaz":11740,"Ġsonidos":11741,"Ġimpar":11742,"Ġkris":11743,"Ġmaldita":11744,"Ġcast":11745,"Ġcastigo":11746,"Ġllegamos":11747,"Ġsables":11748,"Ġsobreco":11749,"Ġrota":11750,"Ġroth":11751,"Ġrabo":11752,"Ġrage":11753,"Ġracional":11754,"Ġradagas":11755,"Ġjob":11756,"Ġjobs":11757,"Ġjourney":11758,"Ġabri":11759,"Ġabuelos":11760,"Ġmole":11761,"Ġdafoe":11762,"Ġforzados":11763,"Ġpavos":11764,"ume":11765,"Ġ102":11766,"Ġpenosa":11767,"Ġluce":11768,"Ġponian":11769,"jete":11770,"keting":11771,"Ġgrano":11772,"Ġapres":11773,"litos":11774,"Ġnauf":11775,"Ġmonto":11776,"Ġ87":11777,"Ġseguidor":11778,"Ġhumanas":11779,"Ġcambie":11780,"Ġseccion":11781,"Ġtalk":11782,"Ġbey":11783,"Ġbean":11784,"Ġganador":11785,"Ġganadora":11786,"Ġharian":11787,"Ġpike":11788,"Ġgeneralmente":11789,"Ġshar":11790,"Ġjudio":11791,"Ġambigue":11792,"Ġmueven":11793,"Ġrefres":11794,"Ġtruna":11795,"Ġlargu":11796,"Ġponerla":11797,"Ġmuseo":11798,"Ġtate":11799,"Ġinterpretando":11800,"Ġtortas":11801,"Ġdefiende":11802,"Ġguerrero":11803,"Ġ134":11804,"Ġescrita":11805,"Ġlanzan":11806,"etto":11807,"Ġfisicas":11808,"Ġataud":11809,"Ġproductos":11810,"Ġnarrar":11811,"Ġtrein":11812,"iii":11813,"Ġcruci":11814,"Ġcruza":11815,"Ġhiciese":11816,"Ġgaga":11817,"Ġinfinidad":11818,"Ġeric":11819,"Ġ223":11820,"Ġbelen":11821,"Ġbello":11822,"Ġrelativamente":11823,"ciedad":11824,"Ġbajado":11825,"Ġmonstruoso":11826,"Ġruidos":11827,"Ġenfermos":11828,"Ġwork":11829,"Ġempezaron":11830,"Ġ271":11831,"born":11832,"Ġchaqueta":11833,"Ġ1984":11834,"Ġguap":11835,"Ġhalf":11836,"Ġvivimos":11837,"Ġinfeccion":11838,"Ġ1974":11839,"Ġcasualidades":11840,"Ġextender":11841,"Ġgemelo":11842,"Ġabove":11843,"Ġluchan":11844,"Ġrecopi":11845,"Ġsacrificar":11846,"587":11847,"Ġesquema":11848,"Ġcrazy":11849,"cientos":11850,"Ġalcanza":11851,"Ġciega":11852,"Ġpriori":11853,"Ġchasco":11854,"Ġoculto":11855,"Ġdeprisa":11856,"Ġcadenas":11857,"Ġlobotom":11858,"Ġasegura":11859,"Ġsucesion":11860,"Ġpresentador":11861,"Ġesclavos":11862,"Ġejecucion":11863,"Ġsospechoso":11864,"Ġsospechosos":11865,"Ġmetodos":11866,"Ġanade":11867,"Ġenlazar":11868,"Ġbarata":11869,"Ġinexistente":11870,"Ġobservar":11871,"Ġmysterio":11872,"Ġpacto":11873,"Ġdecapi":11874,"Ġeternidad":11875,"Ġmismisimo":11876,"Ġbotella":11877,"Ġevangel":11878,"Ġenviado":11879,"Ġnovedad":11880,"Ġpastelos":11881,"Ġhipno":11882,"Ġmilag":11883,"Ġdallas":11884,"Ġvibran":11885,"Ġfeminismo":11886,"Ġwithout":11887,"Ġkhadgar":11888,"Ġacojona":11889,"Ġfruto":11890,"Ġregulera":11891,"Ġmediocres":11892,"Ġplataforma":11893,"Ġrobbie":11894,"Ġpropagan":11895,"Ġmachete":11896,"Ġrevientan":11897,"Ġinsopor":11898,"Ġradagast":11899,"Ġnaufra":11900,"cue":11901,"dimension":11902,"fix":11903,"ifico":11904,"lf":11905,"mu":11906,"mal":11907,"pien":11908,"pso":11909,"su":11910,"ston":11911,"sby":11912,"vemente":11913,"ylan":11914,"zara":11915,"Ġilo":11916,"Ġew":11917,"Ġpg":11918,"Ġpj":11919,"Ġpuentes":11920,"Ġdulce":11921,"Ġsmo":11922,"Ġcaj":11923,"Ġcima":11924,"Ġcajas":11925,"Ġciber":11926,"Ġquejo":11927,"Ġestim":11928,"Ġestoma":11929,"Ġye":11930,"iccion":11931,"icanos":11932,"Ġnotan":11933,"Ġfich":11934,"Ġmetas":11935,"Ġconci":11936,"Ġalber":11937,"Ġalerta":11938,"Ġparty":11939,"Ġoz":11940,"Ġsiren":11941,"Ġsuposicion":11942,"Ġindom":11943,"Ġmutt":11944,"abar":11945,"chu":11946,"got":11947,"Ġestabas":11948,"Ġlead":11949,"Ġleav":11950,"Ġletter":11951,"ieramos":11952,"Ġjose":11953,"Ġdespo":11954,"trales":11955,"Ġwp":11956,"Ġwanted":11957,"emas":11958,"Ġpok":11959,"Ġpodias":11960,"Ġacanti":11961,"turi":11962,"igna":11963,"Ġthose":11964,"Ġmiro":11965,"may":11966,"Ġdila":11967,"ditas":11968,"diana":11969,"tensen":11970,"Ġpropone":11971,"Ġhabre":11972,"Ġxxi":11973,"Ġcrecer":11974,"Ġsalve":11975,"derberg":11976,"Ġquo":11977,"Ġvege":11978,"landose":11979,"Ġpasados":11980,"Ġhepta":11981,"set":11982,"Ġcolado":11983,"Ġcagan":11984,"Ġvisi":11985,"Ġkor":11986,"Ġcascos":11987,"Ġcasablan":11988,"Ġcarica":11989,"Ġamos":11990,"Ġrazas":11991,"Ġabro":11992,"Ġabusa":11993,"Ġmarketing":11994,"Ġforman":11995,"Ġpaco":11996,"Ġ108":11997,"Ġguia":11998,"gara":11999,"Ġvengarse":12000,"Ġcorderos":12001,"Ġnegar":12002,"Ġgranja":12003,"Ġaparato":12004,"bey":12005,"Ġgrado":12006,"pected":12007,"Ġincone":12008,"Ġirra":12009,"Ġirlan":12010,"Ġdarnos":12011,"Ġcabra":12012,"Ġcables":12013,"Ġ77":12014,"Ġ63":12015,"Ġcannes":12016,"Ġquedaban":12017,"Ġbody":12018,"geist":12019,"Ġintentos":12020,"Ġuff":12021,"Ġempa":12022,"Ġempan":12023,"tirse":12024,"Ġcriterio":12025,"Ġpesa":12026,"Ġhermos":12027,"Ġrepas":12028,"Ġepicos":12029,"Ġgeneroso":12030,"Ġbaron":12031,"chach":12032,"Ġideales":12033,"Ġjustin":12034,"Ġband":12035,"Ġbandera":12036,"Ġgodard":12037,"Ġshell":12038,"Ġfundido":12039,"Ġjump":12040,"dance":12041,"Ġnecesidades":12042,"Ġsangu":12043,"Ġtrun":12044,"Ġtrom":12045,"Ġwhile":12046,"Ġresultan":12047,"Ġsalvable":12048,"Ġfantasmada":12049,"Ġfotograma":12050,"Ġatlan":12051,"Ġcometer":12052,"Ġsiglos":12053,"Ġmeterme":12054,"Ġescrib":12055,"Ġcuernos":12056,"Ġcomentare":12057,"Ġlogran":12058,"Ġmataba":12059,"Ġbonus":12060,"Ġaburrimiento":12061,"Ġproducciones":12062,"Ġolvide":12063,"Ġmiran":12064,"Ġmads":12065,"Ġdiras":12066,"Ġcrudo":12067,"Ġtropas":12068,"Ġgaza":12069,"Ġfeder":12070,"Ġinvencible":12071,"Ġrepartiendo":12072,"Ġelegida":12073,"Ġentraron":12074,"Ġcurra":12075,"Ġaceptan":12076,"Ġpelean":12077,"Ġ1996":12078,"Ġsilver":12079,"Ġflipas":12080,"Ġfollando":12081,"Ġpsicologo":12082,"Ġchapu":12083,"Ġcuadros":12084,"Ġcuriosos":12085,"Ġrepresentan":12086,"Ġ1982":12087,"Ġ1986":12088,"Ġdominar":12089,"Ġarea":12090,"Ġrusso":12091,"Ġliston":12092,"Ġreactor":12093,"Ġechan":12094,"Ġsirv":12095,"Ġevoluciona":12096,"Ġhallow":12097,"Ġsword":12098,"Ġmisteriosa":12099,"Ġavispa":12100,"Ġcogerlo":12101,"Ġdeseos":12102,"Ġspy":12103,"zzzz":12104,"Ġlogrados":12105,"Ġpirata":12106,"Ġtruman":12107,"Ġblunt":12108,"Ġfieles":12109,"Ġabandono":12110,"Ġenamorada":12111,"Ġoficina":12112,"Ġchirrian":12113,"dnight":12114,"Ġcansan":12115,"Ġcetro":12116,"brando":12117,"Ġligero":12118,"Ġfamosos":12119,"Ġsepara":12120,"Ġplasmar":12121,"Ġseptimo":12122,"Ġaprovechar":12123,"Ġenvidia":12124,"Ġviggo":12125,"Ġdiffer":12126,"fique":12127,"Ġurb":12128,"Ġmultiple":12129,"Ġrellenar":12130,"Ġsopori":12131,"Ġsimbolismo":12132,"Ġlooking":12133,"Ġretrasados":12134,"Ġcontestar":12135,"Ġimaginate":12136,"Ġxenos":12137,"Ġspeed":12138,"Ġintuye":12139,"Ġchirriado":12140,"Ġoldboy":12141,"Ġobsesionado":12142,"Ġmetidas":12143,"Ġjonathan":12144,"iiiiiiii":12145,"Ġdesnudo":12146,"Ġkenne":12147,"Ġquejais":12148,"Ġprotocolo":12149,"Ġkaren":12150,"Ġdecae":12151,"Ġasiatico":12152,"Ġnights":12153,"Ġgratuito":12154,"Ġreboot":12155,"Ġarchivo":12156,"Ġbreaking":12157,"Ġdesolacion":12158,"Ġjuzgar":12159,"Ġpunetazos":12160,"Ġdespacho":12161,"Ġhuellas":12162,"Ġcohetes":12163,"Ġinnov":12164,"Ġvehiculo":12165,"Ġvehiculos":12166,"Ġflores":12167,"Ġconcentracion":12168,"Ġjohansson":12169,"Ġtsun":12170,"Ġfriend":12171,"Ġfriends":12172,"Ġdificultad":12173,"Ġradical":12174,"Ġzapatos":12175,"Ġeffec":12176,"Ġminimamente":12177,"Ġproducers":12178,"Ġescasos":12179,"Ġzeus":12180,"Ġsicario":12181,"Ġsimilitudes":12182,"Ġbraveheart":12183,"ject":12184,"Ġkarate":12185,"Ġmurcielago":12186,"Ġindomin":12187,"Ġkaminski":12188,"Ġerebor":12189,"Ġfelicity":12190,"Ġkelly":12191,"Ġmayusculas":12192,"Ġaudiovisual":12193,"Ġfidelidad":12194,"Ġametral":12195,"Ġprejuicios":12196,"Ġinsoportable":12197,"Ġheptapo":12198,"cl":12199,"cn":12200,"gw":12201,"gias":12202,"nir":12203,"vec":12204,"xa":12205,"xe":12206,"Ġero":12207,"Ġevolu":12208,"Ġeames":12209,"Ġliado":12210,"Ġss":12211,"ueve":12212,"Ġdegen":12213,"aste":12214,"oran":12215,"inera":12216,"Ġenro":12217,"Ġvien":12218,"Ġunex":12219,"teado":12220,"Ġbizar":12221,"Ġsever":12222,"Ġmea":12223,"Ġmeme":12224,"Ġmecha":12225,"Ġmeet":12226,"Ġconcierto":12227,"Ġconquista":12228,"iense":12229,"Ġparten":12230,"Ġpartia":12231,"Ġotor":12232,"Ġperdicion":12233,"Ġrevolu":12234,"Ġreducido":12235,"Ġrequiere":12236,"Ġsida":12237,"Ġsuc":12238,"ecemos":12239,"Ġinvis":12240,"usos":12241,"andote":12242,"tiria":12243,"rita":12244,"Ġmastic":12245,"Ġjin":12246,"Ġsoko":12247,"Ġsoderberg":12248,"iriendo":12249,"Ġwings":12250,"Ġwreck":12251,"Ġacomo":12252,"Ġmidnight":12253,"Ġproof":12254,"Ġmatones":12255,"Ġcrecido":12256,"tesy":12257,"Ġrs":12258,"Ġtraido":12259,"Ġcoc":12260,"Ġcocin":12261,"Ġtiem":12262,"Ġsonris":12263,"aticas":12264,"Ġku":12265,"Ġkath":12266,"Ġresena":12267,"Ġmentes":12268,"Ġcasti":12269,"Ġcasado":12270,"Ġmisiones":12271,"Ġcarn":12272,"Ġrow":12273,"Ġprees":12274,"Ġhank":12275,"Ġabr":12276,"Ġmarci":12277,"Ġmartian":12278,"Ġmaricon":12279,"Ġdag":12280,"Ġdistr":12281,"Ġsusten":12282,"Ġputisima":12283,"Ġ106":12284,"Ġorques":12285,"Ġpenn":12286,"Ġponeis":12287,"Ġ426":12288,"Ġinterno":12289,"Ġimpone":12290,"Ġcorrom":12291,"Ġterres":12292,"Ġmuertas":12293,"Ġsaul":12294,"Ġcompensa":12295,"bots":12296,"Ġminor":12297,"Ġconscientes":12298,"Ġcaminar":12299,"Ġ82":12300,"Ġ89":12301,"Ġ74":12302,"Ġhours":12303,"tillos":12304,"Ġboba":12305,"Ġ1960":12306,"Ġintentaba":12307,"Ġhomo":12308,"Ġempres":12309,"Ġcontraa":12310,"Ġrepos":12311,"Ġtrastorno":12312,"Ġpiva":12313,"Ġadre":12314,"Ġbarbos":12315,"Ġideo":12316,"Ġinspira":12317,"Ġinspiracion":12318,"Ġjudios":12319,"Ġintereses":12320,"Ġcolina":12321,"Ġtarea":12322,"Ġconform":12323,"Ġcerdos":12324,"Ġperfect":12325,"Ġmatara":12326,"Ġpreguntan":12327,"Ġtaken":12328,"Ġocurriendo":12329,"Ġsoltado":12330,"Ġdiger":12331,"Ġempiezas":12332,"Ġfamilias":12333,"Ġviej":12334,"Ġcomparten":12335,"Ġcompararla":12336,"Ġactuando":12337,"Ġmirate":12338,"Ġatis":12339,"post":12340,"Ġcentran":12341,"Ġkeira":12342,"Ġderre":12343,"Ġfranc":12344,"credi":12345,"Ġrecuerdas":12346,"Ġclaus":12347,"Ġfuncionado":12348,"Ġbuho":12349,"Ġcontrolado":12350,"Ġdestruida":12351,"Ġtrooper":12352,"Ġterrorista":12353,"Ġrenun":12354,"Ġemocionalmente":12355,"Ġescuadron":12356,"head":12357,"Ġpersiguen":12358,"Ġbajan":12359,"Ġbrilla":12360,"Ġinglater":12361,"Ġmolaba":12362,"Ġdesconf":12363,"Ġ1992":12364,"Ġayudado":12365,"Ġbrody":12366,"Ġbrolin":12367,"Ġintentare":12368,"Ġdesaparecen":12369,"Ġrecomendaciones":12370,"Ġsufri":12371,"Ġsufriendo":12372,"Ġpractic":12373,"Ġpractica":12374,"Ġavanzando":12375,"Ġingleses":12376,"Ġcirco":12377,"Ġrepresentado":12378,"Ġ1981":12379,"Ġnecesitamos":12380,"Ġcomerse":12381,"Ġapuntar":12382,"Ġfargo":12383,"Ġcoincide":12384,"Ġalterar":12385,"Ġdigais":12386,"Ġspring":12387,"Ġgemela":12388,"ppie":12389,"hhh":12390,"Ġestrenos":12391,"Ġlinklater":12392,"Ġabandonar":12393,"Ġautenticos":12394,"Ġhimself":12395,"Ġprefier":12396,"Ġagent":12397,"Ġchinatown":12398,"Ġesqueleto":12399,"Ġfiestas":12400,"Ġprogramacion":12401,"Ġcomentais":12402,"Ġevento":12403,"Ġespias":12404,"Ġparalelas":12405,"Ġnegras":12406,"Ġnegativa":12407,"Ġescuchan":12408,"Ġfiguras":12409,"Ġcapacidades":12410,"Ġjustificado":12411,"Ġknows":12412,"Ġgrabando":12413,"Ġargumentalmente":12414,"Ġnucleo":12415,"Ġcalibre":12416,"Ġcalifor":12417,"Ġdedican":12418,"Ġlocalizacion":12419,"Ġserpientes":12420,"Ġascenso":12421,"Ġadmiracion":12422,"aaaaaaaaaaaaaaaa":12423,"Ġparticularmente":12424,"Ġancianos":12425,"Ġcausado":12426,"Ġrecreacion":12427,"Ġcampamento":12428,"Ġansia":12429,"Ġjimmy":12430,"Ġacuerdas":12431,"Ġboxeo":12432,"Ġprincess":12433,"Ġitaliano":12434,"Ġaborto":12435,"Ġdestripa":12436,"Ġciclope":12437,"Ġenlaza":12438,"Ġreport":12439,"Ġmurieron":12440,"Ġgeneticamente":12441,"Ġmecanismo":12442,"Ġandroides":12443,"Ġtyler":12444,"Ġempezamos":12445,"Ġidentificado":12446,"Ġdesnuda":12447,"Ġvendetta":12448,"Ġexclusiva":12449,"Ġcronologico":12450,"Ġmystic":12451,"Ġcombinacion":12452,"Ġmusicales":12453,"Ġperseguir":12454,"Ġenvuel":12455,"https":12456,"Ġcourtesy":12457,"Ġpsiquiatra":12458,"Ġhateful":12459,"Ġflynn":12460,"Ġdesactiv":12461,"Ġastronautas":12462,"Ġtradicional":12463,"Ġdenuncia":12464,"Ġpropiedad":12465,"Ġtranquilos":12466,"Ġsupremo":12467,"Ġveterano":12468,"Ġbrooklyn":12469,"Ġintercambio":12470,"Ġdurmiendo":12471,"Ġsleep":12472,"Ġenreves":12473,"Ġpueblos":12474,"Ġsimbion":12475,"Ġparacaidas":12476,"Ġlebowski":12477,"Ġheaven":12478,"Ġvasijas":12479,"Ġjeremy":12480,"Ġesquizofren":12481,"Ġrorschach":12482,"Ġvibranium":12483,"Ġestomago":12484,"Ġcasablanca":12485,"Ġindominus":12486,"Ġunexpected":12487,"Ġsoderbergh":12488,"Ġinglaterra":12489,"720":12490,"bon":12491,"cb":12492,"ct":12493,"dj":12494,"digos":12495,"ith":12496,"nando":12497,"ola":12498,"pv":12499,"plo":12500,"pier":12501,"qe":12502,"ser":12503,"vidad":12504,"yera":12505,"Ġeri":12506,"Ġeach":12507,"Ġplen":12508,"Ġdime":12509,"Ġdorado":12510,"Ġsano":12511,"Ġach":12512,"Ġafer":12513,"Ġapuesto":12514,"Ġafortun":12515,"erdo":12516,"Ġdecep":12517,"Ġdevil":12518,"enan":12519,"queen":12520,"andes":12521,"Ġquejarse":12522,"Ġespon":12523,"Ġvim":12524,"icom":12525,"Ġunidad":12526,"Ġunirse":12527,"teando":12528,"Ġfib":12529,"ision":12530,"isher":12531,"Ġmedian":12532,"ils":12533,"Ġalo":12534,"Ġaler":12535,"Ġalca":12536,"Ġaltamente":12537,"Ġalways":12538,"Ġreden":12539,"Ġremi":12540,"lex":12541,"Ġtopo":12542,"Ġtoge":12543,"Ġtown":12544,"Ġinol":12545,"Ġindio":12546,"Ġinmer":12547,"tique":12548,"tivi":12549,"Ġcutr":12550,"ritos":12551,"Ġleal":12552,"adisima":12553,"Ġdesil":12554,"Ġdesea":12555,"Ġwer":12556,"Ġwind":12557,"tancial":12558,"Ġthough":12559,"Ġmiticas":12560,"Ġmikk":12561,"Ġdiese":12562,"Ġserkis":12563,"Ġexquis":12564,"Ġextermin":12565,"Ġpren":12566,"Ġprodig":12567,"Ġasomo":12568,"Ġaspira":12569,"Ġasfix":12570,"Ġpasamos":12571,"Ġtratara":12572,"Ġtraducido":12573,"Ġcapo":12574,"Ġ333":12575,"Ġkin":12576,"Ġmalfoy":12577,"Ġchul":12578,"Ġchiqu":12579,"Ġmanual":12580,"cero":12581,"Ġprime":12582,"Ġrojos":12583,"Ġramas":12584,"Ġraid":12585,"Ġjoyas":12586,"Ġabom":12587,"Ġabras":12588,"Ġmoth":12589,"umer":12590,"Ġpudiendo":12591,"Ġguitar":12592,"Ġpuntuales":12593,"Ġduran":12594,"Ġinteriores":12595,"time":12596,"mejor":12597,"Ġsuperf":12598,"Ġsupervis":12599,"Ġnefas":12600,"renal":12601,"Ġgrant":12602,"Ġmuerde":12603,"Ġsapien":12604,"Ġminus":12605,"Ġfiltrado":12606,"Ġhoja":12607,"Ġestandar":12608,"itre":12609,"Ġusaban":12610,"Ġrifle":12611,"Ġmordor":12612,"Ġmortales":12613,"Ġ98":12614,"Ġvuelvan":12615,"Ġcambias":12616,"Ġpesados":12617,"Ġvalla":12618,"Ġliving":12619,"Ġgane":12620,"Ġsacas":12621,"Ġdennis":12622,"Ġepvi":12623,"Ġtenerlo":12624,"Ġadrenal":12625,"Ġfacep":12626,"Ġjustic":12627,"Ġaub":12628,"Ġiss":12629,"Ġisrael":12630,"Ġinsec":12631,"Ġambic":12632,"Ġambul":12633,"Ġtardar":12634,"dandose":12635,"Ġexplicito":12636,"Ġconfies":12637,"Ġpanor":12638,"Ġpantal":12639,"Ġmatarse":12640,"Ġtapa":12641,"Ġsolido":12642,"Ġtorrente":12643,"Ġdebian":12644,"Ġsimul":12645,"Ġrealidades":12646,"Ġentertain":12647,"urada":12648,"Ġanimados":12649,"isteis":12650,"Ġfantastic":12651,"Ġ130":12652,"Ġenfrente":12653,"Ġdern":12654,"Ġmuchacha":12655,"Ġdisfrutando":12656,"Ġpierdes":12657,"Ġvillana":12658,"Ġepisode":12659,"Ġproducen":12660,"alez":12661,"Ġbrutalidad":12662,"Ġflojos":12663,"Ġpietro":12664,"Ġtrope":12665,"Ġfett":12666,"Ġllamando":12667,"Ġtemia":12668,"Ġencontraron":12669,"Ġmedium":12670,"Ġfirma":12671,"Ġlinterna":12672,"Ġbrando":12673,"Ġdefinir":12674,"Ġsobrino":12675,"Ġdiversas":12676,"Ġblancos":12677,"Ġllevarlo":12678,"Ġdesconcer":12679,"Ġ1991":12680,"Ġenemy":12681,"Ġsufrido":12682,"Ġwalking":12683,"Ġcontag":12684,"Ġartista":12685,"Ġupload":12686,"Ġreconocimiento":12687,"Ġtristes":12688,"Ġentienden":12689,"Ġcorrectamente":12690,"Ġmcqueen":12691,"Ġlistos":12692,"Ġdespertado":12693,"Ġquiten":12694,"Ġcomprensible":12695,"Ġtrucos":12696,"Ġbols":12697,"Ġblin":12698,"Ġabandonada":12699,"Ġlideres":12700,"Ġrango":12701,"Ġtripul":12702,"Ġderrotado":12703,"Ġpilotos":12704,"Ġalcantar":12705,"Ġadolescencia":12706,"Ġdvdrip":12707,"Ġdesarrolle":12708,"Ġmoderno":12709,"Ġparalelos":12710,"Ġentranable":12711,"Ġescuchando":12712,"Ġhamill":12713,"Ġexpresiones":12714,"Ġclone":12715,"Ġarriesgar":12716,"Ġgunn":12717,"Ġscifi":12718,"Ġdisfraz":12719,"Ġcogiendo":12720,"Ġredondo":12721,"Ġpatata":12722,"Ġhuesped":12723,"Ġincoherente":12724,"Ġalumno":12725,"Ġgatsby":12726,"Ġinexplic":12727,"Ġservice":12728,"Ġatractiva":12729,"Ġbarbosa":12730,"Ġcronologia":12731,"Ġrepetitiva":12732,"Ġnegocios":12733,"Ġpeligrosa":12734,"Ġminiser":12735,"Ġtrolls":12736,"worth":12737,"Ġexplorar":12738,"Ġrechazo":12739,"Ġtraining":12740,"Ġcafeteria":12741,"Ġcomunicarse":12742,"Ġpermiso":12743,"Ġonirico":12744,"Ġinternational":12745,"Ġdesagradable":12746,"Ġtells":12747,"Ġparrafo":12748,"Ġdaisy":12749,"Ġspotlight":12750,"Ġfondos":12751,"volta":12752,"Ġengineer":12753,"Ġdesperdicio":12754,"Ġforeign":12755,"Ġindividuo":12756,"Ġdescifrar":12757,"Ġsperm":12758,"Ġneutral":12759,"Ġevacu":12760,"Ġkriptonita":12761,"Ġconvincente":12762,"Ġcisne":12763,"Ġdescabellado":12764,"Ġreencuentro":12765,"Ġconnery":12766,"Ġacredi":12767,"Ġcavill":12768,"Ġgonzalez":12769,"Ġtuerca":12770,"Ġbarriles":12771,"Ġluminoso":12772,"Ġvillene":12773,"Ġrtve":12774,"Ġkinepolis":12775,"Ġmortifagos":12776,"espacio":12777,"Ġsource":12778,"Ġsokovia":12779,"Ġwreckage":12780,"Ġbarbossa":12781,"Ġtogether":12782,"Ġmikkelsen":12783,"Ġfacepal":12784,"cing":12785,"camiento":12786,"dillas":12787,"fana":12788,"gencia":12789,"kar":12790,"mn":12791,"pt":12792,"rilla":12793,"uk":12794,"umo":12795,"Ġpc":12796,"Ġscho":12797,"Ġslum":12798,"Ġajo":12799,"Ġaton":12800,"Ġcil":12801,"ense":12802,"Ġestir":12803,"Ġhes":12804,"down":12805,"Ġnico":12806,"Ġnine":12807,"inario":12808,"Ġenmar":12809,"Ġellen":12810,"Ġvu":12811,"aldad":12812,"telo":12813,"Ġnothing":12814,"Ġfrec":12815,"Ġfrost":12816,"istica":12817,"Ġcontaba":12818,"Ġconquis":12819,"Ġhaters":12820,"Ġgin":12821,"Ġalbert":12822,"roll":12823,"Ġoiga":12824,"Ġodios":12825,"Ġcomments":12826,"Ġportada":12827,"Ġreia":12828,"Ġreten":12829,"Ġsitua":12830,"Ġsure":12831,"Ġsupo":12832,"Ġsuther":12833,"amund":12834,"Ġtotoro":12835,"Ġintr":12836,"Ġinsegu":12837,"uscan":12838,"Ġmuti":12839,"tire":12840,"rique":12841,"Ġestafa":12842,"Ġletra":12843,"Ġlegado":12844,"Ġjemp":12845,"Ġjill":12846,"irante":12847,"tromo":12848,"Ġpoes":12849,"Ġacces":12850,"tarios":12851,"igen":12852,"ajada":12853,"Ġdiana":12854,"track":12855,"Ġservi":12856,"peras":12857,"dies":12858,"Ġpropon":12859,"Ġmatas":12860,"Ġfinalizar":12861,"gate":12862,"Ġtendencia":12863,"Ġsaliese":12864,"Ġtek":12865,"Ġqua":12866,"Ġquan":12867,"Ġquise":12868,"trolls":12869,"Ġpasaban":12870,"Ġpasillos":12871,"Ġtravolta":12872,"Ġhey":12873,"Ġcazas":12874,"Ġsonador":12875,"Ġvisible":12876,"Ġkana":12877,"Ġmales":12878,"Ġmaloso":12879,"Ġmalko":12880,"Ġarono":12881,"Ġdicta":12882,"Ġmiss":12883,"Ġcarton":12884,"Ġcargada":12885,"Ġrecla":12886,"pies":12887,"pito":12888,"Ġroll":12889,"Ġrouge":12890,"Ġpredis":12891,"Ġraw":12892,"Ġjoan":12893,"Ġjoden":12894,"Ġaberra":12895,"Ġmodes":12896,"Ġdaily":12897,"Ġdejarse":12898,"Ġdispos":12899,"izarse":12900,"Ġforz":12901,"Ġguidorah":12902,"Ġpenelo":12903,"Ġpendientes":12904,"Ġdobles":12905,"Ġvence":12906,"Ġosborn":12907,"timos":12908,"Ġcortas":12909,"Ġfallado":12910,"Ġtubo":12911,"graph":12912,"Ġverdaderos":12913,"Ġsauco":12914,"Ġaparente":12915,"Ġaparezcan":12916,"Ġcompos":12917,"Ġcomprado":12918,"illera":12919,"Ġnostromo":12920,"zog":12921,"Ġlibra":12922,"Ġconspiracion":12923,"Ġmona":12924,"Ġmonono":12925,"Ġcaminos":12926,"Ġ616":12927,"Ġhoyo":12928,"Ġ1957":12929,"Ġnueve":12930,"Ġvolcan":12931,"desuper":12932,"Ġmorena":12933,"Ġconozca":12934,"Ġencantando":12935,"Ġsuponiendo":12936,"ffaut":12937,"Ġcaleb":12938,"Ġganaria":12939,"Ġsacarse":12940,"Ġbruta":12941,"Ġbrujo":12942,"Ġonda":12943,"Ġgenerar":12944,"Ġadicion":12945,"Ġwarren":12946,"Ġaura":12947,"Ġaudi":12948,"Ġstarwars":12949,"Ġisa":12950,"Ġshel":12951,"Ġdani":12952,"Ġinsis":12953,"Ġcold":12954,"Ġcolgado":12955,"adoras":12956,"dantes":12957,"Ġejemplar":12958,"ducen":12959,"Ġsantia":12960,"Ġsandra":12961,"Ġcerve":12962,"Ġmeryl":12963,"Ġllore":12964,"Ġnominados":12965,"Ġtapar":12966,"Ġolor":12967,"Ġolvidad":12968,"Ġocurria":12969,"Ġjuntan":12970,"ichi":12971,"Ġsensacional":12972,"Ġcaptu":12973,"Ġultimate":12974,"Ġmosca":12975,"Ġentenderia":12976,"Ġrelacionada":12977,"Ġcompara":12978,"Ġcentrarse":12979,"Ġkeanu":12980,"Ġmagicas":12981,"Ġcuerdas":12982,"Ġguardias":12983,"Ġtemprano":12984,"Ġproduction":12985,"Ġacercar":12986,"Ġmolon":12987,"Ġmolar":12988,"Ġrapidas":12989,"Ġshows":12990,"Ġimpresiona":12991,"Ġincredible":12992,"Ġmadres":12993,"Ġmaduro":12994,"Ġpublish":12995,"Ġcruce":12996,"Ġleerme":12997,"Ġinfinita":12998,"Ġmedidas":12999,"Ġ2439":13000,"Ġprofundos":13001,"Ġenganchar":13002,"drama":13003,"Ġlincol":13004,"Ġavaricia":13005,"Ġelef":13006,"Ġbuscarlo":13007,"Ġdescontro":13008,"Ġsobreviva":13009,"Ġsobreviven":13010,"Ġsucediendo":13011,"Ġintentaron":13012,"Ġflipante":13013,"Ġtesis":13014,"mmm":13015,"Ġhagais":13016,"Ġmezclar":13017,"Ġcuadran":13018,"Ġfreak":13019,"Ġensenado":13020,"Ġsosten":13021,"Ġredim":13022,"Ġrosamund":13023,"Ġrastre":13024,"Ġgastado":13025,"Ġrecurrir":13026,"Ġdescargar":13027,"Ġcoincidencia":13028,"Ġsecundaria":13029,"Ġnarrativo":13030,"Ġescoger":13031,"Ġviniendo":13032,"Ġvamonos":13033,"Ġwait":13034,"Ġjulia":13035,"Ġtruffaut":13036,"Ġprisas":13037,"Ġbombo":13038,"Ġexpectacion":13039,"Ġafectado":13040,"Ġesperais":13041,"cindibles":13042,"enstein":13043,"Ġvaloracion":13044,"Ġranking":13045,"Ġwook":13046,"Ġquince":13047,"Ġenfocar":13048,"Ġreventando":13049,"Ġhunde":13050,"Ġwinner":13051,"Ġscore":13052,"Ġfaceta":13053,"Ġbradley":13054,"Ġ007":13055,"Ġeliminado":13056,"Ġalargado":13057,"Ġ1963":13058,"Ġschwar":13059,"Ġreligiosa":13060,"Ġscenes":13061,"Ġexpresar":13062,"Ġcalific":13063,"Ġfranceses":13064,"Ġspeech":13065,"Ġmunecos":13066,"Ġcamioneta":13067,"Ġpegarle":13068,"Ġblogdesuper":13069,"Ġboxtrolls":13070,"Ġinfernal":13071,"Ġholoca":13072,"Ġmuriese":13073,"Ġcatapul":13074,"Ġestudiante":13075,"Ġgravita":13076,"Ġgonna":13077,"Ġtabla":13078,"Ġayudando":13079,"Ġenormemente":13080,"Ġoceano":13081,"Ġimpresiones":13082,"Ġreencar":13083,"Ġasquerosa":13084,"Ġsmall":13085,"Ġnecesariamente":13086,"Ġmafioso":13087,"Ġmafiosos":13088,"Ġbowcol":13089,"Ġgerman":13090,"Ġinmensa":13091,"Ġretirado":13092,"Ġpluma":13093,"Ġcolumna":13094,"Ġextraordinaria":13095,"Ġindustri":13096,"fsky":13097,"Ġentusiasmo":13098,"Ġabiertos":13099,"Ġconceptos":13100,"Ġroberto":13101,"Ġenvejecido":13102,"Ġrebuscado":13103,"Ġerase":13104,"taneamente":13105,"Ġelliott":13106,"Ġmasculino":13107,"Ġcostumbre":13108,"Ġcapturar":13109,"Ġwelles":13110,"Ġopinais":13111,"Ġcicatriz":13112,"Ġencuad":13113,"Ġherramienta":13114,"Ġvagabundo":13115,"Ġproporcion":13116,"Ġmalvinas":13117,"Ġboogie":13118,"Ġcrash":13119,"Ġirrelevante":13120,"Ġpolanski":13121,"Ġcamiseta":13122,"Ġgrima":13123,"Ġinternacional":13124,"Ġbergman":13125,"Ġcomedy":13126,"Ġambiguedad":13127,"Ġpropaganda":13128,"Ġhalloween":13129,"Ġpreestreno":13130,"Ġfrancamente":13131,"Ġvimeo":13132,"Ġadrenalina":13133,"Ġentertainment":13134,"Ġvilleneuve":13135,"Ġsutherland":13136,"Ġjemplo":13137,"Ġaronofsky":13138,"Ġpenelope":13139,"Ġlincoln":13140,"Ġblogdesuperheroes":13141,"aire":13142,"cw":13143,"ctor":13144,"ever":13145,"hm":13146,"hy":13147,"irian":13148,"jen":13149,"jita":13150,"ov":13151,"ppe":13152,"qw":13153,"star":13154,"Ġez":13155,"Ġpab":13156,"Ġpaj":13157,"Ġdors":13158,"Ġspec":13159,"Ġsuela":13160,"ueta":13161,"Ġaul":13162,"Ġaje":13163,"Ġcusto":13164,"Ġdeal":13165,"Ġdetes":13166,"Ġmim":13167,"Ġmck":13168,"onies":13169,"osamente":13170,"aro":13171,"Ġqueman":13172,"Ġquejan":13173,"Ġhiber":13174,"dow":13175,"Ġyes":13176,"iner":13177,"inista":13178,"Ġelys":13179,"ici":13180,"icana":13181,"iciar":13182,"Ġuntil":13183,"Ġuncredi":13184,"cilla":13185,"Ġnoe":13186,"Ġff":13187,"Ġflic":13188,"Ġsets":13189,"law":13190,"Ġconcepcion":13191,"Ġhadas":13192,"Ġhammer":13193,"Ġaliado":13194,"Ġparen":13195,"Ġpares":13196,"Ġparecera":13197,"Ġsupe":13198,"Ġsumado":13199,"imag":13200,"loga":13201,"lopez":13202,"Ġinvo":13203,"ust":13204,"tigos":13205,"Ġparade":13206,"Ġjas":13207,"Ġjab":13208,"Ġdesqu":13209,"Ġdespol":13210,"trumen":13211,"Ġwong":13212,"Ġverdu":13213,"Ġverosim":13214,"Ġaction":13215,"Ġthunder":13216,"Ġthomp":13217,"Ġfines":13218,"Ġmiticos":13219,"Ġescomb":13220,"torias":13221,"Ġdivid":13222,"Ġdivision":13223,"traciones":13224,"Ġservido":13225,"Ġexteriores":13226,"Ġmakes":13227,"Ġastu":13228,"dosa":13229,"Ġcreci":13230,"Ġsalon":13231,"Ġsaltado":13232,"Ġsincron":13233,"Ġrho":13234,"Ġtrains":13235,"Ġhelado":13236,"Ġheath":13237,"ciacion":13238,"Ġbuenisimas":13239,"Ġsonre":13240,"aticamente":13241,"Ġmaldad":13242,"Ġbases":13243,"Ġbasicos":13244,"Ġmanio":13245,"Ġiva":13246,"Ġhuyen":13247,"Ġmist":13248,"Ġcargue":13249,"Ġcarteles":13250,"Ġrecta":13251,"Ġpetro":13252,"Ġpegaba":13253,"Ġjoer":13254,"Ġaber":13255,"Ġabar":13256,"Ġmoul":13257,"Ġmarlon":13258,"Ġdaw":13259,"Ġpape":13260,"Ġsusur":13261,"Ġmomentazos":13262,"Ġhaceis":13263,"Ġoran":13264,"Ġdecidieron":13265,"Ġlucy":13266,"Ġeramos":13267,"Ġdoce":13268,"Ġespereis":13269,"Ġesperabamos":13270,"Ġimprim":13271,"timiento":13272,"Ġcoral":13273,"Ġcoruscan":13274,"Ġsuperlopez":13275,"Ġcinefil":13276,"Ġfalsas":13277,"Ġapart":13278,"recen":13279,"Ġposts":13280,"Ġcompens":13281,"ills":13282,"gantes":13283,"Ġcierran":13284,"idamente":13285,"Ġ72":13286,"Ġ600":13287,"Ġhot":13288,"Ġcuente":13289,"Ġcuenten":13290,"Ġemi":13291,"Ġembo":13292,"Ġcantoso":13293,"Ġseguros":13294,"Ġseguidas":13295,"Ġseguira":13296,"Ġusaba":13297,"Ġvolvia":13298,"Ġmorse":13299,"tinas":13300,"Ġcalma":13301,"Ġcalcula":13302,"Ġimagine":13303,"Ġllevaron":13304,"Ġcomenzo":13305,"Ġherzog":13306,"Ġbetter":13307,"Ġgancho":13308,"giados":13309,"Ġbattles":13310,"Ġtomarse":13311,"Ġzem":13312,"Ġentendia":13313,"Ġrepu":13314,"Ġrepleta":13315,"Ġpiden":13316,"Ġgenerado":13317,"Ġadminis":13318,"Ġimporte":13319,"Ġbarri":13320,"Ġgozada":13321,"Ġgoonies":13322,"Ġstars":13323,"Ġshit":13324,"Ġfundador":13325,"Ġinstan":13326,"Ġinstrumen":13327,"Ġjude":13328,"Ġtars":13329,"Ġrecorda":13330,"Ġrefrito":13331,"Ġmerecer":13332,"Ġlars":13333,"Ġnominada":13334,"Ġoldman":13335,"Ġ120":13336,"Ġtorturas":13337,"Ġdeform":13338,"Ġenterrado":13339,"rimos":13340,"Ġcaptar":13341,"eptico":13342,"Ġplayer":13343,"Ġllegaria":13344,"Ġviajando":13345,"Ġ131":13346,"Ġcomparando":13347,"Ġeditada":13348,"Ġkey":13349,"Ġkeda":13350,"Ġderiv":13351,"Ġmeterte":13352,"Ġalegre":13353,"Ġatraccion":13354,"Ġciudadanos":13355,"Ġweir":13356,"Ġhost":13357,"Ġbondad":13358,"Ġdecorado":13359,"Ġclaire":13360,"Ġsobrada":13361,"Ġmadru":13362,"Ġmadure":13363,"Ġhulkbuster":13364,"Ġbordo":13365,"Ġinfinitas":13366,"Ġmaestros":13367,"Ġhumanoide":13368,"Ġtemporadas":13369,"Ġescuche":13370,"Ġinventada":13371,"Ġapoteos":13372,"Ġangry":13373,"Ġ250":13374,"Ġdiversion":13375,"Ġgaraje":13376,"Ġcristales":13377,"Ġtripo":13378,"Ġevita":13379,"Ġavanzado":13380,"Ġaporte":13381,"Ġdestrozando":13382,"Ġbalro":13383,"Ġ1989":13384,"Ġilusiones":13385,"Ġconvierta":13386,"Ġrasca":13387,"Ġimperdon":13388,"Ġmcc":13389,"Ġapuntando":13390,"Ġrepetido":13391,"Ġ1977":13392,"Ġdescarado":13393,"Ġextremos":13394,"Ġdama":13395,"Ġexperimentar":13396,"Ġequivocas":13397,"Ġpolter":13398,"Ġamantes":13399,"Ġextranjera":13400,"Ġdesarrollados":13401,"Ġfactura":13402,"Ġayudarle":13403,"Ġprovocado":13404,"Ġluchador":13405,"Ġconstruye":13406,"Ġacojonantes":13407,"Ġchirrio":13408,"Ġsilencios":13409,"Ġexcelentes":13410,"Ġligera":13411,"Ġexagerada":13412,"Ġpreocupado":13413,"Ġberlin":13414,"Ġcambiara":13415,"Ġsospecha":13416,"Ġsarcas":13417,"Ġinfantiles":13418,"Ġobligados":13419,"Ġscarface":13420,"Ġmachac":13421,"iness":13422,"viesen":13423,"Ġnucleares":13424,"Ġcarrey":13425,"Ġresucitado":13426,"Ġsensibilidad":13427,"Ġhomenajes":13428,"Ġmetalica":13429,"Ġtranscurso":13430,"Ġpatricia":13431,"Ġansias":13432,"Ġignorancia":13433,"Ġnavaja":13434,"Ġadoro":13435,"Ġsoberbio":13436,"Ġdune":13437,"Ġdestripar":13438,"Ġpredators":13439,"Ġbullock":13440,"Ġhipote":13441,"Ġrecauda":13442,"Ġrepetitivo":13443,"Ġsyd":13444,"Ġaislado":13445,"tadoras":13446,"Ġreapar":13447,"Ġfrozen":13448,"Ġtronco":13449,"Ġcopias":13450,"Ġcagarla":13451,"Ġnocturno":13452,"Ġpajaro":13453,"Ġasumir":13454,"Ġvulner":13455,"Ġinteraccion":13456,"Ġrequired":13457,"Ġaprovecho":13458,"nandez":13459,"Ġjejeje":13460,"Ġlimpiar":13461,"Ġengineers":13462,"Ġweapon":13463,"Ġdinamica":13464,"Ġclose":13465,"terminar":13466,"Ġincomodo":13467,"Ġsublimes":13468,"Ġexceptuando":13469,"Ġaudience":13470,"Ġdeshacer":13471,"Ġprohibido":13472,"Ġtrying":13473,"Ġopening":13474,"minutos":13475,"Ġdesafio":13476,"Ġpeliculones":13477,"Ġsubtramas":13478,"Ġimpedir":13479,"Ġdesgraciadamente":13480,"Ġlargometraje":13481,"Ġgiant":13482,"Ġpiramide":13483,"Ġeisenberg":13484,"Ġinherent":13485,"Ġnominated":13486,"Ġnicholson":13487,"Ġlagarto":13488,"Ġequivalente":13489,"Ġacantilado":13490,"Ġdifferent":13491,"Ġredencion":13492,"Ġslumdog":13493,"Ġpoesia":13494,"Ġmononoke":13495,"Ġholocausto":13496,"Ġelysium":13497,"Ġuncredited":13498,"Ġthompson":13499,"Ġcoruscant":13500,"bel":13501,"cta":13502,"cine":13503,"delo":13504,"llar":13505,"lero":13506,"lins":13507,"nibal":13508,"pm":13509,"py":13510,"pada":13511,"pher":13512,"rillo":13513,"tisimas":13514,"win":13515,"xter":13516,"yf":13517,"Ġice":13518,"Ġly":13519,"Ġslow":13520,"Ġator":13521,"erno":13522,"Ġmig":13523,"Ġquej":13524,"Ġlata":13525,"Ġlaugh":13526,"Ġhs":13527,"Ġnas":13528,"Ġnisi":13529,"rea":13530,"ret":13531,"Ġenes":13532,"Ġelo":13533,"cidamente":13534,"Ġnoto":13535,"rad":13536,"Ġfigu":13537,"Ġfather":13538,"Ġbs":13539,"Ġbull":13540,"omar":13541,"ises":13542,"istan":13543,"Ġsequen":13544,"Ġconces":13545,"Ġloc":13546,"Ġot":13547,"Ġportu":13548,"Ġperf":13549,"Ġperturb":13550,"Ġsix":13551,"Ġtocha":13552,"potting":13553,"chon":13554,"Ġcomodo":13555,"Ġjay":13556,"Ġdesm":13557,"Ġdespoiler":13558,"iros":13559,"iral":13560,"Ġani":13561,"Ġann":13562,"Ġpollo":13563,"Ġvers":13564,"Ġacen":13565,"Ġacar":13566,"Ġacri":13567,"ueno":13568,"igno":13569,"Ġdij":13570,"Ġdidn":13571,"pero":13572,"old":13573,"Ġmagu":13574,"Ġmateria":13575,"Ġcres":13576,"Ġcreep":13577,"break":13578,"Ġtenias":13579,"Ġvias":13580,"Ġric":13581,"Ġtrate":13582,"Ġtrafic":13583,"Ġtragado":13584,"Ġcodigos":13585,"Ġcaia":13586,"Ġcache":13587,"Ġsonrie":13588,"Ġimgur":13589,"Ġkind":13590,"Ġkeep":13591,"Ġmaleta":13592,"Ġchec":13593,"Ġchulos":13594,"Ġtantisimo":13595,"Ġmantuvo":13596,"Ġdictador":13597,"Ġrecar":13598,"Ġsabias":13599,"Ġsobrepas":13600,"Ġhangar":13601,"Ġraya":13602,"Ġraud":13603,"Ġjoy":13604,"Ġjoel":13605,"Ġjodidos":13606,"Ġencas":13607,"Ġmarcas":13608,"Ġdejame":13609,"Ġdistor":13610,"Ġpago":13611,"umbre":13612,"Ġestelar":13613,"Ġpunal":13614,"Ġpunch":13615,"Ġduo":13616,"Ġpongas":13617,"Ġpondra":13618,"Ġ2020":13619,"Ġintercal":13620,"Ġoferta":13621,"Ġappro":13622,"Ġpostura":13623,"Ġpareciera":13624,"Ġgray":13625,"boxd":13626,"Ġmunicion":13627,"Ġvotes":13628,"Ġusaron":13629,"Ġridd":13630,"Ġinflex":13631,"tinson":13632,"Ġencantaron":13633,"Ġsuponemos":13634,"Ġcalco":13635,"Ġpescado":13636,"Ġpresos":13637,"Ġvalga":13638,"Ġfanaticos":13639,"Ġllaves":13640,"Ġharto":13641,"Ġsacerdo":13642,"Ġentend":13643,"Ġadqui":13644,"Ġbarton":13645,"Ġgota":13646,"Ġfound":13647,"Ġautores":13648,"Ġinsisto":13649,"Ġhorda":13650,"Ġsuenan":13651,"Ġcolos":13652,"Ġtransmit":13653,"Ġtranslation":13654,"pensas":13655,"Ġespectro":13656,"Ġrecords":13657,"Ġconfor":13658,"Ġcercan":13659,"Ġmercado":13660,"Ġunited":13661,"Ġnominacion":13662,"Ġnombrar":13663,"Ġencontrando":13664,"Ġpreguntado":13665,"Ġwhis":13666,"Ġmilime":13667,"Ġdignas":13668,"Ġjunta":13669,"Ġdebut":13670,"Ġblair":13671,"Ġ158":13672,"Ġguerreros":13673,"Ġprofecia":13674,"Ġplagio":13675,"Ġ139":13676,"Ġaventur":13677,"Ġcomparte":13678,"Ġculm":13679,"Ġcomete":13680,"Ġwide":13681,"Ġ111":13682,"Ġ17587":13683,"Ġfrance":13684,"Ġlangu":13685,"Ġentraba":13686,"Ġlogicas":13687,"Ġarrival":13688,"Ġmayordo":13689,"Ġbuitre":13690,"Ġescapo":13691,"Ġsobraban":13692,"Ġflipe":13693,"Ġconseguida":13694,"Ġmanolo":13695,"Ġshould":13696,"Ġimpresionado":13697,"Ġficha":13698,"Ġpublica":13699,"Ġexpertos":13700,"Ġfeige":13701,"Ġmonsters":13702,"Ġreciben":13703,"Ġmediano":13704,"Ġcompanias":13705,"Ġrebec":13706,"four":13707,"Ġclim":13708,"Ġritchie":13709,"Ġincluya":13710,"Ġbrillo":13711,"Ġingenio":13712,"Ġcurrar":13713,"Ġdollar":13714,"Ġsilent":13715,"Ġvirtue":13716,"Ġvirgin":13717,"Ġpensandolo":13718,"Ġchristo":13719,"Ġplantean":13720,"Ġwalken":13721,"Ġmezclan":13722,"Ġpoliticos":13723,"Ġturn":13724,"Ġleyen":13725,"Ġnewman":13726,"Ġstatic":13727,"Ġusarlo":13728,"Ġentrenando":13729,"Ġsweet":13730,"Ġnaturales":13731,"Ġsimpson":13732,"Ġkingdom":13733,"Ġaburridos":13734,"Ġimpactado":13735,"Ġ1972":13736,"Ġavisa":13737,"Ġjajajaj":13738,"Ġfarrell":13739,"Ġextrema":13740,"Ġdameron":13741,"Ġencarga":13742,"Ġquitaron":13743,"Ġoperaciones":13744,"Ġrematar":13745,"Ġcomprende":13746,"Ġchanged":13747,"Ġsomeone":13748,"Ġcarismaticos":13749,"Ġfactible":13750,"Ġbird":13751,"Ġfrikis":13752,"Ġdurotan":13753,"Ġcuidada":13754,"Ġsilenci":13755,"Ġmentalidad":13756,"Ġenfocan":13757,"Ġorganos":13758,"Ġhunting":13759,"Ġapreci":13760,"gggg":13761,"Ġprivada":13762,"Ġpusiera":13763,"Ġparalit":13764,"Ġplasmado":13765,"Ġestupidos":13766,"Ġformando":13767,"dedores":13768,"ship":13769,"Ġtheme":13770,"Ġinsulsa":13771,"Ġmultiver":13772,"Ġapocaliptico":13773,"Ġagobio":13774,"Ġcalificacion":13775,"Ġregresar":13776,"Ġanuncios":13777,"Ġpedazos":13778,"Ġaplau":13779,"Ġacontecimiento":13780,"Ġexistencial":13781,"Ġarriesgado":13782,"Ġquisieran":13783,"Ġretraso":13784,"Ġmaneja":13785,"Ġmodelos":13786,"Ġartificiales":13787,"Ġcontesta":13788,"Ġspecial":13789,"Ġinmig":13790,"Ġrecrear":13791,"Ġglobo":13792,"Ġignorance":13793,"Ġhumilla":13794,"Ġdesastros":13795,"Ġpoblado":13796,"Ġdeterminado":13797,"Ġcondenado":13798,"Ġsorprendentemente":13799,"Ġempezara":13800,"Ġlouis":13801,"Ġrollos":13802,"Ġhipotesis":13803,"Ġbuscaba":13804,"Ġoliver":13805,"Ġobservando":13806,"Ġwilder":13807,"Ġdiscoteca":13808,"Ġacude":13809,"Ġrepublic":13810,"Ġadecuada":13811,"Ġpajaros":13812,"Ġembarazo":13813,"Ġjaegers":13814,"Ġobviando":13815,"Ġestuvieron":13816,"Ġrumorea":13817,"Ġfluido":13818,"Ġarqueo":13819,"Ġtrascendental":13820,"Ġparanormal":13821,"Ġnovedoso":13822,"Ġquerria":13823,"egger":13824,"Ġcomisario":13825,"Ġinjustice":13826,"Ġlonger":13827,"Ġventaja":13828,"Ġapareciera":13829,"Ġampli":13830,"Ġroberts":13831,"Ġmjol":13832,"Ġweaver":13833,"Ġsubjetivo":13834,"Ġdivertidas":13835,
[...]
